<pad>	0
<unk>	0
<s>	0
</s>	0
[MASK]	0
[NL]	0
,	-2.83665
.	-2.90583
▁▁▁	-2.93318
▁	-3.2899
'	-3.90409
s	-3.97494
▁the	-4.1052
▁I	-4.12186
▁and	-4.33798
;	-4.41044
▁to	-4.44976
▁of	-4.50047
▁a	-4.65731
d	-4.70806
▁you	-4.7556
▁my	-4.87246
?	-4.90597
▁in	-4.91777
!	-5.09209
▁is	-5.12913
▁that	-5.13757
▁not	-5.16436
▁me	-5.18471
-	-5.18582
▁And	-5.24502
▁be	-5.33176
▁with	-5.33345
▁it	-5.34486
▁his	-5.40954
▁your	-5.44752
▁for	-5.4663
▁this	-5.55595
▁have	-5.56006
▁he	-5.59101
▁him	-5.61137
▁▁	-5.64776
▁thou	-5.73136
▁will	-5.73313
ing	-5.78044
▁as	-5.8276
▁so	-5.83562
▁▁▁▁▁▁▁▁▁▁▁▁▁▁▁▁	-5.89492
▁The	-5.90849
▁her	-5.92763
▁but	-5.94928
▁thy	-5.96507
▁do	-6.01773
▁all	-6.01834
t	-6.03855
▁To	-6.09819
ed	-6.10868
▁thee	-6.11366
▁shall	-6.11655
▁are	-6.13265
▁That	-6.16555
▁on	-6.16805
ll	-6.18325
▁by	-6.18766
▁we	-6.19778
▁no	-6.22474
▁our	-6.23668
▁But	-6.29578
er	-6.29863
▁(	-6.31171
▁What	-6.31911
▁'	-6.32488
st	-6.32712
)	-6.36132
▁O	-6.4068
▁good	-6.41346
▁from	-6.4266
▁what	-6.43182
▁at	-6.44247
▁A	-6.4429
▁am	-6.49071
▁love	-6.50131
▁lord	-6.51632
ly	-6.51674
▁more	-6.52859
▁was	-6.53484
▁would	-6.55053
▁man	-6.55949
▁now	-6.56933
▁them	-6.57715
▁their	-6.58292
▁she	-6.58544
e	-6.60231
▁they	-6.60991
▁For	-6.6129
▁if	-6.64732
:	-6.66187
▁or	-6.66321
▁sir	-6.66377
r	-6.68385
▁us	-6.71481
▁here	-6.72585
▁know	-6.73074
▁hath	-6.75511
▁well	-6.75802
▁You	-6.76002
▁If	-6.76019
▁My	-6.76173
y	-6.77019
▁come	-6.77242
▁one	-6.77469
▁an	-6.77865
n	-6.78859
▁say	-6.7942
▁He	-6.79681
▁like	-6.80807
▁make	-6.84305
▁there	-6.84567
▁then	-6.85062
▁than	-6.88015
▁let	-6.88535
▁may	-6.89094
▁upon	-6.89783
▁should	-6.89918
▁As	-6.90471
▁which	-6.91336
▁see	-6.91626
▁must	-6.92238
▁were	-6.9247
▁did	-6.92562
▁out	-6.95988
▁OF	-6.96653
▁KING	-6.97011
▁King	-6.9777
▁go	-6.9906
Enter	-6.99286
▁had	-7.01336
▁such	-7.0282
▁In	-7.06266
▁when	-7.06865
▁Why	-7.07266
▁How	-7.07722
▁too	-7.09939
a	-7.10865
▁yet	-7.11799
T	-7.12435
▁This	-7.14061
▁can	-7.15485
▁some	-7.15543
▁th	-7.16236
▁No	-7.16619
▁these	-7.1692
▁up	-7.16966
▁So	-7.16976
▁heart	-7.1704
▁mine	-7.17438
l	-7.17444
p	-7.17609
▁father	-7.17955
▁give	-7.21442
▁speak	-7.21592
▁time	-7.21819
▁how	-7.22078
▁▁▁▁▁▁▁▁▁▁▁▁▁▁▁	-7.22418
▁take	-7.22915
▁think	-7.24323
▁With	-7.25404
▁Of	-7.25985
▁much	-7.26144
▁most	-7.26661
▁Come	-7.27949
▁Who	-7.29059
▁tell	-7.29107
▁Let	-7.30949
▁Thou	-7.31311
▁We	-7.3272
▁It	-7.33819
▁men	-7.34453
▁never	-7.35643
▁Which	-7.35861
▁hand	-7.38392
▁death	-7.39018
▁hear	-7.40562
▁life	-7.40982
▁When	-7.41042
▁art	-7.41432
RS	-7.42559
▁great	-7.42611
S	-7.43324
▁God	-7.45208
▁By	-7.45578
▁o	-7.45598
▁doth	-7.45948
c	-7.46941
tis	-7.4735
▁Do	-7.4804
m	-7.48062
▁own	-7.48749
▁Now	-7.48939
es	-7.49395
▁true	-7.49644
A	-7.50198
▁day	-7.52515
▁again	-7.53213
▁very	-7.53266
▁made	-7.53316
▁Be	-7.5442
▁un	-7.5505
▁Exeunt	-7.55096
▁Sir	-7.55412
▁where	-7.55465
▁There	-7.58331
▁night	-7.58749
▁cannot	-7.58831
▁fair	-7.58932
▁sweet	-7.59803
▁any	-7.60784
L	-7.61595
▁world	-7.61661
▁look	-7.62562
▁Then	-7.62584
▁other	-7.62766
▁Enter	-7.62831
en	-7.62847
▁Or	-7.62865
▁Where	-7.63043
▁been	-7.6389
▁away	-7.63915
▁eyes	-7.63955
▁son	-7.64037
▁Lord	-7.64217
D	-7.64294
▁call	-7.64369
b	-7.64521
▁blood	-7.64646
▁name	-7.64996
▁Ay	-7.65405
▁fear	-7.66167
▁down	-7.67271
▁noble	-7.67305
▁done	-7.6764
g	-7.68215
w	-7.68894
▁Your	-7.69133
Tis	-7.69147
▁two	-7.69886
▁Here	-7.70178
▁▁▁▁▁▁▁▁▁▁▁▁	-7.70547
▁honour	-7.71073
u	-7.71927
▁before	-7.71934
▁old	-7.72117
▁leave	-7.72332
th	-7.72825
CT	-7.72842
▁FI	-7.73397
▁brother	-7.73806
al	-7.75188
▁nor	-7.75201
▁Go	-7.76231
o	-7.76657
▁thus	-7.76703
▁who	-7.78466
▁S	-7.78736
▁heaven	-7.78904
▁ever	-7.79401
▁better	-7.80133
▁Well	-7.80383
▁way	-7.81175
H	-7.81505
▁pray	-7.81578
▁poor	-7.81621
▁lady	-7.82146
▁house	-7.8242
▁Duke	-7.83742
▁comes	-7.83756
▁AND	-7.83921
▁could	-7.84093
▁into	-7.8444
▁▁▁▁▁▁▁▁▁▁	-7.85091
▁Good	-7.8549
ARE	-7.85549
▁OR	-7.86135
BY	-7.86136
▁FOR	-7.86232
▁Is	-7.86242
▁nothing	-7.86282
▁▁▁▁▁▁▁▁▁▁▁▁▁▁	-7.86462
▁COP	-7.8665
▁live	-7.86857
▁head	-7.87067
▁part	-7.87531
▁She	-7.87787
▁hast	-7.87949
▁bear	-7.88111
▁His	-7.88512
▁many	-7.8894
▁DUKE	-7.89331
▁find	-7.89552
▁both	-7.89646
re	-7.89759
▁being	-7.90399
▁▁▁▁▁▁▁▁▁▁▁	-7.9061
▁master	-7.91185
▁Nay	-7.91367
▁myself	-7.92532
ED	-7.92659
ness	-7.93149
▁Prince	-7.93677
▁still	-7.93714
▁dead	-7.93762
▁word	-7.93976
i	-7.94263
▁They	-7.94623
▁might	-7.94986
▁F	-7.95219
se	-7.95487
▁Exit	-7.95738
▁off	-7.95919
▁wife	-7.96521
▁put	-7.96579
▁stand	-7.96604
est	-7.97119
▁Will	-7.9734
▁Not	-7.97727
Exit	-7.98137
▁show	-7.99335
▁little	-8.00041
in	-8.00206
▁long	-8.00389
▁soul	-8.00624
▁die	-8.00869
▁▁▁▁▁▁▁▁▁▁▁▁▁	-8.00963
▁Shall	-8.01307
▁first	-8.01741
▁those	-8.02171
▁keep	-8.0241
SCENE	-8.02795
▁Have	-8.03401
or	-8.03548
le	-8.03558
▁every	-8.03834
▁eye	-8.03953
▁friends	-8.05069
▁against	-8.05096
▁answer	-8.05231
on	-8.05606
▁gone	-8.05618
f	-8.05916
▁set	-8.05974
▁SECOND	-8.06362
▁friend	-8.06444
▁place	-8.07339
▁Than	-8.07458
▁Re	-8.07586
v	-8.07696
▁himself	-8.07703
▁T	-8.07743
▁best	-8.08685
ers	-8.08716
▁Caesar	-8.08718
▁E	-8.08787
▁thine	-8.08879
▁▁▁▁▁▁▁▁	-8.08897
▁GLOUCESTER	-8.09388
h	-8.0939
▁daughter	-8.09823
▁face	-8.1072
▁dear	-8.11065
▁woman	-8.11348
▁tongue	-8.1242
▁Yet	-8.12615
▁till	-8.13562
▁mother	-8.13689
▁B	-8.13828
▁none	-8.1388
▁QUEEN	-8.14044
k	-8.14124
▁peace	-8.15128
▁young	-8.15474
▁All	-8.1562
▁C	-8.15981
▁fool	-8.16112
▁full	-8.16123
▁France	-8.16637
▁bring	-8.16704
▁play	-8.1696
▁hold	-8.17034
▁Thy	-8.17283
▁words	-8.17337
▁king	-8.1829
▁though	-8.18987
▁stay	-8.19473
ar	-8.19515
▁else	-8.20813
▁▁▁▁▁▁▁▁▁	-8.21263
▁mind	-8.21712
▁thought	-8.22348
▁whose	-8.22706
▁matter	-8.22912
▁rest	-8.23052
▁said	-8.23175
▁LORD	-8.23382
▁Queen	-8.23441
▁Our	-8.2385
it	-8.23916
▁HENRY	-8.23975
▁once	-8.24157
RONIC	-8.24512
▁please	-8.25149
▁another	-8.25326
▁forth	-8.2548
▁hope	-8.25685
LY	-8.26064
▁Nor	-8.26197
▁three	-8.26689
▁ELE	-8.26707
▁D	-8.26935
▁back	-8.26956
▁PRO	-8.26965
▁WOR	-8.26965
▁therefore	-8.26965
IES	-8.26966
▁unto	-8.26983
SION	-8.26998
199	-8.27241
>	-8.27241
COMMERCIAL	-8.27241
▁INC	-8.27241
less	-8.27311
▁thing	-8.27437
▁Ham	-8.27542
▁USE	-8.27582
▁turn	-8.27612
▁M	-8.28318
▁sword	-8.28465
▁gentle	-8.28569
▁FALSTAFF	-8.28634
▁nature	-8.28634
▁indeed	-8.28635
▁boy	-8.28736
an	-8.28828
▁home	-8.28923
▁DISTRIBUT	-8.29186
▁about	-8.29251
▁kill	-8.29479
▁cause	-8.29514
▁husband	-8.30309
ful	-8.3057
▁G	-8.30574
▁Master	-8.30903
▁end	-8.30912
I	-8.30949
em	-8.3109
▁John	-8.31479
▁Give	-8.32265
▁fall	-8.32323
▁after	-8.32348
▁right	-8.3277
R	-8.32853
▁thousand	-8.32936
▁even	-8.32996
▁IS	-8.33275
▁truth	-8.3352
▁bid	-8.33832
▁has	-8.34246
▁madam	-8.34477
▁RICHARD	-8.34705
Aside	-8.34717
▁Grace	-8.35003
▁i	-8.35381
▁state	-8.35608
▁whom	-8.357
▁use	-8.35867
▁mean	-8.36599
▁war	-8.36731
ation	-8.36957
▁heard	-8.3697
▁Upon	-8.37122
▁dost	-8.37219
us	-8.37252
▁meet	-8.37295
▁crown	-8.37553
ce	-8.37704
▁shame	-8.38049
▁P	-8.38865
▁earth	-8.39157
▁faith	-8.39334
ur	-8.39526
▁Are	-8.39551
▁light	-8.39814
▁over	-8.40329
▁An	-8.40338
▁lie	-8.40679
▁hour	-8.40768
▁hence	-8.40852
ic	-8.41276
▁within	-8.41284
▁Rome	-8.41477
▁England	-8.41702
To	-8.42073
▁ye	-8.42241
▁power	-8.43201
ch	-8.43319
▁hither	-8.43908
▁fight	-8.44074
▁fellow	-8.44132
▁help	-8.44401
▁came	-8.44478
▁hands	-8.44495
▁news	-8.44764
ry	-8.44776
able	-8.45026
▁follow	-8.45626
ion	-8.45684
▁BRUTUS	-8.45722
▁things	-8.45978
▁false	-8.46052
▁ho	-8.46069
▁PAGE	-8.4639
▁wrong	-8.46556
▁thank	-8.46665
el	-8.46979
▁gentleman	-8.47081
red	-8.47422
▁ANTONY	-8.48079
▁grace	-8.48277
▁CLOWN	-8.48421
▁Would	-8.48421
▁enough	-8.49109
▁since	-8.4912
▁ere	-8.49172
▁lords	-8.49255
▁reason	-8.49299
at	-8.4934
▁rather	-8.49452
▁Did	-8.49475
▁Hath	-8.49475
et	-8.49716
▁shalt	-8.50146
▁honest	-8.50729
▁mad	-8.50905
▁kind	-8.51229
▁does	-8.51424
▁makes	-8.51532
▁court	-8.51539
▁ill	-8.51597
Exeunt	-8.51635
▁without	-8.51648
▁Look	-8.519
▁far	-8.52045
is	-8.52102
▁wit	-8.52468
▁welcome	-8.5261
▁body	-8.53184
▁fire	-8.53188
▁last	-8.53418
▁gods	-8.54008
▁de	-8.54178
▁sun	-8.54458
▁OTHELLO	-8.54772
▁new	-8.5496
▁near	-8.54977
▁youth	-8.55209
▁IAGO	-8.55503
▁lay	-8.55564
▁tears	-8.55682
▁SIR	-8.55871
ish	-8.55879
as	-8.55898
▁bed	-8.56584
▁mistress	-8.5661
▁sure	-8.56702
▁fortune	-8.56988
▁swear	-8.57168
▁break	-8.57169
▁yourself	-8.57355
enter	-8.57484
▁present	-8.57582
▁Mo	-8.57791
▁seen	-8.58325
▁sleep	-8.58587
▁Therefore	-8.58862
▁saw	-8.58862
▁high	-8.5902
▁prove	-8.59158
ra	-8.59169
ring	-8.59488
▁sea	-8.60159
▁spirit	-8.60172
▁wish	-8.60298
▁re	-8.60323
▁YORK	-8.60391
ies	-8.60813
▁"	-8.60942
rom	-8.61071
▁sent	-8.61225
▁SERVANT	-8.61494
▁strange	-8.6151
▁why	-8.61698
ate	-8.62356
▁means	-8.62504
▁get	-8.62756
▁horse	-8.62917
▁breath	-8.63191
▁lost	-8.63596
▁pardon	-8.6404
▁return	-8.64321
▁child	-8.64322
▁seek	-8.64483
▁letter	-8.64953
morrow	-8.64977
1	-8.65416
▁through	-8.65532
▁cousin	-8.66346
ant	-8.66488
▁only	-8.66509
▁Though	-8.66758
▁arms	-8.66979
▁CLEOPATRA	-8.67167
▁TIMON	-8.67167
▁ne	-8.67391
J	-8.67531
▁WARWICK	-8.6758
K	-8.67699
▁together	-8.67995
ous	-8.68031
▁At	-8.68159
▁Was	-8.68227
▁send	-8.68671
▁York	-8.6883
▁Lear	-8.6884
▁Some	-8.68871
day	-8.68976
▁devil	-8.69484
▁itself	-8.70096
▁business	-8.70522
▁left	-8.70522
▁land	-8.70852
il	-8.71018
▁talk	-8.71064
IS	-8.71069
▁villain	-8.71101
▁foul	-8.7138
▁under	-8.72012
ut	-8.72137
TE	-8.72211
▁wilt	-8.72243
▁alone	-8.72678
▁found	-8.72682
▁service	-8.73002
▁SYRACUSE	-8.73114
▁Henry	-8.73114
▁thoughts	-8.7314
▁wear	-8.73151
▁fly	-8.73239
▁age	-8.73677
The	-8.7376
▁WILLIAM	-8.73932
▁Eve	-8.7394
▁More	-8.74036
▁sight	-8.74096
▁comfort	-8.7421
▁THE	-8.74435
▁YOU	-8.74435
MIS	-8.74565
man	-8.74678
▁seem	-8.75296
▁beauty	-8.75326
ent	-8.75337
▁care	-8.75366
▁half	-8.75776
▁gave	-8.75807
▁desire	-8.75831
▁told	-8.75836
3	-8.75932
▁bloody	-8.76122
▁Antony	-8.76225
▁sister	-8.76225
▁MESSENGER	-8.76306
▁lose	-8.7631
▁p	-8.76611
▁joy	-8.76652
▁charge	-8.76853
▁less	-8.77157
▁purpose	-8.77181
▁These	-8.77332
▁praise	-8.77445
▁May	-8.77598
▁lies	-8.77751
▁same	-8.77773
▁need	-8.77799
2	-8.78045
▁royal	-8.78501
▁people	-8.78508
▁Take	-8.78747
▁worth	-8.78819
▁ROSALIND	-8.78971
▁late	-8.79394
▁gold	-8.799
and	-8.79916
▁grief	-8.79917
▁kiss	-8.79999
▁field	-8.80173
▁FORD	-8.80235
▁self	-8.80373
▁work	-8.80447
ling	-8.80597
eth	-8.80652
▁cold	-8.80853
▁Her	-8.8116
ANT	-8.81803
▁On	-8.81804
▁Say	-8.81819
▁pity	-8.8183
gainst	-8.82297
▁proud	-8.82324
LUS	-8.8235
▁law	-8.82463
▁Make	-8.82492
▁Pray	-8.82758
▁MACBETH	-8.83237
▁Speak	-8.83237
▁beseech	-8.83238
▁foot	-8.83679
▁uncle	-8.83828
ir	-8.83982
▁Till	-8.84232
▁says	-8.84666
IPHO	-8.847
▁grave	-8.85012
▁hard	-8.85046
▁company	-8.85193
▁general	-8.85193
▁dare	-8.85298
co	-8.85464
▁GENTLEMAN	-8.86186
▁bound	-8.86191
▁ear	-8.86205
▁hang	-8.86205
ON	-8.86345
▁V	-8.86494
▁Majesty	-8.86686
ION	-8.86711
▁draw	-8.87226
▁Were	-8.87362
ive	-8.87374
am	-8.87611
▁pass	-8.87792
▁serve	-8.87825
▁hate	-8.87871
CE	-8.87925
▁fit	-8.88159
LU	-8.88164
▁queen	-8.88212
▁wind	-8.88231
▁strong	-8.88375
▁JOHN	-8.88711
▁sorrow	-8.88908
id	-8.8897
▁believe	-8.89312
▁air	-8.89372
0	-8.89721
▁between	-8.89887
▁Can	-8.89985
▁One	-8.90024
▁sit	-8.90034
▁read	-8.90161
▁OTHERS	-8.90257
▁Kent	-8.90259
▁SCENE	-8.90317
▁free	-8.90628
▁command	-8.90746
▁doubt	-8.90754
ment	-8.90784
▁ask	-8.90943
ure	-8.90996
▁Edward	-8.91302
RY	-8.91307
▁each	-8.91312
LO	-8.91668
▁sound	-8.91733
▁Farewell	-8.91829
▁rich	-8.91898
▁run	-8.92079
▁arm	-8.92101
▁looks	-8.92246
▁LI	-8.92297
▁Like	-8.92359
O	-8.92506
▁worthy	-8.92746
▁CITIZEN	-8.92889
▁Highness	-8.92894
DISTRIBUT	-8.9291
▁CO	-8.92913
vi	-8.93205
▁wise	-8.93335
GE	-8.93348
DROMIO	-8.93424
▁gracious	-8.93424
▁warrant	-8.93424
▁SO	-8.93459
un	-8.93626
▁change	-8.93643
▁BE	-8.93884
TEXT	-8.93962
▁thyself	-8.93962
▁brought	-8.93962
▁marry	-8.94097
AD	-8.94163
LD	-8.94325
OWN	-8.94502
SHIP	-8.94502
▁further	-8.94502
▁happy	-8.94502
▁Marry	-8.94509
GES	-8.94562
▁times	-8.9458
▁cry	-8.94753
KE	-8.94854
▁years	-8.94976
TINE	-8.95046
▁TIME	-8.95046
▁money	-8.95046
▁days	-8.95244
▁ME	-8.95525
SPE	-8.95587
IGHT	-8.95592
▁Warwick	-8.95592
HAT	-8.95592
SHA	-8.95592
▁Lady	-8.95593
▁Tell	-8.95593
▁REA	-8.95593
YR	-8.95688
ECT	-8.95811
ck	-8.95832
▁holy	-8.9584
▁virtue	-8.95928
▁pleasure	-8.95929
▁known	-8.96081
PERSONA	-8.96141
BRA	-8.96142
MBER	-8.96142
SERVI	-8.96142
▁Madam	-8.96142
NOT	-8.96142
PROV	-8.96142
ANY	-8.96142
▁Richard	-8.96143
▁VER	-8.96145
▁cut	-8.96176
ig	-8.96183
▁THIS	-8.96654
▁base	-8.96665
DIC	-8.96692
IBI	-8.96694
LINO	-8.96694
ABLE	-8.96694
BERG	-8.96694
HINE	-8.96694
UCH	-8.96694
UTEN	-8.96694
WIT	-8.96694
▁CHAR	-8.96694
▁MAC	-8.96694
▁MAY	-8.96694
▁MENENIUS	-8.96694
▁LONG	-8.96694
OLLE	-8.96694
ENE	-8.96695
MPLE	-8.96695
▁PER	-8.967
DES	-8.967
IDE	-8.96761
▁given	-8.96786
▁maid	-8.9688
▁AS	-8.9689
▁knave	-8.97037
▁ha	-8.97065
▁country	-8.97233
▁course	-8.97413
▁fault	-8.97626
▁ta	-8.97691
▁trust	-8.97693
▁save	-8.97751
▁lives	-8.97885
▁f	-8.97957
▁EDWARD	-8.9837
▁PRINCE	-8.9837
▁touch	-8.98599
▁Yes	-8.98638
▁certain	-8.98718
▁side	-8.98765
▁BUCKINGHAM	-8.98935
▁English	-8.98935
▁ground	-8.98935
▁report	-8.9894
▁con	-8.98989
▁Brutus	-8.99028
▁while	-8.99047
▁Before	-8.99114
▁ANTONIO	-8.99503
▁LADY	-8.99503
▁sake	-8.99503
▁sick	-8.99937
▁point	-9.00077
▁Away	-9.00129
▁PETRUCHIO	-9.00295
▁knows	-9.00596
▁Alas	-9.00649
▁SUFFOLK	-9.00774
▁g	-9.0091
▁French	-9.01205
▁walk	-9.01227
▁CORIOLANUS	-9.0145
▁sin	-9.01573
ance	-9.01619
▁person	-9.01765
▁fast	-9.0185
▁Had	-9.02023
▁PANDARUS	-9.02394
▁TITUS	-9.02394
▁TOBY	-9.02982
▁drink	-9.0326
night	-9.03381
▁brave	-9.03433
▁music	-9.03565
▁watch	-9.03576
▁HELENA	-9.03582
de	-9.03675
▁goes	-9.03698
▁weep	-9.03975
▁others	-9.04013
ter	-9.04051
▁hell	-9.04136
▁CAESAR	-9.04169
ity	-9.04176
▁worse	-9.04185
▁ten	-9.0436
▁dis	-9.04416
ul	-9.04569
ious	-9.04751
▁DESDEMONA	-9.04768
▁VALENTINE	-9.04768
▁ring	-9.04908
▁BEROWNE	-9.04994
ver	-9.05114
▁Ah	-9.0519
▁eat	-9.05255
▁enemy	-9.0537
▁question	-9.0537
▁heavy	-9.0539
▁Gloucester	-9.05475
▁act	-9.05811
▁common	-9.05929
▁want	-9.05976
▁CRESSIDA	-9.05976
▁black	-9.05978
▁open	-9.06031
▁Thus	-9.0614
▁Rom	-9.06446
▁merry	-9.06587
▁mercy	-9.06787
"	-9.0694
ol	-9.06978
▁c	-9.07067
▁PAROLLES	-9.07199
▁PROTEUS	-9.07199
▁SHALLOW	-9.07199
▁II	-9.07468
▁sad	-9.07589
▁deep	-9.07665
▁women	-9.07817
▁knew	-9.07817
▁farewell	-9.07817
▁pay	-9.07861
▁revenge	-9.07907
um	-9.07927
▁dog	-9.08143
▁lov	-9.0866
▁yield	-9.08835
▁patience	-9.09063
▁soldier	-9.09092
▁Since	-9.09692
▁TROILUS	-9.09692
▁next	-9.09692
▁voice	-9.09721
▁remember	-9.0973
ne	-9.09755
▁hot	-9.09926
▁water	-9.10004
▁THIRD	-9.10324
▁palace	-9.10324
▁themselves	-9.10324
▁mock	-9.1033
▁born	-9.10402
men	-9.10762
▁content	-9.10787
▁bold	-9.1093
▁soldiers	-9.10933
▁LUCIUS	-9.10961
▁tender	-9.10986
▁Out	-9.11203
ard	-9.11438
▁loves	-9.11542
▁mark	-9.11898
▁Pedro	-9.12248
▁justice	-9.12255
ca	-9.12278
▁hearts	-9.12714
▁EPHESUS	-9.12897
▁ISABELLA	-9.12897
▁neither	-9.12897
▁suit	-9.1307
▁Fal	-9.13292
▁deed	-9.13405
▁See	-9.13472
▁counsel	-9.1355
▁PORTIA	-9.13551
▁Should	-9.13551
▁entreat	-9.13551
▁straight	-9.13557
▁Ha	-9.14002
▁took	-9.14023
▁sons	-9.14028
▁plain	-9.14061
▁haste	-9.142
▁sovereign	-9.14201
▁Hector	-9.14216
▁gentlemen	-9.14234
▁Romeo	-9.14293
▁appear	-9.14313
▁beat	-9.14454
▁ears	-9.14766
▁something	-9.14872
▁duty	-9.1554
▁servant	-9.1569
ted	-9.15697
▁oath	-9.15721
▁confess	-9.16163
▁valiant	-9.16327
ting	-9.16567
▁Un	-9.16667
▁just	-9.17407
▁De	-9.1741
▁woo	-9.17481
▁Sweet	-9.17564
▁four	-9.1758
om	-9.17642
▁Love	-9.17663
▁door	-9.17799
▁past	-9.17923
▁Mistress	-9.18249
▁lead	-9.18732
▁canst	-9.18963
.)	-9.1922
▁battle	-9.19647
▁liege	-9.19655
▁III	-9.19662
pp	-9.19675
▁soon	-9.19678
▁coming	-9.19747
▁twenty	-9.19927
▁Their	-9.20024
▁married	-9.20334
▁note	-9.20662
▁didst	-9.20726
ven	-9.20781
▁co	-9.21031
▁Cassio	-9.21037
▁Peace	-9.21037
▁deliver	-9.21524
▁flesh	-9.21746
▁glad	-9.21746
▁Stand	-9.21758
▁Such	-9.21771
▁Must	-9.21792
rs	-9.22046
▁Bene	-9.22153
▁spoke	-9.22248
▁b	-9.22346
▁laugh	-9.22448
▁ENOBARBUS	-9.22461
▁IMOGEN	-9.22461
▁city	-9.22476
▁dream	-9.22502
▁PISTOL	-9.22718
▁yours	-9.2272
ow	-9.23034
▁CASSIUS	-9.2318
▁LEONTES	-9.2318
▁sing	-9.23239
▁white	-9.23295
▁grow	-9.23758
▁mouth	-9.23784
▁ORLANDO	-9.23905
▁almost	-9.23905
▁already	-9.23905
▁strength	-9.23905
▁sport	-9.23925
▁needs	-9.23937
ud	-9.24393
▁lack	-9.24519
▁VIOLA	-9.24635
▁scorn	-9.24635
▁moon	-9.24655
▁la	-9.24952
ine	-9.25208
▁prithee	-9.2537
▁jest	-9.25424
▁action	-9.2543
▁presently	-9.25662
▁wonder	-9.26088
▁SICINIUS	-9.26111
▁pale	-9.26183
F	-9.26348
▁traitor	-9.26465
▁slave	-9.26478
▁become	-9.2657
▁win	-9.26611
ff	-9.2682
▁form	-9.26828
▁pluck	-9.26857
▁vile	-9.26885
me	-9.27132
te	-9.27252
▁lips	-9.27381
▁withal	-9.27524
▁suffer	-9.27649
▁Yea	-9.27701
▁favour	-9.27951
▁bosom	-9.28005
▁knight	-9.28005
▁worship	-9.28367
▁Claudio	-9.2837
ge	-9.28395
im	-9.28396
▁Th	-9.28447
▁morning	-9.2845
▁rage	-9.28581
▁chamber	-9.28794
ach	-9.28848
▁offer	-9.29048
▁PROSPERO	-9.2913
▁SOLDIER	-9.2913
▁sworn	-9.29136
▁Hero	-9.29196
▁Call	-9.29234
▁OLIVIA	-9.29298
▁tale	-9.29343
▁office	-9.29452
▁write	-9.29572
▁respect	-9.29625
▁heir	-9.29732
▁deny	-9.29902
age	-9.30067
▁hours	-9.30564
▁BASTARD	-9.30674
▁Fro	-9.30967
▁promise	-9.31121
▁speech	-9.31369
▁lion	-9.31512
he	-9.31638
▁attend	-9.31688
M	-9.3181
▁town	-9.31952
▁speed	-9.32119
▁Claud	-9.32239
▁lordship	-9.32304
▁wars	-9.32323
▁enter	-9.32537
▁sense	-9.32727
▁e	-9.3276
ba	-9.32777
▁behold	-9.32837
▁issue	-9.33037
▁feast	-9.33043
▁weak	-9.33123
▁Con	-9.3354
▁hair	-9.33587
▁bad	-9.33728
▁BERTRAM	-9.33836
▁MARGARET	-9.33836
▁SPEED	-9.33843
▁slain	-9.33855
▁fell	-9.33896
▁ready	-9.34015
▁learn	-9.34104
▁chance	-9.34387
▁conscience	-9.34643
▁kingdom	-9.34643
▁truly	-9.34645
▁stands	-9.34712
ward	-9.34872
ick	-9.34953
pe	-9.34981
▁Jul	-9.35036
▁passion	-9.35195
▁move	-9.35219
▁harm	-9.3543
▁BARDOLPH	-9.35456
▁CELIA	-9.35456
▁having	-9.35457
▁Leon	-9.3547
▁Beat	-9.35597
x	-9.35622
ian	-9.35666
for	-9.35723
▁low	-9.36025
▁guard	-9.36049
z	-9.36192
lo	-9.36259
▁fashion	-9.36275
▁quarrel	-9.36275
▁above	-9.36276
▁prince	-9.36728
E	-9.37154
▁witness	-9.37186
▁Hor	-9.37236
▁strike	-9.37268
▁met	-9.37436
▁short	-9.37786
▁SEBASTIAN	-9.37935
▁marriage	-9.37935
▁paper	-9.37936
▁labour	-9.37937
▁whole	-9.38101
▁living	-9.38133
▁hide	-9.38168
▁IV	-9.38434
▁letters	-9.38447
▁woe	-9.38565
▁force	-9.3871
▁Glou	-9.38776
▁JULIA	-9.38776
▁Nurse	-9.38776
▁POMPEY	-9.38776
▁children	-9.38776
▁Know	-9.38776
be	-9.38789
ill	-9.38821
▁often	-9.38834
▁thanks	-9.39227
▁Hear	-9.39301
ho	-9.39435
▁DUCHESS	-9.39623
▁offence	-9.39623
▁teach	-9.39623
▁wild	-9.39625
▁beggar	-9.39774
to	-9.39891
like	-9.4003
▁banish	-9.4024
▁heavens	-9.4033
▁case	-9.40407
▁DEMETRIUS	-9.40478
▁LUCIO	-9.40478
▁steal	-9.40478
are	-9.40517
▁tent	-9.40678
▁loving	-9.40903
ied	-9.41025
▁quick	-9.41195
▁loss	-9.41311
rt	-9.41683
▁car	-9.41771
▁deeds	-9.42084
▁danger	-9.42192
▁FRANCE	-9.42209
▁either	-9.42209
▁five	-9.42233
if	-9.42267
▁fine	-9.42649
▁feel	-9.42814
▁R	-9.42817
▁close	-9.42902
▁spirits	-9.42939
▁throw	-9.43026
▁hundred	-9.43087
▁judgment	-9.43087
op	-9.4315
▁noise	-9.43246
ve	-9.43413
▁ELIZABETH	-9.43972
▁Harry	-9.43972
▁LAFEU	-9.43972
▁commend	-9.43972
▁title	-9.43972
▁PRINCESS	-9.43972
▁Never	-9.43985
▁fill	-9.43986
▁Being	-9.44255
▁cross	-9.44273
▁ARMADO	-9.44864
▁BOLINGBROKE	-9.44864
▁COUNTESS	-9.44864
▁choose	-9.44865
▁behind	-9.44865
▁Hamlet	-9.44871
▁got	-9.45446
ay	-9.45463
▁St	-9.45503
▁subject	-9.45708
▁CASSIO	-9.45765
▁CLARENCE	-9.45765
▁enemies	-9.45765
▁Kate	-9.45767
▁second	-9.4577
▁feed	-9.46186
▁won	-9.46214
▁APEMANTUS	-9.46674
▁EMILIA	-9.46674
Scene	-9.46675
▁breast	-9.46675
▁Roman	-9.46676
▁order	-9.46716
▁beard	-9.47245
▁Signior	-9.47592
▁pretty	-9.47592
ia	-9.47777
▁W	-9.48025
▁Friar	-9.48159
▁wouldst	-9.48262
sh	-9.48438
▁ANNE	-9.48518
▁ourselves	-9.48518
▁treason	-9.48518
▁along	-9.48877
▁fetch	-9.49452
▁pride	-9.49453
▁health	-9.49453
▁Page	-9.49485
▁Hot	-9.49601
▁mighty	-9.49989
ist	-9.50334
▁poison	-9.50378
▁Because	-9.50396
▁EVANS	-9.50396
▁MARIA	-9.50396
▁forget	-9.50398
▁speaks	-9.50453
▁buy	-9.5048
▁fresh	-9.50818
▁begin	-9.51107
▁longer	-9.51229
▁seal	-9.51297
▁TRANIO	-9.51348
▁hurt	-9.51348
▁worst	-9.51364
▁writ	-9.51438
▁shake	-9.51556
▁morrow	-9.51712
▁grant	-9.52087
▁fortunes	-9.52295
▁mortal	-9.52297
▁Timon	-9.5231
▁excellent	-9.5231
▁presence	-9.5231
▁consent	-9.5231
▁Lucius	-9.5231
▁match	-9.52311
▁ladies	-9.52315
▁Mark	-9.52326
▁vow	-9.52379
ke	-9.52407
▁understand	-9.52965
▁Hark	-9.53281
▁plague	-9.53282
twas	-9.53432
!-	-9.53464
▁CYMBELINE	-9.53599
▁stop	-9.54189
C	-9.54216
▁souls	-9.5499
▁soft	-9.55104
▁COSTARD	-9.55251
▁KATHERINA	-9.55251
▁birth	-9.55251
▁drown	-9.55251
▁heads	-9.55274
▁dull	-9.55348
▁awhile	-9.55376
▁honourable	-9.55385
▁ma	-9.55408
▁seems	-9.5542
▁curse	-9.55531
▁year	-9.5561
▁bless	-9.55776
▁ex	-9.56181
▁brief	-9.56251
▁rogue	-9.56251
▁wisdom	-9.56251
▁least	-9.56253
▁Earl	-9.56257
▁l	-9.5631
▁foolish	-9.56329
▁gates	-9.56386
▁perceive	-9.56408
our	-9.56727
▁Edg	-9.57238
ty	-9.57253
▁Fortune	-9.57261
▁THERSITES	-9.57261
▁valour	-9.57261
▁anything	-9.57262
▁Hold	-9.57267
▁Saint	-9.57274
▁dangerous	-9.57281
▁measure	-9.57392
▁fearful	-9.57428
▁kings	-9.57589
tter	-9.57955
▁KATHARINE	-9.58282
▁virtuous	-9.58282
▁oft	-9.58303
▁died	-9.5858
▁lo	-9.58648
▁ANGELO	-9.58726
▁book	-9.59012
▁parts	-9.59216
ain	-9.59262
▁Clarence	-9.59312
▁MALVOLIO	-9.59312
▁POSTHUMUS	-9.59312
▁ALL	-9.59313
▁knock	-9.59313
cu	-9.59543
ily	-9.59687
▁po	-9.59711
▁post	-9.60068
▁dark	-9.60338
▁MOTH	-9.60354
▁summer	-9.60354
▁Mine	-9.60395
▁beg	-9.60454
▁trouble	-9.60488
ph	-9.60504
▁cast	-9.6053
ice	-9.60574
▁Lo	-9.6118
▁prison	-9.6119
Flourish	-9.61407
▁Falstaff	-9.61407
▁Great	-9.61407
▁SALISBURY	-9.61407
▁kept	-9.61407
▁bitter	-9.6141
▁round	-9.61411
▁Think	-9.61414
ier	-9.61414
▁troth	-9.61415
▁Stay	-9.61416
▁going	-9.61426
▁went	-9.61599
▁among	-9.61671
all	-9.6171
▁HASTINGS	-9.61796
▁purse	-9.6186
▁toward	-9.62074
▁broke	-9.62359
▁judge	-9.62457
▁Talbot	-9.62471
▁ULYSSES	-9.62471
▁blind	-9.62471
▁opinion	-9.62471
▁humble	-9.62471
▁motion	-9.62474
ound	-9.6248
▁NORTHUMBERLAND	-9.62671
▁faults	-9.6282
▁pen	-9.6296
▁anon	-9.63018
▁Count	-9.63117
ap	-9.6344
▁WOLSEY	-9.63546
▁Heaven	-9.63546
▁Nothing	-9.63548
▁dinner	-9.63552
twere	-9.63626
▁quickly	-9.63731
▁Pol	-9.63782
▁humour	-9.63839
go	-9.63866
▁fools	-9.64068
▁forward	-9.64102
▁shape	-9.64326
▁stir	-9.64494
ng	-9.64568
▁cheer	-9.64608
▁Fool	-9.64633
▁Pompey	-9.64633
▁blame	-9.64633
▁swift	-9.64633
▁angry	-9.64633
▁quiet	-9.6464
▁receive	-9.64831
▁vain	-9.64839
ary	-9.65052
ise	-9.65104
▁gives	-9.65389
▁march	-9.65429
▁Fie	-9.65432
ath	-9.6547
U	-9.65556
the	-9.65612
▁bears	-9.6567
▁AGUECHEEK	-9.65732
▁Faith	-9.65732
▁PROVOST	-9.65732
▁Welcome	-9.65732
▁herself	-9.65732
ite	-9.65901
▁Paris	-9.66135
US	-9.66597
▁god	-9.66749
▁blow	-9.66806
▁Ne	-9.66839
▁CLOTEN	-9.66843
▁Emperor	-9.66843
▁SHYLOCK	-9.66843
▁Troilus	-9.66843
▁view	-9.66843
▁green	-9.66844
▁Jew	-9.6685
▁carry	-9.6687
▁pains	-9.67184
▁manner	-9.67225
▁bond	-9.67231
▁Whom	-9.67434
▁double	-9.67725
▁bar	-9.67797
▁patient	-9.67814
▁small	-9.6793
▁bastard	-9.67966
▁BOYET	-9.67966
▁Cardinal	-9.67966
▁Cassius	-9.67966
▁occasion	-9.67966
▁Jove	-9.67967
▁Iago	-9.67968
end	-9.68021
ug	-9.68059
▁Into	-9.68088
▁taken	-9.6814
os	-9.68161
▁burn	-9.68376
ning	-9.68406
▁join	-9.68641
▁brain	-9.68902
▁damn	-9.68911
▁ACHILLES	-9.69103
▁ESCALUS	-9.69103
▁HORTENSIO	-9.69103
▁IACHIMO	-9.69103
▁LUCENTIO	-9.69103
▁rascal	-9.69103
▁sorry	-9.69104
▁laid	-9.69125
N	-9.69134
▁Unless	-9.69146
▁count	-9.69159
mo	-9.69203
▁army	-9.69353
▁coward	-9.6937
▁princes	-9.69414
▁drum	-9.69534
▁pa	-9.69551
▁proof	-9.69628
▁bu	-9.70101
▁cur	-9.70105
▁pre	-9.70162
▁Under	-9.70255
▁train	-9.70256
ADRIANA	-9.70275
▁Both	-9.70279
ear	-9.7029
They	-9.70312
▁Moor	-9.70358
▁golden	-9.70374
▁piece	-9.70509
▁effect	-9.7069
▁wood	-9.71022
▁flow	-9.71202
▁SENATOR	-9.71354
▁widow	-9.71415
▁forgot	-9.71416
▁alive	-9.71421
▁lend	-9.71427
▁taste	-9.71439
▁rise	-9.7153
▁honesty	-9.71798
▁sort	-9.71845
ld	-9.72031
tle	-9.72172
den	-9.7228
▁shows	-9.72393
one	-9.72425
▁BAPTISTA	-9.72591
▁QUICKLY	-9.72591
▁TOUCHSTONE	-9.72591
▁large	-9.72591
▁First	-9.72592
▁sharp	-9.72592
▁wealth	-9.72592
▁intend	-9.72593
▁rude	-9.72613
▁try	-9.72624
▁bestow	-9.7264
▁thence	-9.73004
▁trumpet	-9.73104
▁murder	-9.73199
▁bow	-9.73454
nt	-9.73607
▁prayers	-9.73657
▁ship	-9.7374
ip	-9.73781
▁Antonio	-9.73782
▁BASSANIO	-9.73782
▁COMINIUS	-9.73782
▁DIOMEDES	-9.73782
▁advantage	-9.73782
▁glory	-9.73782
▁request	-9.73782
▁fled	-9.73796
▁neck	-9.7382
▁cap	-9.7395
▁Cap	-9.74255
▁secret	-9.74324
▁prisoner	-9.74528
▁owe	-9.74695
▁safe	-9.74701
▁CAMILLO	-9.74987
▁Captain	-9.74987
▁MARCUS	-9.74987
▁Margaret	-9.74987
▁Suffolk	-9.74987
▁defend	-9.74987
▁methinks	-9.74987
▁clear	-9.7499
▁delight	-9.74998
▁scarce	-9.74999
▁catch	-9.75013
▁camp	-9.75014
▁Art	-9.75232
▁Fair	-9.75233
▁wert	-9.75285
▁Troy	-9.75488
bo	-9.75758
▁Macbeth	-9.76206
▁Marcius	-9.76206
▁NORFOLK	-9.76206
▁obey	-9.76206
▁Wilt	-9.76206
▁neighbour	-9.76207
▁Christian	-9.76208
▁stood	-9.76208
ius	-9.76355
▁wine	-9.76434
▁sum	-9.76526
▁Ver	-9.76569
▁walls	-9.76569
▁colour	-9.76578
▁sail	-9.76794
▁Mer	-9.76801
▁fat	-9.76998
▁hearing	-9.77012
B	-9.77036
▁per	-9.77174
▁several	-9.77305
▁because	-9.77441
▁shepherd	-9.77441
▁demand	-9.77441
▁thither	-9.77442
▁gain	-9.77476
▁Ere	-9.77643
▁nurse	-9.77717
va	-9.77768
▁monster	-9.7784
▁rank	-9.77875
▁street	-9.78069
▁tear	-9.78091
▁due	-9.78218
▁en	-9.7829
▁Angelo	-9.78691
▁Buckingham	-9.78691
▁CAIUS	-9.78691
▁Jack	-9.78691
▁MACDUFF	-9.78691
▁Prithee	-9.78691
▁TALBOT	-9.78691
▁Those	-9.78691
▁simple	-9.78691
▁struck	-9.78691
▁After	-9.78691
▁slander	-9.78691
▁seven	-9.78693
▁fail	-9.78711
▁drawn	-9.78972
▁Within	-9.78998
▁nose	-9.79114
▁wound	-9.79128
▁bare	-9.79133
▁host	-9.79398
ble	-9.79535
▁star	-9.79704
▁perform	-9.79944
▁Alb	-9.79954
Alarum	-9.79957
▁GRATIANO	-9.79957
▁SOMERSET	-9.79957
▁folly	-9.79957
▁Indeed	-9.79957
▁Edm	-9.79959
▁Fare	-9.80013
▁excuse	-9.80124
▁LORDS	-9.80242
P	-9.80307
▁held	-9.8042
▁wounds	-9.80565
▁greater	-9.80666
ab	-9.80708
▁masters	-9.80712
▁deserve	-9.80729
▁sudden	-9.8109
▁lust	-9.81124
▁CHARMIAN	-9.81239
▁MURDERER	-9.81239
▁PISANIO	-9.81239
▁argument	-9.81239
▁cunning	-9.81239
▁fiend	-9.8124
▁chain	-9.81245
▁bright	-9.81249
▁list	-9.81253
▁winter	-9.8126
▁rare	-9.8128
▁Without	-9.81294
▁Bring	-9.81342
ave	-9.81346
▁Lest	-9.81404
led	-9.81466
▁kneel	-9.81509
▁dance	-9.81609
▁hadst	-9.81694
▁aside	-9.81903
▁shadow	-9.81954
▁cheek	-9.81969
▁La	-9.82188
▁cruel	-9.8253
▁Achilles	-9.82537
▁BELARIUS	-9.82537
▁FLUELLEN	-9.82537
▁captain	-9.82537
▁precious	-9.82537
▁steel	-9.82538
fac	-9.82708
▁embrace	-9.82739
▁endure	-9.82796
▁wash	-9.82829
▁blessed	-9.82832
▁greatness	-9.82936
▁Dis	-9.8309
▁liv	-9.83348
▁pure	-9.83432
▁aught	-9.83853
▁dispatch	-9.83853
▁knowledge	-9.83853
▁messenger	-9.83853
▁sirrah	-9.83853
▁priest	-9.83854
▁rough	-9.83858
▁borne	-9.84136
▁forest	-9.84153
▁bones	-9.84247
▁forbid	-9.84456
▁sign	-9.84503
▁Ros	-9.84505
▁beast	-9.84509
up	-9.84544
▁drop	-9.84586
▁breed	-9.84874
by	-9.84981
▁ARIEL	-9.85187
▁HOST	-9.85187
▁HOSTESS	-9.85187
▁LAUNCE	-9.85187
▁Lancaster	-9.85187
▁ancient	-9.85187
▁wherefore	-9.85187
▁spend	-9.85187
▁third	-9.85189
▁table	-9.85236
▁spring	-9.85263
▁wretched	-9.85367
▁Reg	-9.85436
▁affection	-9.86027
▁wait	-9.86232
ie	-9.8636
ail	-9.86438
ak	-9.86483
▁depart	-9.86524
▁CLIFFORD	-9.86538
▁Dauphin	-9.86538
▁private	-9.86538
▁wicked	-9.86538
▁plot	-9.86545
▁safety	-9.86546
▁loud	-9.86552
▁Poor	-9.86564
▁proper	-9.86606
Within	-9.86662
▁smile	-9.86752
▁princely	-9.86783
▁wits	-9.86831
les	-9.86886
▁Sp	-9.87016
▁calls	-9.87102
▁possess	-9.87104
ever	-9.87176
▁rain	-9.87221
▁stain	-9.87307
▁terms	-9.87435
twixt	-9.87477
▁le	-9.8766
ile	-9.87693
▁Am	-9.87743
W	-9.87817
▁AUTOLYCUS	-9.87908
▁GRUMIO	-9.87908
▁GUIDERIUS	-9.87908
▁JUSTICE	-9.87908
▁ROSALINE	-9.87908
▁SILVIA	-9.87908
▁STEPHANO	-9.87908
▁church	-9.87908
▁yourselves	-9.87908
▁tune	-9.87909
▁charm	-9.87911
▁merit	-9.87912
▁intent	-9.87913
▁throne	-9.87913
▁Unto	-9.87925
▁heels	-9.87936
▁wake	-9.88054
▁Get	-9.88163
▁seat	-9.88186
▁offend	-9.88214
tion	-9.88541
▁sigh	-9.88555
▁claim	-9.88565
▁gall	-9.88992
ons	-9.89213
▁AARON	-9.89297
▁EXETER	-9.89297
▁JAQUES	-9.89297
▁choice	-9.89297
▁storm	-9.89297
▁forgive	-9.89297
Reads	-9.89308
▁breathe	-9.89361
▁quite	-9.89388
art	-9.89421
▁brow	-9.89717
▁creature	-9.90239
▁While	-9.90245
ough	-9.90491
▁Co	-9.90557
▁Helen	-9.90623
▁song	-9.90637
▁approach	-9.90645
ag	-9.90647
▁visit	-9.90681
▁liberty	-9.90705
▁Could	-9.90705
▁Time	-9.90705
▁wanton	-9.90804
▁1.	-9.90932
▁red	-9.91068
ink	-9.9132
▁weary	-9.91346
ries	-9.91347
▁glass	-9.91358
▁Ben	-9.91448
London	-9.91535
▁takes	-9.91634
▁manners	-9.91651
▁pain	-9.92013
▁CADE	-9.92134
▁HECTOR	-9.92134
▁Keep	-9.92134
▁SLENDER	-9.92134
▁Sirrah	-9.92134
▁malice	-9.92134
▁Poins	-9.92134
▁crave	-9.9214
▁dwell	-9.92146
▁wall	-9.92151
▁pound	-9.92158
ub	-9.92291
▁heat	-9.92336
▁abuse	-9.92453
▁lest	-9.92467
▁former	-9.925
ern	-9.92553
▁foes	-9.92579
▁goodly	-9.92734
▁cheeks	-9.92763
▁faint	-9.92829
▁grows	-9.92949
▁meat	-9.93014
▁shouldst	-9.93049
▁grieve	-9.93103
▁foe	-9.93258
▁frown	-9.93267
▁Hast	-9.93288
▁legs	-9.93429
▁Bardolph	-9.93583
▁CARDINAL	-9.93583
▁GREMIO	-9.93583
▁Methinks	-9.93583
▁majesty	-9.93583
▁melancholy	-9.93583
▁particular	-9.93583
▁Follow	-9.93583
▁thrice	-9.93583
▁remembrance	-9.93584
▁utter	-9.93587
▁gallant	-9.93601
▁Wor	-9.93625
do	-9.93627
▁guilty	-9.93634
▁Anne	-9.93637
▁En	-9.93832
▁mov	-9.93853
▁wast	-9.94434
▁pleas	-9.94481
▁boys	-9.94485
▁mis	-9.94781
▁consider	-9.94796
▁2.	-9.95002
▁AGAMEMNON	-9.95054
▁PAULINA	-9.95054
▁POLIXENES	-9.95054
▁Somerset	-9.95054
▁discover	-9.95054
▁leisure	-9.95054
▁thief	-9.95054
▁Tower	-9.95058
▁Made	-9.95064
▁hit	-9.95084
▁Juliet	-9.95445
rate	-9.95451
▁awake	-9.95513
lt	-9.95751
▁wrongs	-9.95807
▁finger	-9.96172
▁imp	-9.96185
▁blows	-9.96449
▁drunk	-9.96484
▁perfect	-9.9649
▁idle	-9.96515
ial	-9.96517
▁fie	-9.96531
▁Bolingbroke	-9.96546
▁FABIAN	-9.96546
▁VOLUMNIA	-9.96546
▁courage	-9.96546
▁murther	-9.96546
▁repent	-9.96546
▁thunder	-9.96546
▁story	-9.96546
▁Pardon	-9.96546
▁spent	-9.96546
▁vice	-9.96551
▁fame	-9.96565
▁window	-9.96573
▁Bid	-9.96636
▁madness	-9.96702
▁CHARLES	-9.96852
▁wherein	-9.96921
▁cure	-9.97107
▁London	-9.97175
▁room	-9.9723
▁knee	-9.97388
▁tongues	-9.97686
▁gift	-9.9771
▁serv	-9.97755
▁Ho	-9.97782
▁Pro	-9.97826
▁pow	-9.97947
▁lock	-9.98045
CHIE	-9.98061
▁BIANCA	-9.98061
▁PUCELLE	-9.98061
▁Valentine	-9.98061
▁monstrous	-9.98061
▁stuff	-9.98061
▁tyrant	-9.98061
▁counterfeit	-9.98061
▁Benedick	-9.98061
▁protest	-9.98061
▁nay	-9.98072
▁few	-9.9809
▁dar	-9.98163
▁dry	-9.98222
▁flatter	-9.98294
▁Wherein	-9.98414
▁holds	-9.98731
▁stars	-9.98741
▁N	-9.98918
▁desires	-9.98954
was	-9.9918
▁oaths	-9.99261
▁evil	-9.99273
▁proceed	-9.99287
▁Clifford	-9.996
▁desert	-9.996
▁fought	-9.996
▁public	-9.996
▁Wherefore	-9.996
▁easy	-9.996
▁shore	-9.996
▁smell	-9.996
▁proclaim	-9.99601
▁mountain	-9.99605
▁fond	-9.99616
▁fish	-9.99658
▁gra	-9.99675
▁warm	-9.99892
▁unless	-9.999
▁spite	-9.99945
▁affairs	-9.9997
▁waste	-10.0002
ess	-10.0002
▁cost	-10.0003
min	-10.0025
▁deal	-10.0034
rous	-10.0039
▁mo	-10.004
▁clo	-10.0059
▁rule	-10.0071
▁remain	-10.0085
▁Put	-10.0087
▁gross	-10.0101
▁aid	-10.0104
▁success	-10.0114
▁AJAX	-10.0116
▁Please	-10.0116
▁Tybalt	-10.0116
▁adieu	-10.0116
▁enjoy	-10.0116
▁girl	-10.0116
▁silver	-10.0116
▁ransom	-10.0116
▁discourse	-10.0116
▁Percy	-10.0116
▁express	-10.0117
▁anger	-10.0117
▁Still	-10.0118
ign	-10.0166
▁port	-10.0168
▁dies	-10.0209
rn	-10.0237
▁pe	-10.0238
▁stone	-10.024
▁line	-10.024
▁vows	-10.0264
▁abroad	-10.0275
▁study	-10.0275
▁courtesy	-10.0275
▁food	-10.0276
▁Hang	-10.0276
▁trial	-10.0277
▁ruin	-10.0277
▁silence	-10.0278
▁Ex	-10.0279
▁single	-10.0289
▁maiden	-10.0289
▁weigh	-10.0298
with	-10.0299
▁Me	-10.0341
▁ride	-10.0344
▁lover	-10.0349
mon	-10.0349
▁trumpets	-10.0366
▁Athens	-10.0372
▁mayst	-10.0381
▁fellows	-10.0385
▁mend	-10.0397
▁Edmund	-10.04
▁hunt	-10.0405
▁rose	-10.041
▁Su	-10.0415
▁betray	-10.0424
▁Ajax	-10.0436
▁DUMAIN	-10.0436
▁Desdemona	-10.0436
▁FRENCH	-10.0436
▁HUBERT	-10.0436
▁LYSANDER	-10.0436
▁TAMORA	-10.0436
▁cried	-10.0436
▁friar	-10.0436
▁niece	-10.0436
▁degree	-10.0436
▁Attendants	-10.0436
▁natural	-10.0436
▁forsworn	-10.0436
▁rock	-10.0437
▁quoth	-10.0437
▁Show	-10.0438
▁paid	-10.0438
▁fury	-10.0441
▁supper	-10.0444
ors	-10.0459
▁Laer	-10.0459
▁fears	-10.0464
▁gar	-10.0478
▁slow	-10.0493
ments	-10.052
▁fain	-10.0526
▁Too	-10.0531
▁Mar	-10.0532
fold	-10.0546
▁Men	-10.0558
▁top	-10.0566
▁jewel	-10.0577
▁instant	-10.0586
▁stol	-10.0593
▁ARVIRAGUS	-10.06
▁revolt	-10.06
▁Two	-10.06
▁sack	-10.06
▁thrive	-10.06
▁prick	-10.06
▁twice	-10.0601
▁dreadful	-10.0602
▁cover	-10.0603
▁lawful	-10.0609
▁wide	-10.0611
▁dust	-10.0614
▁broken	-10.0618
▁ch	-10.0622
▁Bear	-10.0639
▁assure	-10.0647
▁blessing	-10.0652
▁Only	-10.0652
▁brothers	-10.0657
▁falls	-10.0663
▁Po	-10.067
▁cat	-10.068
ot	-10.0684
▁habit	-10.0687
▁swords	-10.0702
born	-10.0714
▁gate	-10.0737
▁wretch	-10.0738
▁receiv	-10.074
▁tomb	-10.0744
▁sometime	-10.0753
▁wench	-10.0761
▁entertain	-10.0765
▁triumph	-10.0765
▁AUFIDIUS	-10.0767
▁BIONDELLO	-10.0767
▁RODERIGO	-10.0767
▁skill	-10.0767
▁stomach	-10.0767
▁realm	-10.0767
▁sheep	-10.0767
▁Corn	-10.0775
▁castle	-10.0778
▁sooner	-10.0812
▁keeps	-10.0853
▁follows	-10.0864
▁hid	-10.0886
tween	-10.0893
▁Le	-10.0896
▁br	-10.0927
▁GONZALO	-10.0936
▁HOLOFERNES	-10.0936
▁MIRANDA	-10.0936
▁Othello	-10.0936
▁SHEPHERD	-10.0936
▁asleep	-10.0936
▁custom	-10.0936
▁remedy	-10.0936
▁whilst	-10.0936
▁condemn	-10.0936
▁equal	-10.0936
▁flood	-10.0936
▁Besides	-10.0936
▁reign	-10.0938
▁whereof	-10.0941
▁season	-10.0943
▁encounter	-10.0946
▁yonder	-10.0947
pri	-10.0951
row	-10.0953
▁start	-10.097
▁CALIBAN	-10.0972
▁yea	-10.0974
▁band	-10.0974
▁mi	-10.0975
▁whence	-10.0983
▁reasons	-10.1001
out	-10.103
▁bearing	-10.1052
▁crow	-10.1087
▁doors	-10.1092
▁HERMIA	-10.1109
▁Rosalind	-10.1109
▁Silvia	-10.1109
▁always	-10.1109
▁womb	-10.1109
▁Hence	-10.1109
▁ease	-10.1109
▁wives	-10.1109
▁cup	-10.1111
▁memory	-10.1111
▁tide	-10.1112
▁main	-10.1117
▁feet	-10.1127
ret	-10.1131
▁Set	-10.1132
▁Oph	-10.1136
▁MARCIUS	-10.1139
▁Leonato	-10.1142
▁whore	-10.1147
▁worm	-10.1155
▁Man	-10.1167
▁prepare	-10.1172
▁leaves	-10.1197
her	-10.1218
He	-10.1239
ey	-10.1267
hood	-10.1269
▁dishonour	-10.1272
▁condition	-10.1272
▁Ma	-10.1275
▁debt	-10.1277
▁wrath	-10.1282
▁six	-10.1284
▁AENEAS	-10.1284
▁BOTTOM	-10.1284
▁LORENZO	-10.1284
▁Montague	-10.1284
▁Proteus	-10.1284
▁countenance	-10.1284
▁dagger	-10.1284
▁thrust	-10.1284
▁treasure	-10.1284
▁regard	-10.1284
▁image	-10.1284
▁estate	-10.1285
▁possible	-10.1285
▁figure	-10.1285
▁bark	-10.1289
▁warlike	-10.1289
▁Save	-10.1294
side	-10.1295
▁subjects	-10.1295
▁citizens	-10.1299
▁outward	-10.1305
▁SATURNINUS	-10.1322
ned	-10.1323
▁ripe	-10.1342
way	-10.1344
▁fare	-10.1344
▁Dog	-10.1351
ves	-10.1352
ire	-10.1367
bon	-10.1368
▁weeping	-10.1377
▁colours	-10.1379
▁ways	-10.139
▁stranger	-10.1414
▁towards	-10.1425
▁clouds	-10.1428
▁angel	-10.1455
▁ay	-10.1461
▁Believe	-10.1463
▁Charles	-10.1463
▁Either	-10.1463
▁FLAVIUS	-10.1463
▁FLORIZEL	-10.1463
▁LEWIS	-10.1463
▁Northumberland	-10.1463
▁THESEUS	-10.1463
▁True	-10.1463
▁Whilst	-10.1463
▁burden	-10.1463
▁divine	-10.1463
▁practice	-10.1463
▁Three	-10.1463
▁Titus	-10.1463
▁shut	-10.1463
▁fancy	-10.1463
▁nine	-10.1464
▁lean	-10.147
ities	-10.1477
▁promis	-10.1487
▁dearest	-10.149
▁Ch	-10.1496
▁stones	-10.1497
▁pro	-10.1517
ton	-10.1521
old	-10.1523
▁doing	-10.1549
▁honours	-10.158
▁root	-10.1625
▁led	-10.1643
▁solemn	-10.1644
LUCIANA	-10.1645
▁Myself	-10.1645
▁Protector	-10.1645
▁absence	-10.1645
▁happiness	-10.1645
▁minute	-10.1645
▁quality	-10.1645
▁recover	-10.1645
▁guest	-10.1645
▁Castle	-10.1645
▁civil	-10.1645
▁gown	-10.1645
▁whether	-10.1645
▁teeth	-10.1645
▁loose	-10.1645
▁dread	-10.1645
▁number	-10.1645
▁flight	-10.1646
▁Turn	-10.1649
▁meaning	-10.1649
MAN	-10.165
▁Alack	-10.1651
▁Ca	-10.1666
▁slaughter	-10.1675
▁ab	-10.1742
▁grown	-10.1748
rest	-10.1771
▁seeming	-10.1773
▁horses	-10.1773
ash	-10.178
▁Bo	-10.1792
▁goodness	-10.18
▁chide	-10.1801
▁profit	-10.1807
que	-10.181
▁honor	-10.1828
▁trick	-10.1829
▁Cupid	-10.183
▁LAUNCELOT	-10.183
▁Nature	-10.183
▁Thomas	-10.183
▁buried	-10.183
▁crack	-10.183
▁innocent	-10.183
▁naked	-10.183
▁nought	-10.183
▁object	-10.183
▁reverend	-10.183
▁Marcus	-10.183
▁account	-10.183
▁chief	-10.183
▁fore	-10.1831
▁fright	-10.1831
▁Death	-10.1832
▁armour	-10.1832
▁rail	-10.1833
▁pick	-10.1834
▁Fear	-10.1836
▁making	-10.1842
▁kindness	-10.1849
kin	-10.1851
▁None	-10.1854
▁officer	-10.1859
▁disgrace	-10.1862
▁WESTMORELAND	-10.1871
▁inter	-10.1874
▁doom	-10.1898
▁temper	-10.1898
▁frame	-10.19
▁joint	-10.1906
▁spi	-10.1924
▁lovers	-10.1924
atch	-10.1946
▁challenge	-10.195
▁greet	-10.1987
▁heavenly	-10.1993
▁wings	-10.1995
▁heed	-10.1999
▁bend	-10.2002
▁prevail	-10.2018
▁Beatrice	-10.2018
▁CHAMBERLAIN	-10.2018
▁LUCETTA	-10.2018
▁charity	-10.2018
▁companion	-10.2018
▁desperate	-10.2018
▁disease	-10.2018
▁ducats	-10.2018
▁humbly	-10.2018
▁knife	-10.2018
▁constant	-10.2018
▁Caius	-10.2019
▁garden	-10.2019
▁glove	-10.2019
▁hollow	-10.202
▁prize	-10.2027
▁Romans	-10.2028
ship	-10.2031
▁sway	-10.2033
ition	-10.2042
▁com	-10.2052
▁mere	-10.2085
▁govern	-10.2086
aking	-10.209
▁blush	-10.2098
▁tree	-10.2136
▁sore	-10.2141
▁Gon	-10.2156
▁servants	-10.2169
▁mar	-10.2176
ified	-10.2182
▁Ford	-10.2187
aside	-10.2193
right	-10.2195
▁spur	-10.2199
▁voices	-10.2202
▁fruit	-10.2208
▁import	-10.2209
tru	-10.221
▁DIANA	-10.2211
▁PHILIP	-10.2211
▁guess	-10.2211
▁maintain	-10.2211
▁despair	-10.2211
▁flies	-10.2211
▁mirth	-10.2211
▁smooth	-10.2211
▁denied	-10.2211
▁commission	-10.2211
▁mild	-10.2212
▁undone	-10.2212
▁Doctor	-10.2212
▁cries	-10.2213
▁courtier	-10.2215
▁press	-10.2221
▁apt	-10.2223
▁plead	-10.223
▁thick	-10.223
▁spoken	-10.2242
▁deceiv	-10.2246
▁learned	-10.2265
ans	-10.227
mit	-10.2275
▁drops	-10.2289
ris	-10.2335
▁powers	-10.2355
▁usurp	-10.2375
▁credit	-10.2391
▁enforce	-10.2397
▁begins	-10.2399
▁griefs	-10.2401
▁Bianca	-10.2407
▁ROSS	-10.2407
▁empty	-10.2407
▁firm	-10.2407
▁picture	-10.2407
▁tidings	-10.2407
▁disdain	-10.2407
▁envy	-10.2407
▁trade	-10.2407
▁authority	-10.2407
▁tread	-10.2408
▁Hastings	-10.2408
▁peril	-10.2408
▁undertake	-10.2408
▁earnest	-10.2408
▁crowns	-10.2409
▁Might	-10.2409
▁Shallow	-10.2415
▁throat	-10.2417
▁painted	-10.2418
▁sickness	-10.2419
▁forbear	-10.2439
▁retire	-10.2449
▁aim	-10.2458
▁freely	-10.2463
▁greatest	-10.2466
▁devise	-10.2482
▁traitors	-10.2506
▁rid	-10.252
▁Lie	-10.2538
na	-10.2554
io	-10.2559
▁saying	-10.2579
▁raise	-10.259
▁mount	-10.2592
▁threat	-10.2602
▁compass	-10.2605
▁AUMERLE	-10.2607
▁Humphrey	-10.2607
▁PUCK	-10.2607
▁WITCH	-10.2607
▁bought	-10.2607
▁conduct	-10.2607
▁convey	-10.2607
▁flourish	-10.2607
▁swore	-10.2607
▁lamb	-10.2607
▁sweat	-10.2607
▁forfeit	-10.2607
▁plant	-10.2607
▁disposition	-10.2607
▁Whither	-10.2607
▁salt	-10.2607
▁iron	-10.2608
▁modesty	-10.2616
▁render	-10.2622
ify	-10.2632
▁lovely	-10.2632
af	-10.2642
▁weight	-10.2644
ai	-10.2648
▁knees	-10.2654
▁sour	-10.2668
▁sooth	-10.2674
ame	-10.2693
▁Venice	-10.272
ER	-10.2725
▁Ba	-10.273
▁party	-10.2732
▁hopes	-10.2734
ale	-10.2749
▁deadly	-10.276
▁roar	-10.2779
▁horns	-10.2784
▁wont	-10.2792
shrew	-10.2808
▁virgin	-10.281
▁Egypt	-10.281
▁sacr	-10.2811
▁Demetrius	-10.2811
▁George	-10.2811
▁LONGAVILLE	-10.2811
▁Mortimer	-10.2811
▁Salisbury	-10.2811
▁conclude	-10.2811
▁contempt	-10.2811
▁mischief	-10.2811
▁ghost	-10.2811
▁search	-10.2811
▁esteem	-10.2811
▁tedious	-10.2811
▁despite	-10.2811
▁vengeance	-10.2811
▁hill	-10.2811
▁gentlewoman	-10.2812
gre	-10.2813
▁March	-10.2814
▁meeting	-10.2815
▁Pa	-10.2816
▁spare	-10.2816
▁coat	-10.2817
▁blest	-10.2822
▁witch	-10.2824
▁confirm	-10.2832
▁Old	-10.2845
▁below	-10.2849
lin	-10.2856
▁shallow	-10.287
▁Amen	-10.2871
▁Whiles	-10.2878
▁sighs	-10.2883
▁lands	-10.2892
▁leg	-10.2892
▁besides	-10.2909
▁streets	-10.2914
▁becomes	-10.2915
Another	-10.2924
no	-10.2945
▁bird	-10.2974
ock	-10.2979
▁mourn	-10.2988
▁execution	-10.2988
▁Hal	-10.3001
▁jealous	-10.3006
▁qua	-10.3018
▁Andronicus	-10.3019
▁BOY	-10.3019
▁CATESBY	-10.3019
▁CLAUDIO	-10.3019
▁GREY	-10.3019
▁NERISSA	-10.3019
▁NESTOR	-10.3019
▁Norfolk	-10.3019
▁OLIVER	-10.3019
▁THURIO	-10.3019
▁Truly	-10.3019
▁device	-10.3019
▁ignorant	-10.3019
▁obedience	-10.3019
▁satisfied	-10.3019
▁taught	-10.3019
▁confound	-10.3019
▁dumb	-10.3019
▁suck	-10.3019
▁tempest	-10.302
▁edge	-10.3022
▁cave	-10.3022
▁Leave	-10.3024
▁cock	-10.3025
▁minds	-10.3032
Sings	-10.3033
▁Sh	-10.3034
▁suddenly	-10.3044
▁meant	-10.3047
clock	-10.306
▁bite	-10.3066
▁pin	-10.3074
▁flower	-10.3077
▁Li	-10.3077
▁garments	-10.3086
▁attendants	-10.3094
ci	-10.312
▁Draw	-10.3145
▁brains	-10.3157
bed	-10.316
eat	-10.3195
▁daughters	-10.3221
▁tempt	-10.3221
▁employ	-10.3229
▁expect	-10.323
▁sha	-10.3232
TRESS	-10.3232
▁EARL	-10.3232
▁PATROCLUS	-10.3232
▁QUINCE	-10.3232
▁Roderigo	-10.3232
▁benefit	-10.3232
▁contrary	-10.3232
▁league	-10.3232
▁violent	-10.3232
▁cease	-10.3232
▁renown	-10.3232
▁whisper	-10.3232
▁kinsman	-10.3232
▁elder	-10.3232
▁mistake	-10.3232
▁quit	-10.3235
▁fiery	-10.3235
▁reward	-10.3237
▁Lay	-10.3252
▁followers	-10.3255
▁sometimes	-10.3257
▁Live	-10.3261
▁comp	-10.3279
vil	-10.3283
light	-10.3288
▁allow	-10.3306
▁limbs	-10.3317
▁hat	-10.3319
▁du	-10.3324
ight	-10.3335
▁therein	-10.3342
▁horn	-10.3356
▁able	-10.3375
▁appears	-10.3411
rew	-10.3411
arm	-10.3414
of	-10.3428
▁AGRIPPA	-10.3449
▁ALCIBIADES	-10.3449
▁ALONSO	-10.3449
▁CAPTAIN	-10.3449
▁CONSTABLE	-10.3449
▁Hermia	-10.3449
▁Horatio	-10.3449
▁TRINCULO	-10.3449
▁behalf	-10.3449
▁chair	-10.3449
▁complexion	-10.3449
▁length	-10.3449
▁ambition	-10.3449
▁build	-10.3449
▁Help	-10.345
▁brook	-10.345
▁Watch	-10.345
▁honey	-10.345
▁key	-10.3451
▁cool	-10.3453
▁big	-10.3454
▁slight	-10.3457
▁victory	-10.3457
▁Per	-10.3458
▁Troyan	-10.3462
▁dew	-10.3478
▁sat	-10.3493
▁add	-10.3501
▁par	-10.3511
iness	-10.3515
▁wag	-10.3521
▁conceit	-10.3521
▁early	-10.3523
▁virtues	-10.3535
▁dam	-10.3559
▁brows	-10.3589
▁fate	-10.3603
▁wing	-10.3612
4	-10.3648
▁flowers	-10.3653
▁faces	-10.3654
▁following	-10.3656
▁bawd	-10.366
▁WATCH	-10.3672
▁ARCHBISHOP	-10.3672
▁CHIRON	-10.3672
▁FERDINAND	-10.3672
▁Pyramus	-10.3672
▁attempt	-10.3672
▁circumstance	-10.3672
▁hazard	-10.3672
▁monument	-10.3672
▁policy	-10.3672
▁spake	-10.3672
▁Brother	-10.3672
▁durst	-10.3672
▁tonight	-10.3672
▁Serv	-10.3672
▁rash	-10.3672
▁alas	-10.3673
▁fo	-10.3673
▁torment	-10.3674
▁bill	-10.3676
▁Peter	-10.3678
▁Don	-10.3678
▁sentence	-10.3678
▁Gent	-10.3678
▁Once	-10.3683
▁Dear	-10.3686
▁faithful	-10.369
▁drive	-10.3691
▁prey	-10.3694
▁groan	-10.3709
▁ga	-10.372
▁school	-10.372
ace	-10.3723
▁gifts	-10.3724
▁Wales	-10.373
▁burning	-10.3734
▁loath	-10.376
▁miss	-10.3771
▁bo	-10.3776
uch	-10.3786
▁winds	-10.3829
▁bleed	-10.3882
▁shine	-10.3898
▁Burgundy	-10.3899
▁MENAS	-10.3899
▁Plantagenet	-10.3899
▁Play	-10.3899
▁difference	-10.3899
▁extreme	-10.3899
▁hereafter	-10.3899
▁rhyme	-10.3899
▁spoil	-10.3899
▁tremble	-10.3899
▁vantage	-10.3899
▁NYM	-10.3899
▁WIDOW	-10.3899
▁familiar	-10.3899
▁bodies	-10.3899
▁hark	-10.3899
▁store	-10.3899
▁Laertes	-10.3899
▁inform	-10.3899
▁reputation	-10.3899
▁Cannot	-10.3899
▁Thanks	-10.3899
▁strain	-10.39
▁alter	-10.39
▁Behold	-10.3903
▁passage	-10.3903
▁ladyship	-10.3904
▁tame	-10.3904
▁About	-10.3907
▁beaten	-10.3917
cap	-10.3927
▁shortly	-10.394
▁month	-10.3942
▁cloud	-10.3946
▁Francis	-10.3979
▁shot	-10.3984
read	-10.3986
▁brings	-10.3988
ress	-10.4
ize	-10.4033
▁sits	-10.4038
run	-10.4041
cy	-10.4049
▁tall	-10.4058
ram	-10.4062
▁liest	-10.4063
▁rag	-10.4069
▁deceive	-10.4089
▁cl	-10.4104
▁conquer	-10.4123
▁scar	-10.4128
▁Brook	-10.4131
▁Camillo	-10.4131
▁Capitol	-10.4131
▁HERMIONE	-10.4131
▁LEPIDUS	-10.4131
▁SALERIO	-10.4131
▁accident	-10.4131
▁advice	-10.4131
▁check	-10.4131
▁infinite	-10.4131
▁perforce	-10.4131
▁pocket	-10.4131
▁stream	-10.4131
▁substance	-10.4131
▁twelve	-10.4131
▁delay	-10.4131
▁depend	-10.4131
▁native	-10.4132
▁dying	-10.4132
▁pack	-10.4132
▁Sit	-10.4132
▁rush	-10.4132
▁Gentlemen	-10.4132
▁boast	-10.4132
▁pair	-10.4135
▁dress	-10.4135
▁herald	-10.4135
▁page	-10.4137
▁value	-10.4138
▁market	-10.4139
▁pour	-10.4142
▁beyond	-10.4151
twill	-10.4158
bate	-10.4164
▁consul	-10.4167
ties	-10.4167
ions	-10.4168
▁offended	-10.417
▁accuse	-10.4175
▁damned	-10.4179
▁Greek	-10.4179
▁Pre	-10.4185
▁north	-10.4197
some	-10.4197
▁unb	-10.4198
▁Has	-10.42
▁sold	-10.4208
▁ent	-10.4208
time	-10.4211
▁Lords	-10.423
▁approve	-10.4248
▁prisoners	-10.427
▁rob	-10.4295
▁odds	-10.4306
▁advise	-10.4319
▁sleeping	-10.4326
▁prov	-10.4354
▁smiles	-10.4357
▁modest	-10.4358
tract	-10.4367
▁Arthur	-10.437
▁Bassanio	-10.437
▁KEEPER	-10.437
▁appetite	-10.437
▁reverence	-10.437
▁shoot	-10.437
▁Senate	-10.437
▁farther	-10.437
▁sky	-10.437
▁bind	-10.437
▁apart	-10.437
▁displeasure	-10.437
▁savage	-10.437
▁wax	-10.437
▁token	-10.437
▁abide	-10.4372
▁friendship	-10.4374
▁saint	-10.4374
Music	-10.4376
▁fatal	-10.4378
▁agree	-10.438
▁Send	-10.438
▁sell	-10.438
▁fairly	-10.4385
▁belly	-10.4386
▁que	-10.439
▁weeds	-10.4399
▁suspect	-10.4402
▁deserv	-10.4402
▁bred	-10.4411
▁island	-10.4412
▁Princess	-10.4412
▁suitor	-10.4418
▁fingers	-10.443
▁dish	-10.4437
▁Com	-10.4446
▁rate	-10.4458
▁sides	-10.4458
▁travel	-10.447
▁fe	-10.4471
house	-10.4475
▁tend	-10.4476
▁sounds	-10.4499
▁dreams	-10.4516
▁special	-10.4523
▁fee	-10.4529
pot	-10.4531
▁Cor	-10.4558
▁affect	-10.4588
long	-10.459
▁profess	-10.4608
oc	-10.4611
▁Banquo	-10.4613
▁Clown	-10.4613
▁Douglas	-10.4613
▁GOWER	-10.4613
▁Lavinia	-10.4613
▁Lucentio	-10.4613
▁Lysander	-10.4613
▁MALCOLM	-10.4613
▁Whether	-10.4613
▁afraid	-10.4613
▁cuckold	-10.4613
▁defence	-10.4613
▁glorious	-10.4613
▁merchant	-10.4613
▁repair	-10.4613
▁unknown	-10.4613
▁Although	-10.4613
▁fierce	-10.4613
▁trifle	-10.4613
▁midnight	-10.4613
▁torture	-10.4614
▁until	-10.4614
▁everything	-10.4614
▁Soft	-10.4614
▁human	-10.4614
▁Long	-10.4615
▁stick	-10.4616
▁pitch	-10.4616
▁tailor	-10.4617
▁knot	-10.4617
▁snow	-10.462
▁cell	-10.462
▁numbers	-10.462
▁swallow	-10.4622
▁wink	-10.4623
▁lament	-10.4625
▁Many	-10.463
▁Par	-10.4639
▁thinking	-10.4642
▁dares	-10.4654
ible	-10.4656
▁Strike	-10.4662
owl	-10.4672
▁fairest	-10.4676
ler	-10.4677
ith	-10.4682
▁furnish	-10.4692
▁knaves	-10.4702
▁Capulet	-10.4714
port	-10.4731
▁seest	-10.4763
▁apparel	-10.4765
▁3.	-10.4765
▁dearly	-10.4771
▁turns	-10.4778
▁fairy	-10.4819
gen	-10.4841
▁direct	-10.4842
▁wi	-10.4853
▁CASCA	-10.4863
▁CONSTANCE	-10.4863
▁Diomed	-10.4863
▁Grecian	-10.4863
▁MARIANA	-10.4863
▁ORLEANS	-10.4863
▁Pistol	-10.4863
▁bounty	-10.4863
▁conjure	-10.4863
▁divide	-10.4863
▁language	-10.4863
▁nephew	-10.4863
▁accept	-10.4863
▁Welsh	-10.4863
▁William	-10.4863
▁barren	-10.4863
▁calm	-10.4863
▁wrought	-10.4864
▁whoreson	-10.4864
▁Hereford	-10.4864
▁clothes	-10.4864
▁Full	-10.4864
▁butcher	-10.4864
▁scape	-10.4866
▁nice	-10.4866
▁revel	-10.4866
▁Much	-10.4866
▁countrymen	-10.4868
▁error	-10.4869
▁forsooth	-10.4872
▁Arm	-10.4876
▁Young	-10.489
wing	-10.4894
▁alike	-10.4896
▁Mars	-10.4896
▁pate	-10.4906
▁thinks	-10.4915
▁proceeding	-10.4915
▁parted	-10.4917
▁woes	-10.4919
▁suppose	-10.4923
▁continue	-10.4924
▁stroke	-10.4929
ze	-10.4932
▁forces	-10.4932
▁attended	-10.4936
▁odd	-10.4948
▁ran	-10.4963
▁attending	-10.4964
▁sting	-10.4966
rain	-10.4972
▁ends	-10.4989
▁weapons	-10.5007
ept	-10.5016
bear	-10.5046
▁assur	-10.5054
▁Bar	-10.5055
use	-10.5057
▁event	-10.5073
▁whip	-10.5091
▁borrow	-10.5097
▁amaz	-10.5099
▁Cressid	-10.5111
▁pit	-10.5116
▁pursue	-10.5117
▁punish	-10.5117
▁DAUPHIN	-10.512
▁Emilia	-10.512
▁PARIS	-10.512
▁POET	-10.512
▁WINCHESTER	-10.512
▁bottom	-10.512
▁ignorance	-10.512
▁milk	-10.512
▁record	-10.512
▁serpent	-10.512
▁staff	-10.512
▁vouchsafe	-10.512
▁wreck	-10.512
▁Cousin	-10.512
▁SIMPLE	-10.512
▁tarry	-10.512
▁mask	-10.512
▁zeal	-10.512
▁task	-10.512
▁feather	-10.512
▁marvel	-10.512
▁chaste	-10.5121
▁leap	-10.5121
NG	-10.5122
▁nation	-10.5124
▁Came	-10.5125
▁doctor	-10.5127
▁dogs	-10.5131
▁hateful	-10.5133
▁Boy	-10.5134
▁bell	-10.5139
▁Every	-10.514
▁sink	-10.5146
▁Host	-10.5151
Rome	-10.5152
Be	-10.5157
▁flame	-10.5167
▁babe	-10.5192
▁instrument	-10.5192
▁step	-10.5193
▁minister	-10.5195
▁melt	-10.5217
▁affections	-10.5221
▁Does	-10.5243
▁ru	-10.5256
▁deer	-10.5257
ANGELO	-10.5268
▁sorrows	-10.5286
▁dote	-10.5288
▁Ten	-10.5299
will	-10.5306
ung	-10.5315
▁seas	-10.5331
▁robe	-10.5352
▁Car	-10.5352
▁pu	-10.5358
▁je	-10.5363
iz	-10.5374
low	-10.5379
▁commit	-10.5382
▁Adieu	-10.5383
▁Aufidius	-10.5383
▁MOWBRAY	-10.5383
▁Petruchio	-10.5383
▁Richmond	-10.5383
▁SURREY	-10.5383
▁Soldiers	-10.5383
▁Westmoreland	-10.5383
▁blunt	-10.5383
▁eternal	-10.5383
▁example	-10.5383
▁guide	-10.5383
▁sceptre	-10.5383
▁shift	-10.5383
▁stamp	-10.5383
▁twain	-10.5383
▁visage	-10.5383
▁Ghost	-10.5383
▁slew	-10.5383
▁afterwards	-10.5383
▁whither	-10.5383
▁Find	-10.5383
▁bride	-10.5384
▁contract	-10.5384
▁stage	-10.5385
▁moment	-10.5385
▁Osw	-10.5388
▁sue	-10.5393
▁robb	-10.5393
▁Cry	-10.5407
▁bade	-10.5428
▁Remember	-10.5429
▁speaking	-10.5437
▁neglect	-10.5446
▁boot	-10.5461
▁curs	-10.5475
▁prayer	-10.5476
▁betwixt	-10.5479
▁maids	-10.5483
▁bent	-10.5504
▁peers	-10.5509
▁west	-10.552
ix	-10.5532
▁chase	-10.5533
ta	-10.5539
▁kin	-10.5544
OLD	-10.5562
▁avoid	-10.5583
hearted	-10.5592
ook	-10.5601
▁months	-10.5602
▁clock	-10.5608
Y	-10.5641
▁flat	-10.5652
▁BEDFORD	-10.5653
▁Coriolanus	-10.5653
▁Dromio	-10.5653
▁EROS	-10.5653
▁Empress	-10.5653
▁JESSICA	-10.5653
▁KATHERINE	-10.5653
▁MAYOR	-10.5653
▁STANLEY	-10.5653
▁banquet	-10.5653
▁create	-10.5653
▁dignity	-10.5653
▁impossible	-10.5653
▁knit	-10.5653
▁luck	-10.5653
▁strive	-10.5653
▁unnatural	-10.5653
▁pearl	-10.5653
▁scene	-10.5653
▁silent	-10.5653
▁Guil	-10.5653
▁misery	-10.5653
▁also	-10.5653
▁weather	-10.5653
▁rotten	-10.5653
▁arrest	-10.5654
▁yoke	-10.5654
▁poet	-10.5654
▁Up	-10.5654
▁fox	-10.5654
▁week	-10.5655
▁temple	-10.5656
▁Bora	-10.5656
▁huge	-10.5656
▁entertainment	-10.5657
▁perish	-10.5658
hrough	-10.5658
▁Hail	-10.566
▁possession	-10.5662
▁unfold	-10.5662
▁darkness	-10.5663
▁acquainted	-10.5664
▁Thisby	-10.567
place	-10.5671
▁moe	-10.5678
▁befall	-10.5684
▁lip	-10.5692
▁Toby	-10.5701
▁belong	-10.5708
▁names	-10.5715
▁villainy	-10.5727
iest	-10.5733
V	-10.5742
▁villains	-10.5746
▁stronger	-10.5754
▁Britain	-10.5766
▁Y	-10.5776
▁favours	-10.5787
▁require	-10.5793
▁fits	-10.5833
▁rat	-10.5838
ility	-10.5844
▁fan	-10.5854
▁corn	-10.5862
▁morn	-10.5901
▁coz	-10.593
6	-10.5931
▁Cleopatra	-10.5931
▁OBERON	-10.5931
▁Robert	-10.5931
▁Wife	-10.5931
▁eagle	-10.5931
▁envious	-10.5931
▁quarter	-10.5931
▁stoop	-10.5931
▁terror	-10.5931
▁vessel	-10.5931
▁decay	-10.5931
▁nobility	-10.5931
▁redeem	-10.5931
▁slept	-10.5931
▁pomp	-10.5931
▁palm	-10.5931
▁beauteous	-10.5931
▁article	-10.5931
▁Scotland	-10.5931
▁acquaintance	-10.5932
▁pause	-10.5932
▁duke	-10.5932
▁stern	-10.5933
▁amiss	-10.5933
▁Gentle	-10.5935
▁banishment	-10.5936
▁bury	-10.5936
▁shrewd	-10.5936
▁wants	-10.5944
▁thereof	-10.5945
▁Unti	-10.595
▁heartily	-10.5952
SC	-10.5956
▁purposes	-10.5957
▁wounded	-10.5981
▁hardly	-10.6017
ray	-10.603
▁urg	-10.6035
▁term	-10.6036
▁swa	-10.6039
▁front	-10.6049
▁worn	-10.6057
▁Another	-10.606
▁resolve	-10.608
▁hanging	-10.6108
▁chang	-10.6117
▁followed	-10.6124
▁Ro	-10.6161
▁groans	-10.6168
▁chin	-10.6174
▁reveng	-10.6175
▁arriv	-10.6185
▁mate	-10.6185
5	-10.6195
▁grand	-10.6206
▁BURGUNDY	-10.6217
▁DOLL	-10.6217
▁Hercules	-10.6217
▁PAINTER	-10.6217
▁PLANTAGENET	-10.6217
▁REIGNIER	-10.6217
▁SENIOR	-10.6217
▁VIRGILIA	-10.6217
▁afford	-10.6217
▁censure	-10.6217
▁conclusion	-10.6217
▁discretion	-10.6217
▁lieutenant	-10.6217
▁Turk	-10.6217
▁Villain	-10.6217
▁stretch	-10.6217
▁sought	-10.6217
▁although	-10.6217
▁shun	-10.6217
▁haunt	-10.6217
▁felt	-10.6217
▁physician	-10.6218
▁raven	-10.6218
▁Italy	-10.6218
▁thieves	-10.6218
▁venture	-10.6218
▁pinch	-10.622
▁pleasant	-10.622
▁isle	-10.6221
▁jealousy	-10.6233
▁SON	-10.6248
▁sand	-10.6261
▁wave	-10.6262
▁spit	-10.6262
▁height	-10.6272
▁lodge	-10.6292
▁prais	-10.6309
▁fairer	-10.6313
now	-10.6329
▁commanded	-10.6343
▁Mis	-10.6349
lain	-10.6353
law	-10.6358
▁feeling	-10.6374
▁pieces	-10.64
▁drums	-10.6402
▁sings	-10.6409
▁friendly	-10.6411
Before	-10.6417
▁provide	-10.642
▁fa	-10.6422
▁yond	-10.6427
blood	-10.6434
▁books	-10.6459
▁marks	-10.6482
▁prevent	-10.6488
▁shed	-10.649
No	-10.6495
▁unkind	-10.6507
▁physic	-10.651
▁Attend	-10.6511
7	-10.6511
▁BANQUO	-10.6511
▁Blunt	-10.6511
▁GAUNT	-10.6511
▁Hubert	-10.6511
▁IRAS	-10.6511
▁LODOVICO	-10.6511
▁OUTLAW	-10.6511
▁PETER	-10.6511
▁Priam	-10.6511
▁RATCLIFF	-10.6511
▁RICHMOND	-10.6511
▁SILVIUS	-10.6511
▁SOOTHSAYER	-10.6511
▁Tranio	-10.6511
▁ambitious	-10.6511
▁character	-10.6511
▁climb	-10.6511
▁enterprise	-10.6511
▁handkerchief	-10.6511
▁monarch	-10.6511
▁naught	-10.6511
▁necessity	-10.6511
▁secure	-10.6511
▁strife	-10.6511
▁tyranny	-10.6511
▁wolf	-10.6511
▁Commend	-10.6511
▁Messenger	-10.6511
▁harsh	-10.6511
▁journey	-10.6511
▁Father	-10.6511
▁gather	-10.6511
▁subtle	-10.6511
▁nobly	-10.6511
▁gaze	-10.6512
▁Mother	-10.6512
▁cloak	-10.6512
▁committed	-10.6512
▁eight	-10.6513
▁Julia	-10.6514
▁falsehood	-10.6515
▁willingly	-10.6517
▁pace	-10.6521
▁angels	-10.6524
▁river	-10.6524
▁oak	-10.6525
▁dim	-10.6526
▁joyful	-10.6527
▁Noble	-10.653
▁privilege	-10.6538
▁Sure	-10.6544
▁remains	-10.657
▁according	-10.6585
▁desir	-10.6599
▁chid	-10.6599
▁seeing	-10.6604
▁creatures	-10.661
▁surely	-10.6632
▁kindly	-10.6639
hand	-10.6658
▁ope	-10.6676
▁mouths	-10.6686
An	-10.6703
▁Hav	-10.6716
▁Sound	-10.6726
roth	-10.6732
▁toil	-10.6747
father	-10.6748
▁inward	-10.6781
quire	-10.6783
▁laws	-10.6784
▁corrupt	-10.6789
llow	-10.6789
oke	-10.6791
▁vex	-10.6812
▁Baptista	-10.6814
▁ELBOW	-10.6814
▁Jupiter	-10.6814
▁LARTIUS	-10.6814
▁MURTHERER	-10.6814
▁Naples	-10.6814
▁PERDITA	-10.6814
▁POINS	-10.6814
▁alarum	-10.6814
▁breach	-10.6814
▁choler	-10.6814
▁creep	-10.6814
▁descend	-10.6814
▁distress	-10.6814
▁fifty	-10.6814
▁miracle	-10.6814
▁phrase	-10.6814
▁spleen	-10.6814
▁unhappy	-10.6814
▁Worthy	-10.6814
▁contain	-10.6814
▁miserable	-10.6814
▁orchard	-10.6814
▁otherwise	-10.6814
▁pawn	-10.6814
▁wondrous	-10.6814
|	-10.6814
▁Casca	-10.6814
▁written	-10.6814
▁design	-10.6814
▁dozen	-10.6814
▁message	-10.6814
▁gild	-10.6814
▁combat	-10.6814
▁wedding	-10.6814
▁blot	-10.6815
▁wail	-10.6816
▁gait	-10.6818
▁parley	-10.6819
▁vent	-10.6822
▁hail	-10.6823
▁undo	-10.6825
▁Among	-10.6827
▁Tut	-10.6838
▁asham	-10.6843
▁Bless	-10.6847
▁sins	-10.6882
▁bravely	-10.6892
▁moved	-10.6897
▁hole	-10.6902
▁sur	-10.6924
▁senses	-10.6924
▁verse	-10.6936
▁devils	-10.694
▁blown	-10.6948
rop	-10.6949
▁sends	-10.6952
rave	-10.6961
▁resolv	-10.6961
▁slaves	-10.6971
▁Padua	-10.698
bus	-10.6985
▁runs	-10.6987
▁murderer	-10.6994
liness	-10.7003
▁passing	-10.7005
▁prepar	-10.701
take	-10.706
▁partly	-10.7063
look	-10.7082
▁qui	-10.7083
▁birds	-10.7094
▁instruct	-10.7118
TER	-10.712
▁lap	-10.7123
▁remorse	-10.7126
▁ALENCON	-10.7126
▁ARTHUR	-10.7126
▁Agamemnon	-10.7126
▁CORIN	-10.7126
▁MERCHANT	-10.7126
▁Orleans	-10.7126
▁PEMBROKE	-10.7126
▁Portia	-10.7126
▁Posthumus	-10.7126
▁Rather	-10.7126
▁behaviour	-10.7126
▁conference	-10.7126
▁conquest	-10.7126
▁liberal	-10.7126
▁limit	-10.7126
▁petition	-10.7126
▁quench	-10.7126
▁satisfaction	-10.7126
▁siege	-10.7126
▁dukedom	-10.7126
▁goddess	-10.7126
▁penny	-10.7126
▁absent	-10.7126
▁corse	-10.7126
▁score	-10.7126
▁infant	-10.7127
▁wot	-10.7127
▁exchange	-10.7127
▁thorn	-10.7127
▁redress	-10.7127
▁compound	-10.7127
▁wholesome	-10.7128
▁invention	-10.7128
▁Goths	-10.7128
▁Other	-10.7128
▁wheel	-10.7128
▁tricks	-10.7128
▁Gaunt	-10.7128
▁saucy	-10.713
▁game	-10.7131
▁cozen	-10.7132
▁hie	-10.7134
▁Edgar	-10.7135
▁smiling	-10.7136
▁perfection	-10.7139
▁Seek	-10.7141
▁Run	-10.7144
▁Osr	-10.7144
Present	-10.715
▁lusty	-10.7155
Drum	-10.7161
bag	-10.7165
▁sole	-10.7168
▁WILLIAMS	-10.717
▁abus	-10.717
▁LAVINIA	-10.7172
▁Marg	-10.7174
▁Bohemia	-10.7174
▁greeting	-10.7179
og	-10.7179
▁lines	-10.7181
▁Polonius	-10.7187
ator	-10.7193
▁giving	-10.7195
▁observe	-10.7197
▁cares	-10.7198
▁wears	-10.7199
▁wishes	-10.7206
▁refuse	-10.7229
▁ape	-10.7237
▁pleasures	-10.7253
▁beasts	-10.7257
▁stock	-10.7258
▁mile	-10.7264
▁graces	-10.7265
▁ink	-10.7268
▁lad	-10.7281
were	-10.7285
▁tire	-10.7299
ical	-10.7305
▁east	-10.7314
▁reading	-10.7321
▁humours	-10.7361
▁hap	-10.7363
▁sleeps	-10.7419
gan	-10.7433
▁guilt	-10.7435
▁perjur	-10.7437
▁victor	-10.7438
▁torch	-10.7444
▁admir	-10.7445
▁inclin	-10.7447
▁loyal	-10.7448
▁BRABANTIO	-10.7449
▁Cordelia	-10.7449
▁DOLABELLA	-10.7449
▁Lewis	-10.7449
▁Malvolio	-10.7449
▁RIVERS	-10.7449
▁Slender	-10.7449
▁TITANIA	-10.7449
▁VINCENTIO	-10.7449
▁audience	-10.7449
▁depos	-10.7449
▁destroy	-10.7449
▁prophet	-10.7449
▁rapier	-10.7449
▁rescue	-10.7449
▁Goneril	-10.7449
▁riot	-10.7449
▁Isabel	-10.7449
▁crime	-10.7449
▁daily	-10.7449
▁famous	-10.7449
▁ocean	-10.7449
▁freedom	-10.7449
▁shout	-10.7449
▁Ireland	-10.7449
▁Something	-10.7449
▁goose	-10.7449
▁rod	-10.7449
▁garland	-10.7449
▁south	-10.745
▁addition	-10.745
▁carried	-10.745
▁grievous	-10.745
▁LOVELL	-10.745
▁level	-10.745
▁couch	-10.7451
▁taking	-10.7451
▁unworthy	-10.7451
▁Sometime	-10.7451
▁preparation	-10.7451
▁slip	-10.7452
▁attain	-10.7453
▁bore	-10.7455
▁bay	-10.7455
▁Regan	-10.7458
▁mass	-10.7461
▁shoulders	-10.7464
▁kindred	-10.747
▁youthful	-10.7472
▁thankful	-10.7473
▁Ru	-10.7474
▁kisses	-10.7491
▁deserves	-10.7491
▁remove	-10.7531
▁Cur	-10.7539
▁wisely	-10.7541
▁basket	-10.7541
hold	-10.7543
▁Milan	-10.7559
tal	-10.7572
▁learning	-10.7577
trip	-10.7579
▁signs	-10.7579
▁purchase	-10.7581
Giv	-10.7585
▁guarded	-10.7585
▁discharge	-10.759
▁weapon	-10.7593
▁fix	-10.7602
▁earthly	-10.7608
▁prop	-10.7609
rum	-10.7614
▁beguile	-10.7614
lier	-10.7615
▁rebels	-10.7617
▁soil	-10.7685
▁hangs	-10.7696
▁cam	-10.7707
▁accus	-10.7717
▁fed	-10.7718
uce	-10.7733
land	-10.7743
▁swell	-10.7757
▁rememb	-10.7762
▁Again	-10.7767
▁except	-10.777
▁trees	-10.7779
▁Scot	-10.7782
▁BISHOP	-10.7782
▁Hortensio	-10.7782
▁Katherine	-10.7782
▁Macduff	-10.7782
▁OXFORD	-10.7782
▁Ophelia	-10.7782
▁VARRO	-10.7782
▁afeard	-10.7782
▁bottle	-10.7782
▁caught	-10.7782
▁invisible	-10.7782
▁scope	-10.7782
▁senators	-10.7782
▁suspicion	-10.7782
▁conceal	-10.7782
▁decree	-10.7782
▁fleet	-10.7782
▁increase	-10.7782
▁stubborn	-10.7782
▁warrior	-10.7782
▁withdraw	-10.7782
▁cherish	-10.7782
▁signior	-10.7782
▁space	-10.7782
▁Else	-10.7782
▁lift	-10.7782
▁perhaps	-10.7783
▁Him	-10.7783
▁confusion	-10.7783
▁ATTENDANTS	-10.7784
▁bread	-10.7784
▁yellow	-10.7785
▁park	-10.7787
▁injury	-10.7788
▁drew	-10.7788
▁faction	-10.7788
▁officers	-10.779
▁direction	-10.779
▁reach	-10.7791
▁appointed	-10.7791
▁woeful	-10.7792
▁skin	-10.7795
▁needful	-10.7801
▁careful	-10.7801
▁spurn	-10.7802
▁wander	-10.7803
Throw	-10.7805
▁Anon	-10.7817
▁Thane	-10.782
love	-10.7822
▁current	-10.7829
▁sav	-10.7834
▁SERVANTS	-10.7835
▁began	-10.7843
▁aspect	-10.7847
▁conceive	-10.7851
▁confine	-10.7862
▁granted	-10.7862
▁lying	-10.7867
▁services	-10.7871
liver	-10.7889
▁lately	-10.7892
▁advis	-10.7892
▁heav	-10.7894
▁Son	-10.7904
▁blast	-10.7914
▁advance	-10.7921
▁rul	-10.7924
▁armed	-10.793
▁Tom	-10.793
▁banished	-10.7946
▁higher	-10.795
▁troops	-10.7956
urn	-10.7961
▁loved	-10.7963
▁shown	-10.7968
Dies	-10.7975
▁hall	-10.7988
ham	-10.799
▁begg	-10.7997
▁urge	-10.8001
▁Dar	-10.8016
(	-10.8024
▁serves	-10.803
lot	-10.803
▁OFFICER	-10.8034
▁younger	-10.8043
▁Fly	-10.8054
▁ended	-10.8056
pen	-10.8058
▁ago	-10.8065
▁ones	-10.808
▁determine	-10.8081
▁troubled	-10.8082
▁stab	-10.8097
▁dove	-10.8105
shire	-10.8111
G	-10.8114
vous	-10.8116
but	-10.8118
8	-10.8127
9	-10.8127
▁BOTH	-10.8127
▁FOURTH	-10.8127
▁GAOLER	-10.8127
▁GARDINER	-10.8127
▁Guildenstern	-10.8127
▁Neither	-10.8127
▁PHEBE	-10.8127
▁apprehend	-10.8127
▁carriage	-10.8127
▁council	-10.8127
▁delicate	-10.8127
▁giddy	-10.8127
▁oracle	-10.8127
▁peevish	-10.8127
▁requite	-10.8127
▁resolution	-10.8127
▁sleeve	-10.8127
▁strumpet	-10.8127
▁vanish	-10.8127
▁wrinkle	-10.8127
▁Proceed	-10.8127
▁couple	-10.8127
▁flout	-10.8127
▁petty	-10.8127
▁gently	-10.8127
▁ornament	-10.8127
▁flint	-10.8127
▁burst	-10.8127
▁Gads	-10.8127
▁steed	-10.8127
▁venom	-10.8127
▁spy	-10.8127
▁imagination	-10.8128
▁instance	-10.8128
▁load	-10.8128
▁foreign	-10.8128
▁Kill	-10.8128
▁hostess	-10.8129
▁invite	-10.8129
▁bank	-10.8129
▁VII	-10.813
▁crest	-10.813
▁grew	-10.813
▁shade	-10.813
▁bush	-10.813
▁fret	-10.813
ok	-10.8131
▁fever	-10.8133
▁laughter	-10.8133
▁share	-10.8133
▁absolute	-10.8136
▁lent	-10.8137
▁liking	-10.814
▁sever	-10.8142
▁VI	-10.8142
▁drag	-10.8144
▁coin	-10.8145
▁shoulder	-10.8148
▁rais	-10.8165
▁belov	-10.8167
▁thrown	-10.8173
▁pitiful	-10.8174
▁bleeding	-10.8175
▁places	-10.8182
▁knowing	-10.819
▁date	-10.8205
▁proportion	-10.8224
▁strongly	-10.8231
▁delivered	-10.824
▁Windsor	-10.8258
▁towns	-10.826
▁seize	-10.8261
▁newly	-10.8272
▁offices	-10.8282
Sicilia	-10.8292
▁standing	-10.8313
▁rib	-10.8343
hu	-10.835
▁finds	-10.8362
▁rot	-10.8375
▁Ber	-10.8383
▁persuade	-10.8391
EN	-10.8397
▁Greeks	-10.8411
▁bit	-10.8423
▁suits	-10.8439
▁dig	-10.8453
▁hind	-10.8455
▁Ant	-10.8478
!"	-10.8483
▁Athenian	-10.8484
▁CRANMER	-10.8484
▁Council	-10.8484
▁FENTON	-10.8484
▁Monsieur	-10.8484
▁Mowbray	-10.8484
▁PANDULPH	-10.8484
▁SOLANIO	-10.8484
▁Tamora	-10.8484
▁Worcester	-10.8484
▁ambassador	-10.8484
▁easily	-10.8484
▁jade	-10.8484
▁overthrow	-10.8484
▁peasant	-10.8484
▁trunk	-10.8484
▁unjust	-10.8484
▁Return	-10.8484
▁deceit	-10.8484
▁ELINOR	-10.8484
▁clean	-10.8484
▁clerk	-10.8484
▁intelligence	-10.8484
▁slay	-10.8484
▁serious	-10.8484
▁brawl	-10.8484
▁Down	-10.8484
▁Lead	-10.8484
▁forsake	-10.8485
▁price	-10.8485
▁moral	-10.8485
▁Swear	-10.8485
▁opposite	-10.8485
▁stale	-10.8486
▁Right	-10.8486
▁commonwealth	-10.8486
▁assurance	-10.8486
▁Lend	-10.8486
▁Cade	-10.8487
▁deaf	-10.8488
▁candle	-10.8488
rove	-10.8489
▁shook	-10.849
▁interest	-10.8491
▁beget	-10.8492
▁supply	-10.8495
▁conqueror	-10.8497
▁despise	-10.8498
▁forswear	-10.8498
▁Mess	-10.85
▁haply	-10.8501
that	-10.8502
▁Open	-10.8504
▁Seem	-10.8516
▁dine	-10.8525
▁determin	-10.8533
▁bull	-10.8533
▁fact	-10.8534
▁fen	-10.8537
let	-10.8543
▁Sleep	-10.8544
▁doublet	-10.8562
▁nails	-10.8565
▁fares	-10.8567
▁metal	-10.8575
▁curst	-10.8576
▁rub	-10.8581
ubb	-10.8592
▁hairs	-10.8609
▁contented	-10.8614
▁sacrifice	-10.8618
Dra	-10.8623
▁growing	-10.8642
▁halt	-10.8646
▁troop	-10.8664
▁rebel	-10.8665
mati	-10.8675
▁notice	-10.8685
Item	-10.8687
press	-10.8694
▁tri	-10.8706
DUKE	-10.8721
▁batt	-10.8733
▁leads	-10.8734
ood	-10.8739
▁draws	-10.8743
vel	-10.8756
▁shines	-10.8798
▁gri	-10.8813
▁whe	-10.8813
▁curses	-10.8819
▁murd	-10.8822
▁sup	-10.8824
▁craft	-10.8844
headed	-10.8849
▁spot	-10.8849
▁HELEN	-10.8849
aint	-10.8853
▁inherit	-10.8853
Alexandria	-10.8855
▁Berowne	-10.8855
▁DOCTOR	-10.8855
▁Hotspur	-10.8855
▁Lepidus	-10.8855
▁Mantua	-10.8855
▁NATHANIEL	-10.8855
▁Oxford	-10.8855
▁afternoon	-10.8855
▁nimble	-10.8855
▁obedient	-10.8855
▁perchance	-10.8855
▁rejoice	-10.8855
▁straw	-10.8855
▁treacherous	-10.8855
▁varlet	-10.8855
▁Apollo	-10.8855
▁Archbishop	-10.8855
▁FREDERICK	-10.8855
▁Winchester	-10.8855
▁grandsire	-10.8855
▁Eros	-10.8855
▁PEDANT	-10.8855
▁distance	-10.8855
▁eldest	-10.8855
▁lark	-10.8855
▁Launcelot	-10.8855
▁escape	-10.8855
▁Justice	-10.8855
▁rack	-10.8855
▁bait	-10.8855
▁hue	-10.8856
▁busy	-10.8856
▁strew	-10.8856
▁recompense	-10.8856
▁arch	-10.8857
▁cursed	-10.8858
▁mettle	-10.8858
mingle	-10.8858
▁running	-10.886
▁OFFICERS	-10.8861
▁lightning	-10.8863
axe	-10.8865
▁din	-10.8881
▁begun	-10.8885
▁manhood	-10.8886
ient	-10.8886
▁4.	-10.8891
my	-10.8892
For	-10.8893
▁oppose	-10.89
▁weeps	-10.8909
▁tribunes	-10.8909
▁SLY	-10.8924
▁manage	-10.893
▁stays	-10.8934
ides	-10.8936
▁breeding	-10.8943
▁closet	-10.8959
▁veins	-10.8961
▁thin	-10.8978
▁beholding	-10.9004
▁pierce	-10.9005
▁fur	-10.901
▁shadows	-10.9025
▁Fall	-10.9031
▁knights	-10.9035
▁dismiss	-10.9038
rel	-10.9043
mong	-10.9053
unk	-10.9066
▁flatterer	-10.9072
▁crying	-10.9074
▁ado	-10.9097
▁working	-10.9109
rim	-10.9121
▁instruments	-10.9131
▁shapes	-10.9136
▁surfeit	-10.914
head	-10.9152
cloth	-10.9158
same	-10.9175
▁War	-10.9182
▁amend	-10.9198
▁aunt	-10.9205
▁Fran	-10.9215
▁Read	-10.9226
▁author	-10.9238
Rousillon	-10.9239
▁ALICE	-10.9239
▁Cyprus	-10.9239
▁Glendower	-10.9239
▁LIEUTENANT	-10.9239
▁Mercutio	-10.9239
▁Orlando	-10.9239
▁Patroclus	-10.9239
▁Pisanio	-10.9239
▁Pluck	-10.9239
▁Revenge	-10.9239
▁SILENCE	-10.9239
▁Thersites	-10.9239
▁Titinius	-10.9239
▁ceremony	-10.9239
▁destruction	-10.9239
▁extremity	-10.9239
▁multitude	-10.9239
▁rebellion	-10.9239
▁scruple	-10.9239
▁seldom	-10.9239
▁steep	-10.9239
▁terrible	-10.9239
▁tribute	-10.9239
▁vulgar	-10.9239
▁Exeter	-10.9239
▁curtain	-10.9239
▁prompt	-10.9239
▁society	-10.9239
▁vault	-10.9239
▁likewise	-10.9239
▁spread	-10.9239
▁Imogen	-10.9239
▁beheld	-10.9239
▁aboard	-10.9239
▁potent	-10.9239
▁apace	-10.924
▁Dead	-10.924
▁frank	-10.924
▁grey	-10.924
▁DICK	-10.9241
▁box	-10.9241
▁hedge	-10.9241
▁exile	-10.9241
▁wept	-10.9242
▁foil	-10.9242
▁restore	-10.9242
▁brand	-10.9243
▁patch	-10.9243
▁starve	-10.9243
▁digest	-10.9244
▁hatch	-10.9244
▁swain	-10.9244
▁Become	-10.9244
▁arise	-10.9246
▁dire	-10.9247
▁cheerful	-10.9248
▁rouse	-10.9249
▁whipp	-10.9252
▁doubtful	-10.9258
▁directly	-10.9263
▁beloved	-10.9265
▁hare	-10.9267
▁stopp	-10.9271
uous	-10.9282
▁Verg	-10.9285
▁Die	-10.9293
▁jewels	-10.9295
▁looking	-10.9296
▁super	-10.9297
rai	-10.9297
▁tied	-10.9301
▁roses	-10.9303
▁Officers	-10.9304
rance	-10.9309
▁preserve	-10.9318
stone	-10.9321
▁board	-10.9321
▁justly	-10.9326
▁pronounce	-10.9333
▁corner	-10.9339
▁earl	-10.9351
▁provided	-10.9362
loo	-10.9411
▁lesser	-10.9412
▁forty	-10.9415
▁dispos	-10.9423
▁nest	-10.9431
▁tooth	-10.9445
▁drinking	-10.9449
▁dame	-10.9453
▁commands	-10.9468
▁kingly	-10.9474
▁forc	-10.9479
▁graves	-10.9489
▁cowards	-10.9494
▁offender	-10.9497
▁parting	-10.9506
ripp	-10.9508
unch	-10.9513
▁ev	-10.9517
▁boots	-10.9519
▁control	-10.9536
▁shin	-10.9554
▁beside	-10.9557
▁strikes	-10.9558
▁breaking	-10.9573
come	-10.9575
▁hated	-10.9612
▁wa	-10.9613
▁complain	-10.9616
▁throats	-10.962
▁waters	-10.9627
▁mood	-10.9628
raught	-10.9636
▁High	-10.9636
▁ANTIGONUS	-10.9639
▁Aeneas	-10.9639
▁Answer	-10.9639
▁CANTERBURY	-10.9639
▁CROMWELL	-10.9639
▁Charmian	-10.9639
▁Davy	-10.9639
▁Denmark	-10.9639
▁General	-10.9639
▁Hugh	-10.9639
▁MAECENAS	-10.9639
▁MONTANO	-10.9639
▁Messala	-10.9639
▁Methought	-10.9639
▁Octavius	-10.9639
▁Patience	-10.9639
▁Rosencrantz	-10.9639
▁Silence	-10.9639
▁access	-10.9639
▁function	-10.9639
▁funeral	-10.9639
▁henceforth	-10.9639
▁immortal	-10.9639
▁thirty	-10.9639
▁wilful	-10.9639
▁yesterday	-10.9639
▁Friend	-10.9639
▁allegiance	-10.9639
▁blue	-10.9639
▁division	-10.9639
▁ravish	-10.9639
▁satisfy	-10.9639
▁Constable	-10.9639
▁Samp	-10.9639
▁apparent	-10.9639
▁defy	-10.9639
▁aloud	-10.9639
▁ragged	-10.9639
▁surpris	-10.9639
▁Aaron	-10.9639
stool	-10.9639
▁steward	-10.964
▁canker	-10.964
▁admit	-10.964
▁keen	-10.964
▁signify	-10.964
▁Adam	-10.964
▁cannon	-10.9642
▁government	-10.9642
▁bidding	-10.9643
lib	-10.9644
▁wore	-10.9644
▁musician	-10.9645
▁royalty	-10.9646
ridge	-10.9646
▁lodging	-10.9652
▁wonderful	-10.9653
well	-10.9653
▁Mort	-10.9655
▁couldst	-10.9656
▁grandam	-10.9656
▁moan	-10.9657
▁weakness	-10.9658
ative	-10.9661
lock	-10.9662
▁Helena	-10.9663
favour	-10.9664
▁wand	-10.9666
▁conditions	-10.9667
mount	-10.9667
▁Cut	-10.9667
▁ble	-10.9667
▁pull	-10.9672
▁commons	-10.9672
▁County	-10.9683
▁converse	-10.9685
▁infect	-10.9686
aunt	-10.969
▁fairies	-10.9694
▁wager	-10.9699
▁calf	-10.9738
▁pine	-10.9753
▁amen	-10.9757
▁charg	-10.9764
▁provoke	-10.9765
▁whiles	-10.9765
▁Ever	-10.977
boy	-10.9772
▁heap	-10.9785
▁whit	-10.9795
▁strangely	-10.9798
ez	-10.9799
▁owes	-10.9808
▁Thing	-10.9809
▁Verona	-10.9816
ES	-10.9817
▁Ye	-10.9818
new	-10.9835
▁bosoms	-10.9835
▁sli	-10.9864
▁concern	-10.9868
fect	-10.9879
gate	-10.9884
▁et	-10.99
▁peer	-10.9921
▁dispose	-10.9931
foot	-10.9999
▁riches	-11
▁contents	-11.0021
▁buck	-11.0023
▁rend	-11.0027
▁received	-11.0046
▁silk	-11.0051
▁theme	-11.0053
▁ALEXAS	-11.0056
▁BASSIANUS	-11.0056
▁Corioli	-11.0056
▁GOBBO	-11.0056
▁LADIES	-11.0056
▁Lorenzo	-11.0056
▁Octavia	-11.0056
▁PORTER	-11.0056
▁Thurio	-11.0056
▁WALES	-11.0056
▁adventure	-11.0056
▁altogether	-11.0056
▁bargain	-11.0056
▁cudgel	-11.0056
▁deputy	-11.0056
▁divorce	-11.0056
▁endeavour	-11.0056
▁everlasting	-11.0056
▁expedition	-11.0056
▁process	-11.0056
▁qualities	-11.0056
▁repose	-11.0056
▁revenue	-11.0056
▁scurvy	-11.0056
▁shield	-11.0056
▁survey	-11.0056
▁vassal	-11.0056
▁split	-11.0056
▁succeed	-11.0056
▁Glend	-11.0056
▁diff	-11.0056
▁mould	-11.0056
▁Break	-11.0056
▁amorous	-11.0056
▁outrage	-11.0056
▁frost	-11.0056
▁forehead	-11.0056
Kiss	-11.0057
▁parcel	-11.0057
▁Hum	-11.0057
▁loyalty	-11.0057
▁push	-11.0057
▁wipe	-11.0058
▁stout	-11.0058
▁hungry	-11.0058
▁ugly	-11.0058
▁Gentleman	-11.0058
▁expectation	-11.0061
▁sovereignty	-11.0061
▁file	-11.0061
▁feat	-11.0061
▁sufferance	-11.0063
▁beams	-11.0064
▁tax	-11.0064
▁hideous	-11.0065
▁grain	-11.0069
▁cook	-11.007
▁drunken	-11.007
▁New	-11.0074
▁LA	-11.0075
▁stole	-11.0078
▁sweetly	-11.0081
▁exceeding	-11.0083
▁falling	-11.0087
▁rear	-11.009
▁brown	-11.0091
▁thereby	-11.0091
▁rust	-11.0095
▁Touch	-11.0099
certain	-11.0105
▁ELY	-11.0105
▁toad	-11.0109
God	-11.0111
rench	-11.0159
▁sweetest	-11.0164
▁liver	-11.0172
maker	-11.0185
gar	-11.0188
▁egg	-11.0191
comb	-11.0204
▁Win	-11.0227
▁sounded	-11.0241
▁Servants	-11.0242
▁amends	-11.0268
▁Servant	-11.0303
▁knowest	-11.0315
▁effects	-11.0324
▁burns	-11.0345
▁paint	-11.0348
▁steps	-11.0368
▁Off	-11.0379
▁suppos	-11.0388
▁wak	-11.0417
horse	-11.0417
▁Mak	-11.0442
lack	-11.0467
▁discontent	-11.0468
▁ward	-11.0483
▁helm	-11.049
▁frail	-11.049
Elsinore	-11.0491
▁Apemantus	-11.0491
▁Bishop	-11.0491
▁CURTIS	-11.0491
▁Catesby	-11.0491
▁GEORGE	-11.0491
▁GHOST	-11.0491
▁Gremio	-11.0491
▁Grumio	-11.0491
▁LENNOX	-11.0491
▁PERCY	-11.0491
▁blank	-11.0491
▁coxcomb	-11.0491
▁discipline	-11.0491
▁exercise	-11.0491
▁exploit	-11.0491
▁happily	-11.0491
▁harbour	-11.0491
▁medicine	-11.0491
▁mutiny	-11.0491
▁perpetual	-11.0491
▁pledge	-11.0491
▁poverty	-11.0491
▁proclamation	-11.0491
▁religious	-11.0491
▁reproach	-11.0491
▁repute	-11.0491
▁slumber	-11.0491
▁treachery	-11.0491
▁vouch	-11.0491
▁voyage	-11.0491
▁piteous	-11.0491
▁swoon	-11.0491
▁transform	-11.0491
▁tutor	-11.0491
▁sanct	-11.0491
▁Command	-11.0491
▁Talk	-11.0491
▁accent	-11.0491
▁methought	-11.0491
Above	-11.0491
▁Jesu	-11.0491
▁cord	-11.0491
▁divers	-11.0492
▁feeble	-11.0492
▁injuries	-11.0492
▁prosperous	-11.0492
▁Deliver	-11.0492
▁betimes	-11.0492
▁partner	-11.0493
▁begot	-11.0493
▁distemper	-11.0494
fall	-11.0495
▁employment	-11.0498
▁lance	-11.0499
▁grass	-11.0501
▁Whereof	-11.0501
▁senseless	-11.0505
▁scr	-11.0506
▁thread	-11.0506
▁threw	-11.0507
tro	-11.0509
▁madman	-11.0511
▁complaint	-11.0517
▁sadness	-11.0517
▁ox	-11.0524
▁instantly	-11.0531
▁touches	-11.0538
▁severally	-11.0545
fellow	-11.0547
▁Tribunes	-11.0555
▁youngest	-11.0556
▁smoke	-11.0556
▁mourning	-11.0557
▁roaring	-11.0559
▁Woo	-11.0562
colour	-11.0564
▁elements	-11.0581
▁evils	-11.059
▁afoot	-11.0592
pence	-11.0596
▁Over	-11.0618
AN	-11.0619
▁yielded	-11.0653
lip	-11.0656
Gives	-11.0661
▁willow	-11.0678
▁mart	-11.0691
▁wooing	-11.0697
▁rightly	-11.0723
▁secrets	-11.0738
▁achieve	-11.0744
▁likeness	-11.0749
▁lads	-11.077
▁bonds	-11.0791
▁talking	-11.0821
▁strokes	-11.0826
▁boar	-11.0858
▁swearing	-11.0873
▁err	-11.0877
▁taint	-11.0924
oint	-11.0926
▁afflict	-11.0939
▁protect	-11.0943
Laurence	-11.0945
circle	-11.0945
▁Alexander	-11.0945
▁Almost	-11.0945
▁Cawdor	-11.0945
▁DERBY	-11.0945
▁Jessica	-11.0945
▁Joan	-11.0945
▁MESSALA	-11.0945
▁OCTAVIUS	-11.0945
▁Perchance	-11.0945
▁Philip	-11.0945
▁Publius	-11.0945
▁Stanley	-11.0945
▁Volsces	-11.0945
▁ballad	-11.0945
▁convenient	-11.0945
▁devour	-11.0945
▁discord	-11.0945
▁estimation	-11.0945
▁impediment	-11.0945
▁innocence	-11.0945
▁merrily	-11.0945
▁narrow	-11.0945
▁politic	-11.0945
▁prologue	-11.0945
▁rebuke	-11.0945
▁roof	-11.0945
▁salute	-11.0945
▁scholar	-11.0945
▁sensible	-11.0945
▁sinews	-11.0945
Zounds	-11.0945
▁Fetch	-11.0945
▁Uncle	-11.0945
▁exact	-11.0945
▁hounds	-11.0945
▁motive	-11.0945
▁Nym	-11.0945
▁snatch	-11.0945
▁region	-11.0945
▁antiqu	-11.0945
▁fawn	-11.0945
▁nourish	-11.0945
▁Beseech	-11.0945
▁gallows	-11.0945
▁Saw	-11.0945
▁bowels	-11.0945
▁dowry	-11.0945
▁hire	-11.0946
▁scratch	-11.0946
▁imperial	-11.0946
▁Fellow	-11.0946
▁taper	-11.0946
▁fourteen	-11.0946
▁meddle	-11.0946
▁House	-11.0946
▁feign	-11.0946
▁bolt	-11.0947
▁flock	-11.0947
▁summon	-11.0947
▁assist	-11.0947
▁grove	-11.0947
▁compare	-11.0947
▁liquor	-11.0947
▁carries	-11.0948
▁horrible	-11.0949
▁punishment	-11.095
▁household	-11.0951
▁throng	-11.0952
▁hack	-11.0956
▁instruction	-11.0957
▁backward	-11.096
▁upright	-11.0964
▁waking	-11.0979
▁flattery	-11.0981
▁speeches	-11.0981
▁ban	-11.0984
▁whipt	-11.0989
garter	-11.0994
▁hose	-11.1002
▁safely	-11.1003
▁deserving	-11.1006
▁sitting	-11.1012
▁abhor	-11.1015
▁North	-11.1022
work	-11.103
▁profane	-11.1035
▁pleasing	-11.1045
bour	-11.1046
▁lower	-11.1053
▁amity	-11.1069
▁purge	-11.1096
▁writing	-11.11
▁actor	-11.1103
▁scal	-11.1141
▁bath	-11.1146
▁pipe	-11.115
▁Part	-11.1152
▁Qu	-11.1154
This	-11.121
▁belike	-11.1219
▁stocks	-11.1223
▁limb	-11.1232
▁pie	-11.1264
▁purg	-11.1269
▁babes	-11.1288
▁ministers	-11.1289
▁observ	-11.131
▁breathing	-11.1319
ccording	-11.1324
▁mak	-11.1346
▁noon	-11.1363
▁reserv	-11.1376
▁suff	-11.1387
within	-11.1389
▁exceed	-11.139
▁nam	-11.139
bout	-11.1392
Who	-11.1394
▁dat	-11.1404
▁Ned	-11.1407
▁Bassianus	-11.1421
▁CINNA	-11.1421
▁Cloten	-11.1421
▁Cornwall	-11.1421
▁DAVY	-11.1421
▁DULL	-11.1421
▁Duncan	-11.1421
▁Gratiano	-11.1421
▁HERALD	-11.1421
▁Michael	-11.1421
▁OCTAVIA	-11.1421
▁Provost	-11.1421
▁SANDYS	-11.1421
▁Shrewsbury	-11.1421
▁THOMAS	-11.1421
▁Walter	-11.1421
▁aloft	-11.1421
▁assault	-11.1421
▁bachelor	-11.1421
▁casket	-11.1421
▁chastity	-11.1421
▁clamour	-11.1421
▁confident	-11.1421
▁defeat	-11.1421
▁disturb	-11.1421
▁jot	-11.1421
▁notwithstanding	-11.1421
▁nuptial	-11.1421
▁presume	-11.1421
▁prophesy	-11.1421
▁scandal	-11.1421
▁semblance	-11.1421
▁stead	-11.1421
▁trespass	-11.1421
▁Venus	-11.1421
▁Witness	-11.1421
▁broil	-11.1421
▁evermore	-11.1421
▁extend	-11.1421
▁gossip	-11.1421
▁member	-11.1421
▁miseries	-11.1421
▁captive	-11.1421
▁dismal	-11.1421
▁tiger	-11.1422
▁history	-11.1422
▁middle	-11.1422
▁resign	-11.1422
▁engag	-11.1422
▁arrow	-11.1422
▁Urs	-11.1422
▁prime	-11.1422
▁groom	-11.1422
▁Hie	-11.1422
▁correction	-11.1423
▁block	-11.1423
▁Enough	-11.1423
▁defect	-11.1424
▁wring	-11.1424
▁cruelty	-11.1424
▁virginity	-11.1424
▁ought	-11.1425
▁infection	-11.1425
▁unkindness	-11.1427
▁Thine	-11.1428
▁Meet	-11.1428
▁ebb	-11.1429
▁lame	-11.143
▁surety	-11.1431
▁profession	-11.1432
▁stake	-11.1432
▁Write	-11.1437
Stab	-11.1438
▁wenches	-11.1439
▁diest	-11.1444
▁affliction	-11.1445
▁pant	-11.1448
▁test	-11.145
▁careless	-11.145
▁sap	-11.1454
▁confession	-11.1454
▁merely	-11.1463
▁fin	-11.1463
▁nobleman	-11.1473
ney	-11.1474
▁beastly	-11.1477
▁practise	-11.1477
eech	-11.1477
soever	-11.1491
▁players	-11.1491
▁livery	-11.1494
▁twin	-11.1496
▁rites	-11.1502
▁Sw	-11.1525
maid	-11.1527
Trumpets	-11.1531
▁Toward	-11.1559
▁marching	-11.1562
▁promised	-11.1566
oh	-11.1568
▁LE	-11.1577
timely	-11.1627
▁concerns	-11.1642
▁Ask	-11.1643
▁undergo	-11.1687
though	-11.169
▁perfume	-11.1699
▁herein	-11.1708
▁miles	-11.1715
▁scale	-11.1722
▁verses	-11.1723
▁hasty	-11.1742
ral	-11.1745
▁kissing	-11.1754
▁dearer	-11.1818
spect	-11.1825
▁execute	-11.1828
MAT	-11.1837
face	-11.185
▁oppos	-11.1859
▁Mus	-11.186
▁supp	-11.188
▁hung	-11.1901
▁brag	-11.1916
▁oppress	-11.1919
▁Murther	-11.1921
▁skull	-11.1921
AEGEON	-11.1921
Florence	-11.1921
▁AUSTRIA	-11.1921
▁Aumerle	-11.1921
▁HUMPHREY	-11.1921
▁JAQUENETTA	-11.1921
▁Lieutenant	-11.1921
▁MENELAUS	-11.1921
▁MONTAGUE	-11.1921
▁Murder	-11.1921
▁PANTHINO	-11.1921
▁PHILARIO	-11.1921
▁Personae	-11.1921
▁Rosaline	-11.1921
▁SCARUS	-11.1921
▁SIMPCOX	-11.1921
▁Sebastian	-11.1921
▁Trust	-11.1921
▁Ulysses	-11.1921
▁VALERIA	-11.1921
▁VENICE	-11.1921
▁appeal	-11.1921
▁barbarous	-11.1921
▁broad	-11.1921
▁burial	-11.1921
▁chronicle	-11.1921
▁constrain	-11.1921
▁coronation	-11.1921
▁enrich	-11.1921
▁female	-11.1921
▁fortunate	-11.1921
▁horror	-11.1921
▁mischance	-11.1921
▁mutual	-11.1921
▁necessary	-11.1921
▁obtain	-11.1921
▁pernicious	-11.1921
▁persuasion	-11.1921
▁prodigal	-11.1921
▁retreat	-11.1921
▁rheum	-11.1921
▁shirt	-11.1921
▁shroud	-11.1921
▁sphere	-11.1921
▁statue	-11.1921
▁strict	-11.1921
▁sufficient	-11.1921
▁thrift	-11.1921
▁vanity	-11.1921
▁vanquish	-11.1921
▁Albany	-11.1921
▁dainty	-11.1921
▁droop	-11.1921
▁enchant	-11.1921
▁scatter	-11.1921
▁deform	-11.1922
▁Garter	-11.1922
▁giant	-11.1922
▁peep	-11.1922
▁election	-11.1922
▁Desire	-11.1922
▁print	-11.1922
▁Grey	-11.1922
▁beware	-11.1922
▁reply	-11.1922
▁mistook	-11.1922
▁lute	-11.1922
▁coast	-11.1922
▁consequence	-11.1922
▁convert	-11.1922
▁muse	-11.1922
▁vot	-11.1922
▁entrance	-11.1922
▁bald	-11.1922
▁minion	-11.1922
▁duties	-11.1922
▁afar	-11.1922
▁legions	-11.1922
▁hurl	-11.1922
▁errand	-11.1923
▁sober	-11.1924
▁Use	-11.1924
▁trim	-11.1924
▁Pope	-11.1924
▁cram	-11.1924
▁losing	-11.1925
▁rope	-11.1925
▁assay	-11.1925
▁awe	-11.1925
▁chop	-11.1925
▁filthy	-11.1925
▁guiltless	-11.1926
▁bondage	-11.1926
▁million	-11.1926
▁departure	-11.1927
▁Free	-11.1927
▁spark	-11.1929
▁Prove	-11.1931
▁reap	-11.1931
▁Quickly	-11.1931
▁chat	-11.1932
▁threaten	-11.1934
▁reckoning	-11.1943
▁sub	-11.1947
▁SENATORS	-11.1948
▁stabb	-11.1951
▁dropp	-11.1952
▁Belike	-11.1954
▁coal	-11.1954
▁path	-11.1956
▁stirring	-11.1961
▁shameful	-11.1964
▁Moon	-11.1965
▁ancestors	-11.1966
▁mantle	-11.1988
▁Receive	-11.2002
▁burnt	-11.2032
▁alack	-11.2033
Here	-11.2055
woman	-11.2058
mur	-11.2064
▁soundly	-11.2069
hook	-11.21
▁shoes	-11.2107
▁counter	-11.2157
▁ni	-11.216
▁hourly	-11.2168
My	-11.2221
iety	-11.2246
▁shoe	-11.2256
▁attendant	-11.227
What	-11.2331
eit	-11.2334
▁believ	-11.236
▁plac	-11.2364
▁abhorr	-11.2368
She	-11.2381
▁prefer	-11.2383
▁gap	-11.2413
wixt	-11.2424
▁Wear	-11.243
▁surge	-11.2444
▁marr	-11.2447
▁Rich	-11.2447
ject	-11.2447
ABBESS	-11.2448
▁AEDILE	-11.2448
▁BEAU	-11.2448
▁BUSHY	-11.2448
▁CAMPEIUS	-11.2448
▁Cinna	-11.2448
▁Cominius	-11.2448
▁DUNCAN	-11.2448
▁Except	-11.2448
▁Greece	-11.2448
▁HIPPOLYTA	-11.2448
▁Honour	-11.2448
▁Malcolm	-11.2448
▁Milford	-11.2448
▁Neptune	-11.2448
▁OVERDONE	-11.2448
▁Olivia	-11.2448
▁Phebe	-11.2448
▁QUINTUS	-11.2448
▁ROBIN	-11.2448
▁SCROOP	-11.2448
▁STAFFORD	-11.2448
▁Shylock	-11.2448
▁Yield	-11.2448
▁buzz	-11.2448
▁cheap	-11.2448
▁complete	-11.2448
▁cradle	-11.2448
▁destiny	-11.2448
▁diamond	-11.2448
▁drift	-11.2448
▁eleven	-11.2448
▁enmity	-11.2448
▁harvest	-11.2448
▁horrid	-11.2448
▁indifferent	-11.2448
▁indirect	-11.2448
▁ingratitude	-11.2448
▁integrity	-11.2448
▁jar	-11.2448
▁jump	-11.2448
▁napkin	-11.2448
▁ourself	-11.2448
▁pillow	-11.2448
▁precedent	-11.2448
▁procure	-11.2448
▁stuck	-11.2448
▁sullen	-11.2448
▁sustain	-11.2448
▁utmost	-11.2448
▁Judas	-11.2448
▁swim	-11.2448
▁Nestor	-11.2448
▁clown	-11.2448
▁liar	-11.2448
▁style	-11.2448
▁constable	-11.2448
▁courteous	-11.2448
▁lungs	-11.2448
▁famish	-11.2448
▁coffer	-11.2448
▁counsellor	-11.2448
▁holp	-11.2448
▁proverb	-11.2448
▁attire	-11.2448
▁resist	-11.2448
▁ladder	-11.2448
▁mankind	-11.2448
▁support	-11.2448
▁sex	-11.2448
▁sprite	-11.2449
▁Awake	-11.2449
▁stray	-11.2449
▁ample	-11.2449
▁feature	-11.245
▁fray	-11.245
▁Maine	-11.2451
▁Proud	-11.2451
▁vast	-11.2451
▁accusation	-11.2452
▁sheets	-11.2452
▁drunkard	-11.2452
▁excel	-11.2452
▁pox	-11.2453
▁debate	-11.2453
▁boat	-11.2453
▁ashes	-11.2453
▁penance	-11.2454
▁clapp	-11.2455
▁dislike	-11.2455
▁dancing	-11.2458
▁chosen	-11.2459
▁Dian	-11.2459
▁squire	-11.246
▁countryman	-11.2464
▁perjury	-11.2467
▁deck	-11.2468
▁setting	-11.2475
▁Doug	-11.2476
▁neat	-11.2477
▁infected	-11.2478
▁tried	-11.248
▁male	-11.2482
▁reasonable	-11.2482
▁stirr	-11.2483
▁Mayor	-11.2486
▁5.	-11.2489
▁painting	-11.249
▁eaten	-11.2494
▁etc	-11.2511
▁bat	-11.2519
▁speedy	-11.2528
▁blushing	-11.2537
▁executed	-11.2547
eft	-11.2548
▁grim	-11.2557
▁chap	-11.2563
▁incense	-11.2571
Knocking	-11.2572
▁waiting	-11.2574
▁persuaded	-11.2588
▁choke	-11.2591
▁sickly	-11.2591
▁certainly	-11.2594
▁spr	-11.2601
▁disguised	-11.2602
where	-11.262
▁removed	-11.2622
▁bowl	-11.2622
▁understanding	-11.2625
▁diet	-11.2625
scribe	-11.2626
who	-11.2633
inner	-11.272
▁nearer	-11.273
You	-11.2774
hall	-11.2782
▁seiz	-11.2789
▁Knock	-11.2844
▁nobler	-11.2904
void	-11.2906
▁importun	-11.2929
▁whi	-11.2935
▁bide	-11.2949
ove	-11.2949
priz	-11.2982
▁chose	-11.2992
▁quo	-11.2999
▁ABHORSON	-11.3003
▁AUDREY	-11.3003
▁Alencon	-11.3003
▁Angiers	-11.3003
▁CASSANDRA	-11.3003
▁Cesario	-11.3003
▁Cromwell	-11.3003
▁Duchess	-11.3003
▁Fulvia	-11.3003
▁MARTIUS	-11.3003
▁Nerissa	-11.3003
▁Prepare	-11.3003
▁ROMAN	-11.3003
▁RUGBY	-11.3003
▁Robin	-11.3003
▁THYREUS	-11.3003
▁VERNON	-11.3003
▁Vincentio	-11.3003
▁bliss	-11.3003
▁bounteous	-11.3003
▁crush	-11.3003
▁devotion	-11.3003
▁expense	-11.3003
▁fifteen	-11.3003
▁fountain	-11.3003
▁haught	-11.3003
▁impatience	-11.3003
▁impatient	-11.3003
▁marvellous	-11.3003
▁planet	-11.3003
▁ruffian	-11.3003
▁spectacle	-11.3003
▁velvet	-11.3003
▁violence	-11.3003
▁witchcraft	-11.3003
▁Appear	-11.3003
▁forlorn	-11.3003
▁homage	-11.3003
▁wrestle	-11.3003
▁Fenton	-11.3003
▁SAY	-11.3003
▁leek	-11.3003
▁MAR	-11.3003
▁contend	-11.3003
▁harmony	-11.3003
▁manifest	-11.3003
▁affright	-11.3003
▁vision	-11.3003
▁German	-11.3003
▁aloof	-11.3003
▁magic	-11.3003
▁became	-11.3003
▁outlive	-11.3003
▁balm	-11.3003
▁brass	-11.3003
▁relish	-11.3003
▁heinous	-11.3004
▁bruis	-11.3004
thwart	-11.3004
▁Meantime	-11.3004
▁Juno	-11.3004
▁lime	-11.3004
▁loathsome	-11.3004
Oswald	-11.3004
▁suffice	-11.3004
▁dirt	-11.3004
▁description	-11.3005
▁antic	-11.3005
▁marble	-11.3005
▁pitied	-11.3005
▁assail	-11.3006
umbling	-11.3007
▁SONG	-11.3007
▁Peto	-11.3007
▁Black	-11.3007
▁Brave	-11.3009
▁Knight	-11.3009
▁imagine	-11.301
▁fellowship	-11.301
▁honorable	-11.301
▁fruitful	-11.3011
▁badge	-11.3011
▁Tyb	-11.3012
▁visitation	-11.3013
▁Frenchmen	-11.3014
▁bail	-11.3015
▁tail	-11.3017
▁chest	-11.3018
▁Bur	-11.3019
▁Ready	-11.302
▁compos	-11.3021
▁Four	-11.3021
▁bully	-11.3022
▁hangman	-11.3022
▁hunger	-11.3024
▁ewe	-11.3026
▁orator	-11.3027
▁adore	-11.3032
▁putting	-11.3036
▁tower	-11.3037
change	-11.3037
▁Whereto	-11.3038
▁False	-11.3038
▁linen	-11.3045
▁prevented	-11.3047
▁borrowed	-11.3054
▁rein	-11.3057
▁grossly	-11.3059
▁lief	-11.3061
▁curb	-11.3068
▁Dur	-11.3068
▁mast	-11.3087
▁bending	-11.3099
▁trusty	-11.3123
▁porter	-11.3141
▁sadly	-11.3145
yond	-11.316
▁adder	-11.3179
charg	-11.3183
▁dreamt	-11.3199
shine	-11.322
Sound	-11.3226
plies	-11.3234
▁rue	-11.3239
▁Star	-11.3246
▁remov	-11.3253
▁singing	-11.3262
friend	-11.3367
▁garment	-11.3408
▁keeper	-11.3419
▁belie	-11.3422
▁dart	-11.3434
▁savour	-11.3466
▁carve	-11.3473
you	-11.3473
▁GUARD	-11.3494
heard	-11.3502
▁Chi	-11.3506
▁encount	-11.3556
Strike	-11.3557
▁twi	-11.3557
▁nigh	-11.3567
▁acquaint	-11.3568
▁restrain	-11.3573
▁ADRIAN	-11.358
▁prosper	-11.3589
COURTEZAN	-11.3592
▁Anjou	-11.3592
▁Antipholus	-11.3592
▁Ariel	-11.3592
▁BRAKENBURY	-11.3592
▁Benvolio	-11.3592
▁CAPHIS	-11.3592
▁DORSET	-11.3592
▁GREEN	-11.3592
▁HUGH	-11.3592
▁LUCILIUS	-11.3592
▁LUCY	-11.3592
▁Lucilius	-11.3592
▁Monmouth	-11.3592
▁Paulina	-11.3592
▁Rutland	-11.3592
▁SIWARD	-11.3592
▁Stephano	-11.3592
▁Thursday	-11.3592
▁Trinculo	-11.3592
▁adulter	-11.3592
▁apprehension	-11.3592
▁blossom	-11.3592
▁brethren	-11.3592
▁bridegroom	-11.3592
▁champion	-11.3592
▁coffin	-11.3592
▁commodity	-11.3592
▁constancy	-11.3592
▁drowsy	-11.3592
▁emperor	-11.3592
▁likelihood	-11.3592
▁lofty	-11.3592
▁merciful	-11.3592
▁mistrust	-11.3592
▁penitent	-11.3592
▁profound	-11.3592
▁rival	-11.3592
instead	-11.3592
nymph	-11.3592
▁Fifth	-11.3592
▁disorder	-11.3592
▁ensue	-11.3592
▁purple	-11.3592
▁tickle	-11.3592
▁consort	-11.3592
▁drug	-11.3592
▁Content	-11.3592
▁Tush	-11.3592
▁descent	-11.3592
▁April	-11.3592
▁Teach	-11.3592
▁mystery	-11.3592
▁welkin	-11.3592
▁hush	-11.3592
▁leather	-11.3592
▁scant	-11.3592
▁charitable	-11.3592
▁bethink	-11.3592
▁unseen	-11.3592
▁roll	-11.3592
▁Haply	-11.3592
▁spell	-11.3592
▁humility	-11.3592
▁alms	-11.3592
▁silly	-11.3592
▁lewd	-11.3592
▁experience	-11.3592
▁Lucio	-11.3592
▁SERVINGMAN	-11.3592
▁exclaim	-11.3592
▁enrag	-11.3592
▁scourge	-11.3592
▁TRIBUNES	-11.3593
▁Pandarus	-11.3593
▁observance	-11.3593
▁fantastical	-11.3593
▁Albans	-11.3594
▁clay	-11.3594
▁impart	-11.3594
▁race	-11.3594
▁parents	-11.3596
▁latter	-11.3597
▁bootless	-11.3598
▁performance	-11.3598
▁lily	-11.3598
▁hatred	-11.3598
▁curious	-11.3598
▁Regent	-11.3599
▁silken	-11.3599
▁succession	-11.36
▁Half	-11.3601
▁Diana	-11.3601
▁Briton	-11.3601
▁forthwith	-11.3602
▁torches	-11.3603
Gain	-11.3604
▁warning	-11.3605
▁gage	-11.3606
▁bode	-11.3606
▁dial	-11.3607
▁handsome	-11.3608
▁slipp	-11.3608
▁reck	-11.361
▁smallest	-11.3611
▁Mean	-11.3615
spotted	-11.3617
▁mole	-11.3621
▁linger	-11.3622
▁compell	-11.3622
▁expos	-11.3622
▁acknowledge	-11.3625
▁worthless	-11.3626
▁raz	-11.3628
▁baseness	-11.3632
▁fixed	-11.3634
▁sall	-11.364
▁ache	-11.3641
▁amazed	-11.3645
▁swelling	-11.3649
▁Dover	-11.365
▁gentleness	-11.3672
▁Last	-11.368
▁oil	-11.3684
▁softly	-11.3685
cent	-11.3696
addle	-11.3697
▁confer	-11.3704
how	-11.3708
▁serving	-11.3717
▁flattering	-11.3718
▁plainly	-11.3732
▁allay	-11.3763
gging	-11.3763
England	-11.3792
rob	-11.3797
would	-11.3803
body	-11.3813
mine	-11.3817
Britain	-11.3818
master	-11.3827
allow	-11.384
fire	-11.3845
word	-11.3852
ferr	-11.3856
▁disguise	-11.3908
▁Quit	-11.3912
▁tie	-11.3929
not	-11.3955
▁Dare	-11.4012
tree	-11.4028
▁contrive	-11.4039
▁bone	-11.404
cel	-11.4048
have	-11.4049
▁confin	-11.4066
▁purpos	-11.4089
▁sauce	-11.4109
▁buckle	-11.4116
We	-11.4123
practis	-11.4144
changing	-11.4144
arried	-11.4155
SECOND	-11.4176
▁sham	-11.4177
▁detest	-11.4194
rong	-11.421
PLE	-11.4216
▁SERVING	-11.4216
Belmont	-11.4217
PROLOGUE	-11.4217
Westminster	-11.4217
envoy	-11.4217
▁ADAM	-11.4217
▁BOATSWAIN	-11.4217
▁Barnardine	-11.4217
▁CHORUS	-11.4217
▁CORNELIUS	-11.4217
▁Canterbury	-11.4217
▁Christendom	-11.4217
▁Citizens	-11.4217
▁Dispatch	-11.4217
▁GENTLEMEN	-11.4217
▁GENTLEWOMAN	-11.4217
▁Jaques	-11.4217
▁MONTJOY	-11.4217
▁MOPSA	-11.4217
▁NURSE	-11.4217
▁PROCULEIUS	-11.4217
▁Philippi	-11.4217
▁Phoebus	-11.4217
▁Polixenes	-11.4217
▁Together	-11.4217
▁Ursula	-11.4217
▁Virtue	-11.4217
▁Volscian	-11.4217
▁Women	-11.4217
▁argue	-11.4217
▁arrant	-11.4217
▁confidence	-11.4217
▁dishonest	-11.4217
▁distinct	-11.4217
▁empire	-11.4217
▁eunuch	-11.4217
▁excellence	-11.4217
▁pattern	-11.4217
▁religion	-11.4217
▁snake	-11.4217
▁square	-11.4217
▁statute	-11.4217
▁succour	-11.4217
▁trembling	-11.4217
▁upbraid	-11.4217
Balthasar	-11.4217
▁Chief	-11.4217
▁Direct	-11.4217
▁Happy	-11.4217
▁Thrice	-11.4217
▁frantic	-11.4217
▁harlot	-11.4217
▁jack	-11.4217
▁shriek	-11.4217
▁Dorset	-11.4217
▁bulk	-11.4217
▁crab	-11.4217
▁hawk	-11.4217
▁period	-11.4217
▁repeal	-11.4217
▁scold	-11.4217
▁tavern	-11.4217
▁quaint	-11.4217
▁substitute	-11.4217
DRA	-11.4217
▁ague	-11.4217
▁gilt	-11.4217
▁Italian	-11.4217
▁Shake	-11.4217
▁bereft	-11.4217
▁pastime	-11.4217
▁Ladies	-11.4217
▁talents	-11.4217
▁relent	-11.4217
▁whirl	-11.4217
▁alliance	-11.4217
▁subscribe	-11.4217
▁settled	-11.4217
▁nuncle	-11.4217
▁anchor	-11.4217
▁thirst	-11.4217
▁transport	-11.4217
▁shop	-11.4217
▁Saturnine	-11.4217
▁Topas	-11.4217
▁attach	-11.4217
▁wedded	-11.4217
▁PERSONAE	-11.4217
▁composition	-11.4217
▁moiety	-11.4217
▁kite	-11.4217
beneath	-11.4217
▁pilgrimage	-11.4217
▁brace	-11.4218
▁apple	-11.4218
▁imprisonment	-11.4218
▁apply	-11.4218
▁Name	-11.4218
▁taunt	-11.4218
▁pursuit	-11.4219
▁usurer	-11.4219
▁finish	-11.4219
▁raw	-11.422
▁renew	-11.422
▁fowl	-11.422
▁rising	-11.422
▁cowardice	-11.422
▁everywhere	-11.4221
▁worthiness	-11.4221
▁beginning	-11.4221
▁Julius	-11.4221
▁plight	-11.4222
▁branches	-11.4222
▁nut	-11.4223
▁judgement	-11.4225
▁scarf	-11.4225
▁Norway	-11.4226
▁dram	-11.4226
▁idly	-11.4227
▁capable	-11.4229
BE	-11.4229
▁dash	-11.4229
▁distracted	-11.4231
▁omit	-11.4237
ulous	-11.4237
▁vol	-11.4238
▁nobody	-11.4238
▁theft	-11.4238
10	-11.4239
▁comment	-11.4242
▁Pity	-11.4242
▁villainous	-11.4243
▁tainted	-11.4249
▁reconcile	-11.425
▁Luc	-11.425
Kneels	-11.4251
▁anointed	-11.4252
▁commandment	-11.4252
teem	-11.4256
▁growth	-11.4256
▁whet	-11.4258
▁THISBY	-11.4263
▁leaden	-11.4264
▁personal	-11.4266
▁hinder	-11.4269
▁traveller	-11.427
▁hag	-11.4271
▁affected	-11.4277
east	-11.4286
▁prate	-11.4293
▁passes	-11.4294
▁thereto	-11.4303
▁patiently	-11.4304
cast	-11.4304
▁usurping	-11.432
▁mute	-11.4339
▁hunting	-11.4343
▁Add	-11.4343
▁hop	-11.4348
▁frowning	-11.4358
liest	-11.4366
▁preserv	-11.4372
▁deeply	-11.4376
Step	-11.4394
▁pra	-11.44
▁disguis	-11.4414
▁griev	-11.4429
▁deceas	-11.4435
gone	-11.4455
▁handle	-11.4483
field	-11.4497
chamber	-11.4504
wind	-11.4508
▁beguil	-11.4544
▁solicit	-11.4545
▁leader	-11.4576
▁purchas	-11.4612
▁aye	-11.4616
▁loathe	-11.4619
▁earn	-11.4633
dealing	-11.4642
▁provok	-11.4676
▁awak	-11.4683
raft	-11.4686
▁vein	-11.4693
▁Ju	-11.472
▁hal	-11.474
stain	-11.4746
▁Je	-11.4751
If	-11.4762
▁yon	-11.4804
▁Fit	-11.4814
▁accord	-11.4852
▁rive	-11.4858
▁despis	-11.486
▁branch	-11.4877
▁clap	-11.4877
erhaps	-11.4881
▁displeas	-11.4882
▁trot	-11.4882
▁scour	-11.4882
mission	-11.4882
▁imprison	-11.4882
▁impress	-11.4883
▁desp	-11.4883
▁neigh	-11.4883
Dunsinane	-11.4883
Eastcheap	-11.4883
accomplish	-11.4883
ascivious	-11.4883
▁AMIENS	-11.4883
▁Alcibiades	-11.4883
▁Approach	-11.4883
▁Florentine	-11.4883
▁Fortinbras	-11.4883
▁Henceforth	-11.4883
▁Leonatus	-11.4883
▁MARDIAN	-11.4883
▁MORTIMER	-11.4883
▁Menenius	-11.4883
▁Mercury	-11.4883
▁Orsino	-11.4883
▁PYRAMUS	-11.4883
▁Rivers	-11.4883
▁Rugby	-11.4883
▁Vouchsafe	-11.4883
▁Wednesday	-11.4883
▁abbey	-11.4883
▁assembly	-11.4883
▁beautiful	-11.4883
▁blade	-11.4883
▁breakfast	-11.4883
▁celestial	-11.4883
▁clamor	-11.4883
▁comparison	-11.4883
▁continent	-11.4883
▁crept	-11.4883
▁crutch	-11.4883
▁cuckoo	-11.4883
▁curtsy	-11.4883
▁excursions	-11.4883
▁fertile	-11.4883
▁girdle	-11.4883
▁happier	-11.4883
▁holiday	-11.4883
▁instinct	-11.4883
▁oblivion	-11.4883
▁opportunity	-11.4883
▁pregnant	-11.4883
▁publish	-11.4883
▁recreant	-11.4883
▁resemble	-11.4883
▁resolute	-11.4883
▁ridiculous	-11.4883
▁sepulchre	-11.4883
▁shilling	-11.4883
▁stiff	-11.4883
▁stratagem	-11.4883
▁superfluous	-11.4883
▁tragic	-11.4883
▁violet	-11.4883
▁wolves	-11.4883
▁Bastard	-11.4883
▁Consider	-11.4883
▁FLUTE	-11.4883
▁Steward	-11.4883
▁asunder	-11.4883
▁churchyard	-11.4883
▁glance	-11.4883
▁precise	-11.4883
▁produce	-11.4883
▁Remain	-11.4883
▁built	-11.4883
▁excess	-11.4883
▁folk	-11.4883
▁impeach	-11.4883
▁lurk	-11.4883
▁palate	-11.4883
▁reform	-11.4883
▁relieve	-11.4883
▁repeat	-11.4883
▁bigger	-11.4883
▁distill	-11.4883
▁dried	-11.4883
▁Greg	-11.4883
▁Honest	-11.4883
▁Kind	-11.4883
▁Pisa	-11.4883
▁thumb	-11.4883
▁annoy	-11.4883
▁carrion	-11.4883
▁lamp	-11.4883
▁kinsmen	-11.4883
▁rumour	-11.4883
▁forgotten	-11.4883
▁Brabantio	-11.4883
▁presage	-11.4883
▁ascend	-11.4883
▁Gallia	-11.4883
▁chastise	-11.4883
▁Doubt	-11.4883
▁baby	-11.4883
▁notorious	-11.4883
▁propose	-11.4884
▁rabble	-11.4884
▁Proclaim	-11.4884
▁East	-11.4884
▁address	-11.4884
▁churlish	-11.4885
▁mouse	-11.4885
▁entire	-11.4885
▁reproof	-11.4885
▁Light	-11.4885
▁recount	-11.4885
▁assistance	-11.4885
▁incur	-11.4885
▁spider	-11.4885
▁furious	-11.4885
▁sugar	-11.4886
▁boist	-11.4886
▁oppression	-11.4886
▁glow	-11.4887
▁trow	-11.4888
▁readiness	-11.4888
▁dower	-11.4888
▁corruption	-11.4888
▁yard	-11.4888
▁pageant	-11.4888
▁smother	-11.4889
▁boil	-11.4889
▁Safe	-11.489
▁triumphant	-11.4891
▁swagger	-11.4891
▁Stop	-11.4892
▁mansion	-11.4892
cake	-11.4894
▁Yonder	-11.4895
▁Want	-11.4898
▁Cold	-11.4899
▁mist	-11.4902
▁Pet	-11.4908
▁mightily	-11.4908
▁detested	-11.4908
▁knavery	-11.4911
▁approaches	-11.4913
▁payment	-11.4916
teen	-11.4929
▁dive	-11.4931
▁corrupted	-11.4935
▁shrink	-11.4936
▁powerful	-11.4937
▁highest	-11.4949
▁parties	-11.4954
▁added	-11.4957
▁tempted	-11.4958
▁subdue	-11.4966
▁cowardly	-11.4975
spoke	-11.498
ancy	-11.4982
▁sung	-11.4992
grav	-11.5106
Good	-11.5113
Venice	-11.5193
▁deriv	-11.5212
Go	-11.5218
fix	-11.5222
Take	-11.5224
▁tir	-11.5227
▁discharg	-11.5289
book	-11.5312
ailor	-11.5355
post	-11.5364
hav	-11.5385
Thus	-11.5423
burn	-11.5463
▁mut	-11.5463
▁disgrac	-11.5469
▁endur	-11.5549
▁reckon	-11.557
▁injur	-11.5585
▁blaz	-11.5594
rought	-11.5596
▁trans	-11.5597
umber	-11.5597
journ	-11.5598
▁Confess	-11.5598
▁favor	-11.5598
▁vapour	-11.5598
IANS	-11.5598
junct	-11.5598
▁ANDREW	-11.5598
▁ATHENIAN	-11.5598
▁Audrey	-11.5598
▁BIGOT	-11.5598
▁Brief	-11.5598
▁CANIDIUS	-11.5598
▁Certain	-11.5598
▁Cymbeline	-11.5598
▁DORCAS	-11.5598
▁Deserve	-11.5598
▁Dumain	-11.5598
▁Enobarbus	-11.5598
▁FOOL	-11.5598
▁GRIFFITH	-11.5598
▁Gertrude	-11.5598
▁Illyria	-11.5598
▁PRIAM	-11.5598
▁Pucelle	-11.5598
▁Reignier	-11.5598
▁SNOUT	-11.5598
▁Strange	-11.5598
▁TAILOR	-11.5598
▁TYRREL	-11.5598
▁Thunder	-11.5598
▁acquit	-11.5598
▁applause	-11.5598
▁blemish	-11.5598
▁cheese	-11.5598
▁compliment	-11.5598
▁confederate	-11.5598
▁dignities	-11.5598
▁disprais	-11.5598
▁dissemble	-11.5598
▁embassy	-11.5598
▁engine	-11.5598
▁enlarge	-11.5598
▁epitaph	-11.5598
▁examine	-11.5598
▁fantasy	-11.5598
▁gnaw	-11.5598
▁insolence	-11.5598
▁leaving	-11.5598
▁lunatic	-11.5598
▁merriment	-11.5598
▁miscarry	-11.5598
▁muffl	-11.5598
▁negligence	-11.5598
▁parliament	-11.5598
▁philosophy	-11.5598
▁plume	-11.5598
▁progress	-11.5598
▁resort	-11.5598
▁secrecy	-11.5598
▁security	-11.5598
▁shrill	-11.5598
▁strangle	-11.5598
▁studied	-11.5598
▁stumble	-11.5598
▁tapster	-11.5598
▁treble	-11.5598
▁underneath	-11.5598
▁universal	-11.5598
▁unruly	-11.5598
▁vizard	-11.5598
▁Comfort	-11.5598
▁Marshal	-11.5598
▁Rouen	-11.5598
▁dismay	-11.5598
▁gentry	-11.5598
▁plough	-11.5598
▁scroll	-11.5598
▁strait	-11.5598
▁tardy	-11.5598
▁Foul	-11.5598
▁Vernon	-11.5598
▁Exceed	-11.5598
▁thigh	-11.5598
▁Balth	-11.5598
▁Blood	-11.5598
▁Woe	-11.5598
▁gravity	-11.5598
▁unwilling	-11.5598
▁farthest	-11.5598
▁offense	-11.5598
▁Begin	-11.5598
▁Forgive	-11.5598
▁arras	-11.5598
▁copy	-11.5598
▁moreover	-11.5598
▁altar	-11.5598
▁fulfil	-11.5598
▁chafe	-11.5598
▁Arise	-11.5598
▁truant	-11.5598
▁Sister	-11.5598
▁truce	-11.5598
▁gust	-11.5598
▁shelter	-11.5598
▁schoolmaster	-11.5598
▁sonnet	-11.5598
▁guts	-11.5598
▁project	-11.5598
▁array	-11.5598
▁infirmity	-11.5598
▁abject	-11.5598
▁veil	-11.5598
▁heaviness	-11.5598
▁Weep	-11.5598
▁covetous	-11.5598
▁broach	-11.5598
▁crystal	-11.5599
▁Commit	-11.5599
▁continual	-11.5599
▁stockings	-11.5599
▁Shame	-11.5599
▁waist	-11.5599
▁prosperity	-11.5599
▁heavier	-11.5599
▁club	-11.5599
▁cheat	-11.5599
▁Fast	-11.5599
▁admitted	-11.56
▁permit	-11.56
▁leaf	-11.56
▁Scar	-11.56
▁Egyptian	-11.5601
▁brier	-11.5601
▁distraction	-11.5601
usual	-11.5601
▁property	-11.5602
▁admirable	-11.5603
▁sweep	-11.5603
▁foam	-11.5603
▁cities	-11.5603
▁denies	-11.5604
▁surgeon	-11.5605
▁Blow	-11.5606
▁Head	-11.5607
▁tenour	-11.5607
▁wrathful	-11.5608
▁worthier	-11.5609
▁Grow	-11.5609
▁memor	-11.5609
▁slack	-11.5609
▁agent	-11.561
▁Base	-11.5612
▁damnation	-11.5613
▁witty	-11.5613
▁idleness	-11.5616
▁rent	-11.5618
▁Frenchman	-11.5618
▁Just	-11.5619
▁accursed	-11.5619
▁size	-11.5621
▁harmless	-11.5622
▁Cressida	-11.5622
▁whatsoever	-11.5623
▁wat	-11.5623
12	-11.5627
13	-11.5627
▁enforc	-11.5634
▁discontented	-11.5636
▁map	-11.5637
▁Forbear	-11.5637
▁driven	-11.5638
▁boldness	-11.5641
▁sug	-11.5643
▁losses	-11.5649
▁deem	-11.5651
▁shipp	-11.5652
▁proudest	-11.5654
▁husbandry	-11.5655
▁parle	-11.5662
▁rightful	-11.5663
▁melted	-11.5664
▁sith	-11.5668
▁Holy	-11.5671
▁safer	-11.5676
▁mill	-11.5684
▁mow	-11.5693
▁importune	-11.57
▁executioner	-11.5707
▁Pole	-11.5715
▁Gone	-11.572
▁farm	-11.5723
scription	-11.5783
▁wan	-11.5836
while	-11.588
Draws	-11.5904
gun	-11.5906
count	-11.5956
worthy	-11.598
comfort	-11.5981
claim	-11.5992
hither	-11.5993
▁derive	-11.5999
▁Maria	-11.6003
itting	-11.6005
fam	-11.601
▁stare	-11.6042
▁pierc	-11.6055
▁devis	-11.6068
▁fram	-11.6076
pac	-11.6108
▁wren	-11.617
▁affair	-11.6178
▁pronounc	-11.6179
▁Def	-11.618
azar	-11.6185
▁Hop	-11.6242
▁embrac	-11.6244
▁subdu	-11.6271
▁gav	-11.6331
▁hip	-11.6336
▁accurs	-11.6344
▁numb	-11.6345
▁immediate	-11.6351
▁Quick	-11.6354
▁brav	-11.636
▁fig	-11.6362
▁pilgrim	-11.6366
eliev	-11.6366
parallel	-11.6367
▁ALEXANDER	-11.6367
▁Ambassador	-11.6367
▁BAGOT	-11.6367
▁BLANCH	-11.6367
▁Beaufort	-11.6367
▁CHILD	-11.6367
▁CLEOMENES	-11.6367
▁CONSPIRATOR	-11.6367
▁DECIUS	-11.6367
▁Descend	-11.6367
▁Faulconbridge	-11.6367
▁Gracious	-11.6367
▁HUME	-11.6367
▁MARSHAL	-11.6367
▁Menelaus	-11.6367
▁Metellus	-11.6367
▁Rowland	-11.6367
▁SERVILIUS	-11.6367
▁Surrey	-11.6367
▁VENTIDIUS	-11.6367
▁abundance	-11.6367
▁adverse	-11.6367
▁approbation	-11.6367
▁caitiff	-11.6367
▁compact	-11.6367
▁consecrate	-11.6367
▁coronet	-11.6367
▁cushion	-11.6367
▁dedicate	-11.6367
▁diadem	-11.6367
▁eyelids	-11.6367
▁future	-11.6367
▁greyhound	-11.6367
▁imitate	-11.6367
▁imperfect	-11.6367
▁interrupt	-11.6367
▁jerkin	-11.6367
▁malicious	-11.6367
▁monkey	-11.6367
▁monsieur	-11.6367
▁nativity	-11.6367
▁patricians	-11.6367
▁peradventure	-11.6367
▁philosopher	-11.6367
▁pigeons	-11.6367
▁privy	-11.6367
▁prophecy	-11.6367
▁quantity	-11.6367
▁receipt	-11.6367
▁relief	-11.6367
▁sanctuary	-11.6367
▁simplicity	-11.6367
▁somewhat	-11.6367
▁testimony	-11.6367
▁translate	-11.6367
▁twelvemonth	-11.6367
▁unlawful	-11.6367
▁Costard	-11.6367
▁Hecuba	-11.6367
▁Walk	-11.6367
▁brazen	-11.6367
▁capital	-11.6367
▁chimney	-11.6367
▁disclos	-11.6367
▁follies	-11.6367
▁gazing	-11.6367
▁gloss	-11.6367
▁hammer	-11.6367
▁imperious	-11.6367
▁languish	-11.6367
▁trencher	-11.6367
▁volume	-11.6367
▁Fleance	-11.6367
▁dissolv	-11.6367
▁froze	-11.6367
▁gaoler	-11.6367
▁pupil	-11.6367
▁Banish	-11.6367
▁ignobl	-11.6367
▁nettle	-11.6367
▁eager	-11.6367
▁mangled	-11.6367
▁plate	-11.6367
▁regal	-11.6367
▁assume	-11.6367
Courage	-11.6367
▁Grant	-11.6367
▁Sex	-11.6367
▁suborn	-11.6367
▁reek	-11.6367
▁labor	-11.6367
▁Pursu	-11.6367
▁model	-11.6367
Messina	-11.6367
▁Temp	-11.6367
▁Mount	-11.6367
▁Parson	-11.6367
▁centre	-11.6367
▁Health	-11.6367
▁banner	-11.6367
▁audit	-11.6367
▁thorough	-11.6367
▁gib	-11.6367
▁crooked	-11.6367
▁defil	-11.6367
▁rape	-11.6368
▁maidenhead	-11.6368
▁pestilence	-11.6368
▁bestrid	-11.6368
▁patron	-11.6368
▁Feed	-11.6368
▁bench	-11.6368
▁grievance	-11.6368
▁Bona	-11.6368
▁tribe	-11.6369
▁vine	-11.6369
▁remainder	-11.6369
▁mud	-11.6369
▁rout	-11.6369
▁beef	-11.6369
▁bridge	-11.6369
▁quake	-11.637
▁demi	-11.637
▁Prospero	-11.637
▁protection	-11.637
▁tilt	-11.6371
▁Hard	-11.6371
▁brew	-11.6371
▁worthiest	-11.6371
▁Irish	-11.6371
▁rehearse	-11.6372
▁invent	-11.6372
▁Back	-11.6372
▁pursu	-11.6373
▁appointment	-11.6373
14	-11.6373
▁range	-11.6373
▁lamentable	-11.6374
▁perilous	-11.6374
▁lechery	-11.6375
▁invest	-11.6375
▁mortality	-11.6377
▁fist	-11.6379
▁cue	-11.6379
▁lane	-11.638
▁appearance	-11.6382
▁Pass	-11.6382
▁Gave	-11.6382
▁pasture	-11.6383
▁snar	-11.6383
▁immediately	-11.6383
▁fitted	-11.6384
▁fog	-11.6387
▁dishes	-11.6387
▁moody	-11.639
Singing	-11.6392
▁aspir	-11.6393
twould	-11.6399
▁debtor	-11.6399
▁restraint	-11.6399
▁devilish	-11.6405
▁Fill	-11.6406
▁bawdy	-11.6409
▁Theseus	-11.6411
▁tenderness	-11.6414
▁Lion	-11.6414
▁formal	-11.6416
▁weighty	-11.6417
▁unlike	-11.6419
orrow	-11.6423
WO	-11.6425
▁Pay	-11.6437
▁Burn	-11.644
▁Sent	-11.6449
▁preferr	-11.6455
▁gape	-11.646
▁Muse	-11.647
ounce	-11.6473
▁bak	-11.6523
monger	-11.6546
▁Britaine	-11.6546
seduc	-11.6551
OFFICER	-11.6569
▁declin	-11.6575
▁obscure	-11.662
▁disperse	-11.6646
vocati	-11.6646
elect	-11.6673
▁blushes	-11.6707
▁cow	-11.6757
When	-11.676
ween	-11.6782
minded	-11.6786
proof	-11.6809
brain	-11.6818
fresh	-11.6821
room	-11.6824
▁pur	-11.6828
haste	-11.6843
▁advanc	-11.6844
Coming	-11.6899
▁kindle	-11.6923
possess	-11.6923
▁decline	-11.6979
▁incens	-11.7005
Trumpet	-11.7008
llowed	-11.7011
▁nail	-11.7013
▁cull	-11.7014
abble	-11.7017
▁excus	-11.7087
▁measur	-11.709
dvise	-11.7107
▁lik	-11.7126
▁appoint	-11.717
▁hum	-11.7191
▁trod	-11.7194
▁inhabit	-11.7197
▁correct	-11.7198
▁Christ	-11.7199
tongu	-11.7199
Z	-11.72
▁BANDIT	-11.72
▁Donalbain	-11.72
▁disloyal	-11.72
▁fickle	-11.72
EPILOGUE	-11.72
Navarre	-11.72
Whisper	-11.72
▁Antenor	-11.72
▁Biondello	-11.72
▁Borachio	-11.72
▁CARLISLE	-11.72
▁CURIO	-11.72
▁Calais	-11.72
▁Cambridge	-11.72
▁Church	-11.72
▁Corporal	-11.72
▁Decius	-11.72
▁Eleanor	-11.72
▁Fluellen	-11.72
▁Himself	-11.72
▁JULIET	-11.72
▁Lennox	-11.72
▁Marcellus	-11.72
▁PHILOSTRATE	-11.72
▁Parolles	-11.72
▁Scroop	-11.72
▁Stafford	-11.72
▁Venetian	-11.72
▁Ventidius	-11.72
▁WILLOUGHBY	-11.72
▁Yourself	-11.72
▁abandon	-11.72
▁abominable	-11.72
▁advertis	-11.72
▁applaud	-11.72
▁bankrupt	-11.72
▁beauties	-11.72
▁cardinal	-11.72
▁channel	-11.72
▁contemplation	-11.72
▁contradict	-11.72
▁crimson	-11.72
▁dissembling	-11.72
▁ecstasy	-11.72
▁falcon	-11.72
▁fancies	-11.72
▁frenzy	-11.72
▁goldsmith	-11.72
▁grudge	-11.72
▁indignation	-11.72
▁influence	-11.72
▁insinuat	-11.72
▁mirror	-11.72
▁motley	-11.72
▁necessities	-11.72
▁niggard	-11.72
▁ordinary	-11.72
▁penalty	-11.72
▁peremptory	-11.72
▁plenteous	-11.72
▁slender	-11.72
▁spacious	-11.72
▁studies	-11.72
▁syllable	-11.72
▁traffic	-11.72
▁tumble	-11.72
▁tyrannous	-11.72
▁voluntary	-11.72
▁yesternight	-11.72
▁amazement	-11.72
▁bequeath	-11.72
▁different	-11.72
▁pirate	-11.72
▁understood	-11.72
▁village	-11.72
▁whelp	-11.72
paragon	-11.72
▁Guard	-11.72
▁charter	-11.72
▁inspir	-11.72
▁levied	-11.72
▁skip	-11.72
▁valor	-11.72
▁Latin	-11.72
▁masque	-11.72
▁nightingale	-11.72
▁conspirator	-11.72
▁bounti	-11.72
▁flag	-11.72
▁infamy	-11.72
▁cedar	-11.72
▁Third	-11.72
▁whereupon	-11.72
▁Chamberlain	-11.72
▁pander	-11.72
▁gull	-11.72
▁dally	-11.72
▁Urg	-11.72
▁Deny	-11.72
▁betroth	-11.72
▁sparrow	-11.7201
▁mutton	-11.7201
▁Gower	-11.7201
▁loins	-11.7201
▁happen	-11.7201
▁Parthia	-11.7201
▁expir	-11.7201
▁foolery	-11.7201
▁Herald	-11.7201
▁mum	-11.7201
▁IDEN	-11.7201
▁Spoke	-11.7202
▁humorous	-11.7202
▁lawyer	-11.7202
▁meek	-11.7203
▁inheritance	-11.7203
▁flaw	-11.7204
▁especially	-11.7204
sheathe	-11.7205
▁Spain	-11.7205
▁interim	-11.7205
▁moist	-11.7205
▁lackey	-11.7205
▁humor	-11.7206
▁admiration	-11.7207
▁Boyet	-11.7207
▁Rise	-11.7207
▁Stoop	-11.7207
▁draught	-11.7208
▁meantime	-11.7209
▁Dieu	-11.721
iddle	-11.7211
▁brat	-11.7211
▁bragg	-11.7212
▁chapel	-11.7212
▁painful	-11.7216
▁Fight	-11.7216
▁partake	-11.7217
upper	-11.7218
▁Cries	-11.722
▁traitorous	-11.7221
▁Wish	-11.7222
▁coil	-11.7222
▁sixth	-11.7222
Point	-11.7223
▁crafty	-11.7227
Kneeling	-11.7229
▁speechless	-11.723
▁wretches	-11.7232
▁Sma	-11.7234
▁sinful	-11.7239
▁wayward	-11.7245
▁pole	-11.7249
▁capon	-11.7257
▁chi	-11.7266
▁creditor	-11.7269
▁casement	-11.7275
▁wagg	-11.7318
Falls	-11.7319
▁sauc	-11.7336
piece	-11.7338
▁Cro	-11.7478
liv	-11.7478
tiate	-11.7513
▁challeng	-11.7517
passionate	-11.7566
front	-11.7578
▁chas	-11.7605
France	-11.7606
mother	-11.7611
▁Holla	-11.7629
▁requir	-11.7645
▁travell	-11.7647
▁Sicil	-11.768
glass	-11.7682
worn	-11.7698
water	-11.7705
Verona	-11.7708
pipe	-11.7713
twenty	-11.7717
horn	-11.7717
mouth	-11.7721
purse	-11.7721
grown	-11.7728
hang	-11.7731
▁hale	-11.776
▁beseem	-11.7776
▁conspire	-11.783
▁plea	-11.783
Thou	-11.7861
ected	-11.7878
asted	-11.7884
ctor	-11.7917
▁element	-11.7918
Offer	-11.7919
That	-11.804
▁spar	-11.808
valu	-11.8084
▁Leav	-11.809
▁confus	-11.8106
▁Ephesus	-11.8109
▁Musicians	-11.8109
▁Tongue	-11.8109
▁attorney	-11.8109
▁generation	-11.8109
▁globe	-11.8109
▁Armado	-11.8109
▁BASSET	-11.8109
▁Barbary	-11.8109
▁Birnam	-11.8109
▁Cicero	-11.8109
▁Cimber	-11.8109
▁Confound	-11.8109
▁EGEUS	-11.8109
▁EGLAMOUR	-11.8109
▁EUPHRONIUS	-11.8109
▁EXTON	-11.8109
▁Eglamour	-11.8109
▁FAIRY	-11.8109
▁FRIAR	-11.8109
▁FROTH	-11.8109
▁GOTH	-11.8109
▁Harfleur	-11.8109
▁JAM	-11.8109
▁Jerusalem	-11.8109
▁Longaville	-11.8109
▁Montano	-11.8109
▁Parliament	-11.8109
▁Plead	-11.8109
▁Possess	-11.8109
▁Pyrrhus	-11.8109
▁SMITH	-11.8109
▁SPIRIT	-11.8109
▁SURVEYOR	-11.8109
▁TITINIUS	-11.8109
▁Thyself	-11.8109
▁WHITMORE	-11.8109
▁WIFE	-11.8109
▁adversaries	-11.8109
▁besiege	-11.8109
▁bubble	-11.8109
▁cabin	-11.8109
▁capacity	-11.8109
▁chariot	-11.8109
▁chivalry	-11.8109
▁circum	-11.8109
▁companies	-11.8109
▁controversy	-11.8109
▁discern	-11.8109
▁dunghill	-11.8109
▁duteous	-11.8109
▁emulation	-11.8109
▁entrails	-11.8109
▁evidence	-11.8109
▁exhibit	-11.8109
▁glories	-11.8109
▁idiot	-11.8109
▁inconstant	-11.8109
▁intercept	-11.8109
▁jaws	-11.8109
▁knell	-11.8109
▁malady	-11.8109
▁meditation	-11.8109
▁midwife	-11.8109
▁misfortune	-11.8109
▁occupation	-11.8109
▁paltry	-11.8109
▁plebeians	-11.8109
▁plenty	-11.8109
▁proffer	-11.8109
▁ruminate	-11.8109
▁ruthless	-11.8109
▁singular	-11.8109
▁smack	-11.8109
▁suggestion	-11.8109
▁surmise	-11.8109
▁tawny	-11.8109
▁territories	-11.8109
▁text	-11.8109
▁tumult	-11.8109
▁unfortunate	-11.8109
▁ungentle	-11.8109
▁unluck	-11.8109
▁unmannerly	-11.8109
▁vigour	-11.8109
▁villanous	-11.8109
▁villany	-11.8109
▁Bedford	-11.8109
▁SERGEANT	-11.8109
▁Worthies	-11.8109
▁balance	-11.8109
▁christen	-11.8109
▁fathom	-11.8109
▁lazy	-11.8109
▁murmur	-11.8109
▁reverent	-11.8109
▁stinking	-11.8109
witted	-11.8109
▁Sunday	-11.8109
▁ditch	-11.8109
▁infancy	-11.8109
▁levy	-11.8109
▁rapt	-11.8109
▁salve	-11.8109
▁smart	-11.8109
▁Weigh	-11.8109
▁ingenious	-11.8109
▁swine	-11.8109
▁tabor	-11.8109
▁tinker	-11.8109
▁Disdain	-11.8109
▁detain	-11.8109
▁Seven	-11.8109
▁Provide	-11.8109
▁forfend	-11.8109
▁ashore	-11.8109
▁muddy	-11.8109
accustom	-11.8109
lavish	-11.8109
▁Crown	-11.8109
▁lease	-11.8109
▁Hecate	-11.8109
▁denial	-11.8109
▁harp	-11.8109
▁Renown	-11.8109
▁wrap	-11.8109
▁bias	-11.8109
▁abode	-11.8109
▁strings	-11.811
▁mockery	-11.811
stinate	-11.811
▁Leontes	-11.811
▁famine	-11.811
▁mistaking	-11.811
▁collect	-11.811
▁sixteen	-11.811
▁braggart	-11.811
▁Dull	-11.811
▁Fell	-11.811
▁eloquence	-11.811
▁scarlet	-11.811
▁sixpence	-11.811
▁riddle	-11.811
▁beads	-11.811
▁midst	-11.811
diction	-11.811
▁inches	-11.8111
▁frailty	-11.8111
▁interpreter	-11.8111
▁prating	-11.8111
▁scrap	-11.8111
▁heavily	-11.8111
▁Night	-11.8112
▁Mercy	-11.8112
▁peruse	-11.8112
▁puff	-11.8113
angling	-11.8113
▁gripe	-11.8113
▁Cato	-11.8114
▁observation	-11.8114
▁bedfellow	-11.8114
▁belief	-11.8114
▁duck	-11.8115
▁crew	-11.8115
putation	-11.8115
▁solemnity	-11.8116
▁inclination	-11.8116
begotten	-11.8117
▁nick	-11.8117
▁vexation	-11.8117
▁nun	-11.8117
▁brim	-11.8118
▁peck	-11.8118
▁speedily	-11.8118
▁jealousies	-11.8118
▁lamentation	-11.8119
▁temperate	-11.8119
▁Wall	-11.8119
▁preferment	-11.812
▁Join	-11.812
▁trimm	-11.812
▁Words	-11.8121
▁pile	-11.8123
▁boon	-11.8124
Shout	-11.8126
▁Nan	-11.8126
▁poisonous	-11.8127
▁moder	-11.8133
▁unarm	-11.8133
▁Qui	-11.814
Act	-11.8146
▁fade	-11.815
▁sew	-11.8152
▁revive	-11.8153
▁Pale	-11.8156
Gloucestershire	-11.8158
▁stable	-11.8163
▁dice	-11.8166
▁Froth	-11.8167
▁thro	-11.8169
▁vest	-11.8171
otten	-11.8188
claw	-11.8192
cape	-11.8201
rence	-11.8243
▁grate	-11.8254
▁Stoo	-11.8325
Put	-11.8353
▁contriv	-11.8378
avoided	-11.8524
▁Hoo	-11.8607
Troy	-11.8626
white	-11.8654
shape	-11.8655
Capulet	-11.8693
song	-11.8718
mark	-11.8719
past	-11.8724
why	-11.8729
other	-11.8747
▁dispers	-11.8754
▁budge	-11.8773
scrib	-11.8795
▁lodg	-11.881
fro	-11.8811
▁chok	-11.884
OLIVIA	-11.8881
▁retir	-11.8889
interpret	-11.8889
▁crop	-11.8927
▁smok	-11.8956
▁smil	-11.8967
▁caus	-11.8981
▁convers	-11.8989
▁Kneel	-11.9019
▁compel	-11.9068
▁slaught	-11.9081
▁distract	-11.9087
▁sparkl	-11.9097
▁commonweal	-11.9105
▁Prosper	-11.9105
▁churl	-11.9107
▁stew	-11.9108
▁venge	-11.9109
ccompanied	-11.9109
juice	-11.9109
sumptuous	-11.9109
ustrious	-11.9109
▁AEMILIUS	-11.9109
▁Agrippa	-11.9109
▁Alexas	-11.9109
▁BARNARDINE	-11.9109
▁BRANDON	-11.9109
▁Bertram	-11.9109
▁Blanch	-11.9109
▁Bordeaux	-11.9109
▁Calpurnia	-11.9109
▁Centaur	-11.9109
▁Corrupt	-11.9109
▁Despair	-11.9109
▁Despite	-11.9109
▁Divide	-11.9109
▁Escalus	-11.9109
▁Europe	-11.9109
▁FRANCIS	-11.9109
▁Fidele	-11.9109
▁Geffrey	-11.9109
▁Griffith	-11.9109
▁HUNTSMAN	-11.9109
▁JEWELLER	-11.9109
▁Jaquenetta	-11.9109
▁Lodovico	-11.9109
▁Lucetta	-11.9109
▁MUSICIAN	-11.9109
▁Nathaniel	-11.9109
▁Nicholas	-11.9109
▁Persuade	-11.9109
▁Philomel	-11.9109
▁Repair	-11.9109
▁STEWARD	-11.9109
▁STRANGER	-11.9109
▁Silvius	-11.9109
▁TUBAL	-11.9109
▁Thieves	-11.9109
▁VOLSCE	-11.9109
▁Vienna	-11.9109
▁White	-11.9109
▁assembled	-11.9109
▁bribe	-11.9109
▁buffet	-11.9109
▁calamity	-11.9109
▁ceremonies	-11.9109
▁compulsion	-11.9109
▁conspiracy	-11.9109
▁defiance	-11.9109
▁degenerate	-11.9109
▁desolation	-11.9109
▁dissension	-11.9109
▁drudge	-11.9109
▁dungeon	-11.9109
▁eclipse	-11.9109
▁enjoin	-11.9109
▁fourscore	-11.9109
▁geese	-11.9109
▁generous	-11.9109
▁greasy	-11.9109
▁groat	-11.9109
▁ingrateful	-11.9109
▁knives	-11.9109
▁litter	-11.9109
▁madonna	-11.9109
▁navy	-11.9109
▁pilot	-11.9109
▁principal	-11.9109
▁shrift	-11.9109
▁simply	-11.9109
▁snuff	-11.9109
▁survive	-11.9109
▁sweetheart	-11.9109
▁sympathy	-11.9109
▁testament	-11.9109
▁tragedy	-11.9109
▁travail	-11.9109
▁turtle	-11.9109
▁wrestling	-11.9109
Embrac	-11.9109
▁Avaunt	-11.9109
▁Gregory	-11.9109
▁Hymen	-11.9109
▁admittance	-11.9109
▁bewitch	-11.9109
▁chaff	-11.9109
▁cleave	-11.9109
▁display	-11.9109
▁establish	-11.9109
▁fifth	-11.9109
▁gulf	-11.9109
▁headstrong	-11.9109
▁ominous	-11.9109
▁overcame	-11.9109
▁probable	-11.9109
▁trash	-11.9109
▁consume	-11.9109
▁creation	-11.9109
▁gesture	-11.9109
▁posterity	-11.9109
▁trace	-11.9109
▁waft	-11.9109
▁Breath	-11.9109
▁Twice	-11.9109
▁Prick	-11.9109
▁echo	-11.9109
▁froward	-11.9109
▁smock	-11.9109
▁yeoman	-11.9109
▁session	-11.9109
▁whistle	-11.9109
erthrow	-11.9109
▁scout	-11.9109
▁mule	-11.9109
▁snail	-11.9109
▁Green	-11.9109
▁barber	-11.9109
▁spear	-11.9109
▁canopy	-11.9109
▁doomsday	-11.9109
▁alehouse	-11.9109
▁retain	-11.9109
▁Cheer	-11.9109
▁impose	-11.9109
▁consist	-11.9109
▁Obey	-11.9109
▁Intend	-11.911
▁color	-11.911
▁sorcer	-11.911
▁span	-11.911
▁wedlock	-11.911
▁Owen	-11.911
▁detect	-11.911
▁Arch	-11.911
▁gasp	-11.911
▁submit	-11.911
▁verity	-11.911
▁dotage	-11.911
▁submission	-11.911
▁powder	-11.911
▁suppress	-11.911
▁brood	-11.911
▁ordain	-11.911
▁ginger	-11.911
▁purity	-11.9111
▁gorgeous	-11.9111
▁meteor	-11.9111
▁moonshine	-11.9111
roast	-11.9111
▁Common	-11.9111
▁beetle	-11.9112
▁vale	-11.9112
▁impression	-11.9113
▁helmet	-11.9114
▁blazon	-11.9114
▁elsewhere	-11.9115
▁knighthood	-11.9115
▁freeze	-11.9115
▁yare	-11.9115
▁allowance	-11.9116
▁Paul	-11.9116
▁potion	-11.9116
Tears	-11.9117
▁Fourth	-11.9118
farthing	-11.9118
▁packet	-11.9119
▁tip	-11.9119
▁parish	-11.9119
▁Maid	-11.9119
▁tough	-11.9119
▁colt	-11.9119
▁maim	-11.9119
▁Wound	-11.912
▁advancement	-11.9121
▁lick	-11.9123
▁gear	-11.9124
▁chan	-11.9127
▁cite	-11.9142
▁exception	-11.9149
parent	-11.9164
merce	-11.9198
▁erect	-11.9231
▁Carrie	-11.9242
lapp	-11.9315
▁clef	-11.9358
buckler	-11.9367
polis	-11.9429
Come	-11.9478
beseeming	-11.9491
ribb	-11.9528
awl	-11.9531
Caesar	-11.9719
wonted	-11.9762
swear	-11.9784
Windsor	-11.9795
which	-11.9799
temper	-11.9806
weep	-11.9826
govern	-11.9828
cross	-11.9831
break	-11.9833
keeper	-11.9834
suit	-11.9834
Milan	-11.9836
blown	-11.9837
mercy	-11.9841
▁refus	-11.9849
▁obscur	-11.986
fair	-11.988
rank	-11.9902
▁nurs	-11.9963
▁Officer	-12.0029
Sleep	-12.003
▁rite	-12.0034
▁perceiv	-12.0038
▁wor	-12.0046
▁Drink	-12.0159
reconcil	-12.016
▁Brit	-12.0201
▁Yond	-12.0201
▁imagin	-12.0204
▁lecher	-12.0209
reupon	-12.021
▁ATTENDANT	-12.0214
▁liqu	-12.0215
▁Pandar	-12.0218
▁gorge	-12.0219
natur	-12.0219
roach	-12.0219
crook	-12.022
▁COMMON	-12.022
▁Beauty	-12.022
▁Measure	-12.022
▁enact	-12.022
▁magistrate	-12.022
Hautboys	-12.022
Sennet	-12.022
ccompany	-12.022
legitimate	-12.022
▁ANDROMACHE	-12.022
▁ARCHIDAMUS	-12.022
▁Already	-12.022
▁Amazon	-12.022
▁BATES	-12.022
▁BEADLE	-12.022
▁BEAUFORT	-12.022
▁Bellario	-12.022
▁Bernardo	-12.022
▁CALCHAS	-12.022
▁CHANCELLOR	-12.022
▁CHATILLON	-12.022
▁CLITUS	-12.022
▁Colville	-12.022
▁Conrade	-12.022
▁DERCETAS	-12.022
▁ERPINGHAM	-12.022
▁FANG	-12.022
▁FAULCONBRIDGE	-12.022
▁FEEBLE	-12.022
▁GROOM	-12.022
▁Gonzalo	-12.022
▁HORNER	-12.022
▁Katherina	-12.022
▁Ligarius	-12.022
▁MARINER	-12.022
▁MOROCCO	-12.022
▁Marquis	-12.022
▁Mouldy	-12.022
▁POST	-12.022
▁Pembroke	-12.022
▁Perdita	-12.022
▁Poison	-12.022
▁RAMBURES	-12.022
▁RUTLAND	-12.022
▁Ravenspurgh	-12.022
▁SHERIFF	-12.022
▁STARVELING	-12.022
▁Salique	-12.022
▁Senators	-12.022
▁Syracuse	-12.022
▁Tarquin	-12.022
▁Tiber	-12.022
▁Tullus	-12.022
▁Varro	-12.022
▁Witches	-12.022
▁Withdraw	-12.022
▁adversary	-12.022
▁autumn	-12.022
▁bauble	-12.022
▁calendar	-12.022
▁cherubin	-12.022
▁climate	-12.022
▁commence	-12.022
▁competitor	-12.022
▁concord	-12.022
▁conjoin	-12.022
▁conjunction	-12.022
▁construction	-12.022
▁contagious	-12.022
▁contemn	-12.022
▁corpse	-12.022
▁devout	-12.022
▁diligence	-12.022
▁discreet	-12.022
▁distinguish	-12.022
▁easier	-12.022
▁eternity	-12.022
▁fleece	-12.022
▁forswore	-12.022
▁huswife	-12.022
▁hymn	-12.022
▁impudent	-12.022
▁inferior	-12.022
▁jolly	-12.022
▁kitchen	-12.022
▁lantern	-12.022
▁majestical	-12.022
▁miscarried	-12.022
▁misdoubt	-12.022
▁morsel	-12.022
▁nightgown	-12.022
▁obsequious	-12.022
▁ordinance	-12.022
▁pedlar	-12.022
▁petticoat	-12.022
▁phoenix	-12.022
▁prattle	-12.022
▁preposterous	-12.022
▁pretence	-12.022
▁prettiest	-12.022
▁puissance	-12.022
▁pulpit	-12.022
▁puppet	-12.022
▁qualify	-12.022
▁redemption	-12.022
▁remuneration	-12.022
▁residence	-12.022
▁salutation	-12.022
▁sennet	-12.022
▁sequel	-12.022
▁sequent	-12.022
▁sheriff	-12.022
▁spade	-12.022
▁undeserv	-12.022
▁unquiet	-12.022
▁vicious	-12.022
▁woodcock	-12.022
▁wrangle	-12.022
▁wrote	-12.022
▁yawn	-12.022
▁Convey	-12.022
▁Place	-12.022
▁Tubal	-12.022
▁befits	-12.022
▁engross	-12.022
▁parrot	-12.022
▁prelate	-12.022
▁spaniel	-12.022
▁spong	-12.022
skirt	-12.022
▁Change	-12.022
▁Close	-12.022
▁Smile	-12.022
▁Tartar	-12.022
▁Tunis	-12.022
▁demean	-12.022
▁Dream	-12.022
▁Reason	-12.022
▁Tarry	-12.022
▁botch	-12.022
▁brake	-12.022
▁glean	-12.022
▁perdition	-12.022
▁pulse	-12.022
▁sect	-12.022
▁stalk	-12.022
▁therewithal	-12.022
▁cherry	-12.022
▁courtesies	-12.022
▁extern	-12.022
▁parentage	-12.022
▁pranks	-12.022
▁spout	-12.022
foresaid	-12.022
▁Cried	-12.022
▁Oppos	-12.022
▁predomina	-12.022
▁Derby	-12.022
▁gnat	-12.022
▁stride	-12.022
▁drab	-12.022
▁edict	-12.022
▁persever	-12.022
▁Double	-12.022
▁method	-12.022
▁viper	-12.022
▁Repent	-12.022
▁Dane	-12.0221
▁shock	-12.0221
▁pedant	-12.0221
▁eyne	-12.0221
▁relation	-12.0221
▁Damn	-12.0221
▁vaunt	-12.0221
▁bracelet	-12.0221
▁Titania	-12.0221
▁continuance	-12.0221
▁Royal	-12.0221
▁Forget	-12.0221
▁buckram	-12.0221
▁opposition	-12.0221
▁geld	-12.0221
▁wight	-12.0221
chew	-12.0221
▁odious	-12.0221
▁transgression	-12.0221
▁guiltiness	-12.0222
▁martial	-12.0222
▁cordial	-12.0222
▁heretic	-12.0222
▁idol	-12.0222
▁fust	-12.0222
▁aweary	-12.0222
▁Pierc	-12.0222
▁fortnight	-12.0222
▁moderate	-12.0223
▁dainti	-12.0223
▁pagan	-12.0223
▁conversation	-12.0223
▁credul	-12.0223
righteous	-12.0223
▁misuse	-12.0223
▁enquire	-12.0223
▁Hung	-12.0224
▁assign	-12.0225
▁snor	-12.0225
▁misled	-12.0225
auf	-12.0226
▁angle	-12.0226
▁brine	-12.0227
swol	-12.0231
▁sunder	-12.0232
▁enclos	-12.0235
onder	-12.0237
Leap	-12.0272
dishonoured	-12.0301
▁Whip	-12.031
▁unpa	-12.0314
▁dye	-12.038
Where	-12.0381
awful	-12.0455
▁babbl	-12.0482
Edmund	-12.0487
lowly	-12.0559
egg	-12.0571
Boar	-12.0646
Athens	-12.0695
Why	-12.0731
ripe	-12.0763
Padua	-12.0782
airy	-12.0832
honour	-12.1009
Paris	-12.101
sooth	-12.1043
monster	-12.1052
furnish	-12.1059
weigh	-12.1083
pardon	-12.1084
course	-12.1086
dispos	-12.1086
▁insult	-12.1131
▁prescript	-12.1142
▁Receiv	-12.1265
▁Tribune	-12.1279
▁tribune	-12.128
▁Writ	-12.1428
▁knav	-12.145
▁hug	-12.1459
traight	-12.1459
econd	-12.1463
njuri	-12.1468
▁Doct	-12.1468
▁trump	-12.1468
▁Chamber	-12.147
▁Launce	-12.147
▁Jacob	-12.147
▁arbitrat	-12.147
▁blister	-12.147
▁celebrate	-12.147
▁counterpois	-12.147
▁engender	-12.147
▁pavilion	-12.147
Advancing	-12.147
BALTHAZAR	-12.147
Dogberry	-12.147
GOVERNOR	-12.147
PINCH	-12.147
auspicious	-12.147
eminence	-12.147
kennel	-12.147
pothecary	-12.147
substantial	-12.147
▁ABERGAVENNY	-12.147
▁Acquaint	-12.147
▁Advance	-12.147
▁Antium	-12.147
▁Aquitaine	-12.147
▁Berkeley	-12.147
▁Bushy	-12.147
▁CAMBRIDGE	-12.147
▁COUNT	-12.147
▁Cadwal	-12.147
▁Calchas	-12.147
▁Cambio	-12.147
▁Cranmer	-12.147
▁DENNY	-12.147
▁Daughter	-12.147
▁Disguis	-12.147
▁Dismiss	-12.147
▁Dolabella	-12.147
▁Ferdinand	-12.147
▁Frederick	-12.147
▁GARDENER	-12.147
▁Ganymede	-12.147
▁HORTENSIUS	-12.147
▁LUCULLUS	-12.147
▁Lartius	-12.147
▁MORTON	-12.147
▁MUSTARDSEED	-12.147
▁Oberon	-12.147
▁PETITIONER	-12.147
▁PHILOTUS	-12.147
▁Pluto	-12.147
▁Polydore	-12.147
▁Question	-12.147
▁ROBERT	-12.147
▁SICILIUS	-12.147
▁SIXTH	-12.147
▁Samson	-12.147
▁Servilius	-12.147
▁Strato	-12.147
▁Syracusian	-12.147
▁TIMANDRA	-12.147
▁Tewksbury	-12.147
▁Thrust	-12.147
▁Treason	-12.147
▁Tuesday	-12.147
▁Valiant	-12.147
▁Volumnius	-12.147
▁Widow	-12.147
▁Wolsey	-12.147
▁advocate	-12.147
▁appertain	-12.147
▁basilisk	-12.147
▁bridal	-12.147
▁bulwark	-12.147
▁cauldron	-12.147
▁ceremonious	-12.147
▁conjecture	-12.147
▁construe	-12.147
▁cottage	-12.147
▁dastard	-12.147
▁dialogue	-12.147
▁disobedience	-12.147
▁dispense	-12.147
▁dissuade	-12.147
▁divinity	-12.147
▁doctrine	-12.147
▁education	-12.147
▁ensuing	-12.147
▁exchequer	-12.147
▁exempt	-12.147
▁expedient	-12.147
▁extort	-12.147
▁gentlewomen	-12.147
▁hypocrite	-12.147
▁imposition	-12.147
▁industry	-12.147
▁injustice	-12.147
▁insolent	-12.147
▁jocund	-12.147
▁lanthorn	-12.147
▁lecture	-12.147
▁luxury	-12.147
▁malignant	-12.147
▁marshal	-12.147
▁massacre	-12.147
▁matron	-12.147
▁military	-12.147
▁minstrel	-12.147
▁mutinous	-12.147
▁ostentation	-12.147
▁oyster	-12.147
▁parchment	-12.147
▁pebble	-12.147
▁porridge	-12.147
▁prophecies	-12.147
▁radiant	-12.147
▁recreation	-12.147
▁regiment	-12.147
▁remedies	-12.147
▁repetition	-12.147
▁replete	-12.147
▁replied	-12.147
▁rhetoric	-12.147
▁rigour	-12.147
▁scythe	-12.147
▁spoon	-12.147
▁stagger	-12.147
▁suburbs	-12.147
▁supplication	-12.147
▁supplied	-12.147
▁trenches	-12.147
▁uncivil	-12.147
▁unprovide	-12.147
▁woful	-12.147
▁wrangling	-12.147
▁wreath	-12.147
comfit	-12.147
▁Arabia	-12.147
▁Corinth	-12.147
▁Pretty	-12.147
▁Quince	-12.147
▁Search	-12.147
▁Traitor	-12.147
▁blasphem	-12.147
▁chuck	-12.147
▁clergy	-12.147
▁codpiece	-12.147
▁congeal	-12.147
▁disaster	-12.147
▁enroll	-12.147
▁flash	-12.147
▁gratify	-12.147
▁intolerable	-12.147
▁melody	-12.147
▁popular	-12.147
▁sacrament	-12.147
▁shuffl	-12.147
▁unhallow	-12.147
▁Humbly	-12.147
▁Judge	-12.147
▁ambush	-12.147
▁hint	-12.147
▁mechanic	-12.147
▁medlar	-12.147
▁Pinch	-12.147
▁Siward	-12.147
▁lenity	-12.147
▁pretend	-12.147
▁repay	-12.147
▁Beware	-12.147
▁Constance	-12.147
▁Expect	-12.147
▁Rebellio	-12.147
▁Satan	-12.147
▁apron	-12.147
▁flay	-12.147
▁family	-12.147
▁manifold	-12.147
▁Short	-12.147
▁slippery	-12.147
▁visor	-12.147
▁Shore	-12.147
▁Fife	-12.147
▁beadle	-12.147
▁daff	-12.147
▁lousy	-12.147
▁martyr	-12.147
▁animal	-12.147
▁harness	-12.147
▁wilderness	-12.147
▁stony	-12.147
▁ensign	-12.147
▁robbery	-12.147
Storm	-12.147
▁bullets	-12.147
▁depth	-12.147
▁staves	-12.147
▁wrongfully	-12.147
▁augment	-12.147
▁tithe	-12.147
▁strut	-12.147
▁dignifie	-12.147
▁cornets	-12.147
▁foresee	-12.1471
▁raiment	-12.1471
▁flea	-12.1471
▁plod	-12.1471
▁relate	-12.1471
▁Consent	-12.1471
daunted	-12.1471
▁Mariana	-12.1471
nominate	-12.1471
▁sprung	-12.1471
▁imaginary	-12.1471
▁fardel	-12.1471
▁weaver	-12.1471
▁thrall	-12.1471
▁verge	-12.1471
sociable	-12.1471
▁sexton	-12.1471
ehind	-12.1471
▁thiev	-12.1472
▁olive	-12.1472
▁steer	-12.1472
▁rook	-12.1473
▁vary	-12.1473
▁adorn	-12.1473
ispute	-12.1474
cony	-12.1481
▁Sav	-12.1483
exec	-12.149
trodden	-12.1491
▁Deni	-12.1502
figur	-12.1508
▁epi	-12.1509
Drinks	-12.154
hopeful	-12.1611
rooted	-12.1615
profitable	-12.163
wearie	-12.1778
bbing	-12.1946
specially	-12.1971
adding	-12.1986
▁achiev	-12.2069
bidden	-12.2335
▁remiss	-12.2385
conceited	-12.2414
basket	-12.2477
proportion	-12.2488
worm	-12.2507
Wales	-12.2508
erflow	-12.2509
faith	-12.2515
sweet	-12.2515
wiv	-12.2635
suspected	-12.2695
ficial	-12.2756
▁temp	-12.2773
▁reviv	-12.2829
▁kno	-12.287
▁heigh	-12.2875
▁minist	-12.2877
▁commun	-12.2884
▁filth	-12.2887
▁LOVEL	-12.2894
▁fantastic	-12.2894
mmediately	-12.2896
▁pestilen	-12.2897
hoose	-12.2898
▁infirm	-12.2898
▁sequest	-12.2899
▁embark	-12.2899
▁encompass	-12.2899
▁equivocat	-12.2899
▁hobby	-12.2899
▁valley	-12.2899
Governor	-12.2899
Retreat	-12.2899
SEMPRONIUS	-12.2899
devoted	-12.2899
smirch	-12.2899
timber	-12.2899
▁AMBASSADOR	-12.2899
▁Admir	-12.2899
▁Alcides	-12.2899
▁Antigonus	-12.2899
▁BLUNT	-12.2899
▁BULLCALF	-12.2899
▁BUTTS	-12.2899
▁Bullcalf	-12.2899
▁CALPURNIA	-12.2899
▁CAPUCIUS	-12.2899
▁CERES	-12.2899
▁COBWEB	-12.2899
▁COLVILLE	-12.2899
▁Carthage	-12.2899
▁Chatillon	-12.2899
▁Condemn	-12.2899
▁Confirm	-12.2899
▁DEIPHOBUS	-12.2899
▁DRAWER	-12.2899
▁December	-12.2899
▁Elbow	-12.2899
▁Enjoy	-12.2899
▁Epidamnum	-12.2899
▁FASTOLFE	-12.2899
▁FATHER	-12.2899
▁Fabian	-12.2899
▁Feeble	-12.2899
▁Flaminius	-12.2899
▁Further	-12.2899
▁Herself	-12.2899
▁Hippolyta	-12.2899
▁ISABEL	-12.2899
▁Iachimo	-12.2899
▁Licio	-12.2899
▁Lucullus	-12.2899
▁MARULLUS	-12.2899
▁MELUN	-12.2899
▁MONTGOMERY	-12.2899
▁MOONSHINE	-12.2899
▁MOULDY	-12.2899
▁MUTIUS	-12.2899
▁Monster	-12.2899
▁Neapolitan	-12.2899
▁Normandy	-12.2899
▁Observe	-12.2899
▁Ourselves	-12.2899
▁PATRICIAN	-12.2899
▁PEASEBLOSSOM	-12.2899
▁PLAYER	-12.2899
▁PRIEST	-12.2899
▁Phrygia	-12.2899
▁Plague	-12.2899
▁Quarrel	-12.2899
▁Rumour	-12.2899
▁SELEUCUS	-12.2899
▁SNUG	-12.2899
▁Seyton	-12.2899
▁Shadow	-12.2899
▁Sheriff	-12.2899
▁Success	-12.2899
▁Sycorax	-12.2899
▁Tearsheet	-12.2899
▁Tyrrel	-12.2899
▁VAUX	-12.2899
▁Vaughan	-12.2899
▁arithmetic	-12.2899
▁attribute	-12.2899
▁audacious	-12.2899
▁austere	-12.2899
▁baggage	-12.2899
▁bonny	-12.2899
▁breeches	-12.2899
▁brooch	-12.2899
▁caution	-12.2899
▁citadel	-12.2899
▁commotion	-12.2899
▁conception	-12.2899
▁convoy	-12.2899
▁covenant	-12.2899
▁dalliance	-12.2899
▁declare	-12.2899
▁dregs	-12.2899
▁effeminate	-12.2899
▁emboss	-12.2899
▁epilogue	-12.2899
▁evident	-12.2899
▁exeunt	-12.2899
▁extenuate	-12.2899
▁faculties	-12.2899
▁festival	-12.2899
▁grapple	-12.2899
▁halfpenny	-12.2899
▁hawthorn	-12.2899
▁imminent	-12.2899
▁incontinent	-12.2899
▁intercess	-12.2899
▁juvenal	-12.2899
▁license	-12.2899
▁lullaby	-12.2899
▁magnanimous	-12.2899
▁merchandise	-12.2899
▁merrier	-12.2899
▁mounsieur	-12.2899
▁obdurate	-12.2899
▁obsequies	-12.2899
▁peculiar	-12.2899
▁plentiful	-12.2899
▁prerogative	-12.2899
▁provision	-12.2899
▁pursuivant	-12.2899
▁remnant	-12.2899
▁remote	-12.2899
▁reprieve	-12.2899
▁requital	-12.2899
▁safeguard	-12.2899
▁schedule	-12.2899
▁sergeant	-12.2899
▁skilful	-12.2899
▁skirmish	-12.2899
▁supreme	-12.2899
▁surname	-12.2899
▁temporal	-12.2899
▁timorous	-12.2899
▁trivial	-12.2899
▁truncheon	-12.2899
▁ungracious	-12.2899
▁unseason	-12.2899
▁unwholesome	-12.2899
▁violate	-12.2899
▁whale	-12.2899
▁wreak	-12.2899
Neighbour	-12.2899
▁Accurs	-12.2899
▁Ancient	-12.2899
▁Chiron	-12.2899
▁Colour	-12.2899
▁Destroy	-12.2899
▁Excuse	-12.2899
▁James	-12.2899
▁Mutius	-12.2899
▁Olympus	-12.2899
▁Perform	-12.2899
▁Scorn	-12.2899
▁Trouble	-12.2899
▁Twenty	-12.2899
▁bishop	-12.2899
▁bonnet	-12.2899
▁carcass	-12.2899
▁clime	-12.2899
▁cloister	-12.2899
▁dominions	-12.2899
▁earthquake	-12.2899
▁fragment	-12.2899
▁gambol	-12.2899
▁gibbet	-12.2899
▁grease	-12.2899
▁hurrie	-12.2899
▁intellect	-12.2899
▁manacle	-12.2899
▁primrose	-12.2899
▁probation	-12.2899
▁rejoicing	-12.2899
▁reprehend	-12.2899
▁smelt	-12.2899
▁sulphur	-12.2899
▁thunderbolt	-12.2899
▁turf	-12.2899
▁unhappi	-12.2899
▁uttermost	-12.2899
▁vineyard	-12.2899
▁bruit	-12.2899
▁cowslip	-12.2899
▁distrust	-12.2899
▁obligation	-12.2899
▁operation	-12.2899
▁puppy	-12.2899
paramour	-12.2899
▁Drown	-12.2899
▁Wake	-12.2899
▁lump	-12.2899
▁pepper	-12.2899
▁undertaking	-12.2899
▁Accus	-12.2899
▁Life	-12.2899
▁copper	-12.2899
HAM	-12.2899
▁BONA	-12.2899
▁appele	-12.2899
▁mature	-12.2899
▁penury	-12.2899
▁tackle	-12.2899
▁astonish	-12.2899
▁imputation	-12.2899
▁inhuman	-12.2899
▁untrue	-12.2899
▁sloth	-12.2899
▁Priest	-12.2899
▁ostler	-12.2899
▁skies	-12.2899
▁spiritual	-12.2899
▁Wait	-12.2899
▁dump	-12.2899
▁oftentimes	-12.2899
borough	-12.2899
▁butterfl	-12.2899
▁solace	-12.2899
▁Thames	-12.2899
float	-12.2899
▁denote	-12.2899
▁mermaid	-12.2899
▁amiable	-12.2899
▁gamester	-12.2899
▁shriv	-12.2899
▁Arden	-12.2899
▁favourites	-12.2899
▁hearken	-12.2899
▁Merely	-12.2899
▁Buy	-12.2899
▁nether	-12.2899
rattling	-12.2899
dopted	-12.2899
▁buttock	-12.2899
▁cuff	-12.2899
▁Pronounc	-12.29
▁thaw	-12.29
▁fortify	-12.29
▁stint	-12.29
plus	-12.29
franchisement	-12.2901
▁untie	-12.2903
Pull	-12.2903
▁infallibl	-12.2903
▁glu	-12.2906
ommunicat	-12.2913
▁Agree	-12.2914
Horns	-12.2936
Field	-12.2979
sulting	-12.307
rrival	-12.3071
affron	-12.3146
cropp	-12.3178
oyal	-12.3336
respective	-12.3467
Friar	-12.351
apparell	-12.3518
hipp	-12.3605
habited	-12.3657
▁conceiv	-12.3758
reservation	-12.3957
deceased	-12.3977
crown	-12.4035
▁danc	-12.413
calf	-12.414
giving	-12.4146
Gloucester	-12.4165
marry	-12.4175
uncle	-12.4178
banished	-12.4182
school	-12.4184
shake	-12.419
▁profan	-12.4223
▁flam	-12.424
▁driv	-12.4311
▁privileg	-12.4401
▁wheresoe	-12.4462
nointed	-12.4478
▁sentenc	-12.4512
▁swagg	-12.4546
▁horribl	-12.4552
▁uncur	-12.4563
randam	-12.4564
▁covet	-12.4564
▁Saturn	-12.4565
▁Titan	-12.4565
▁Beguil	-12.4566
▁Cassandra	-12.4566
▁Crispian	-12.4566
▁Hyperion	-12.4566
▁Vulcan	-12.4566
▁encourage	-12.4566
▁hoodwink	-12.4566
▁streak	-12.4566
▁wrack	-12.4566
Cuckoo	-12.4566
Excursions	-12.4566
JUNO	-12.4566
Retires	-12.4566
Tucket	-12.4566
Voltemand	-12.4566
applied	-12.4566
frequent	-12.4566
idelicet	-12.4566
mixture	-12.4566
uxurious	-12.4566
▁ANTENOR	-12.4566
▁ARRAGON	-12.4566
▁Abbey	-12.4566
▁Afric	-12.4566
▁Agincourt	-12.4566
▁Aliena	-12.4566
▁Alisander	-12.4566
▁Augustus	-12.4566
▁Austria	-12.4566
▁BERKELEY	-12.4566
▁BRITAINE	-12.4566
▁BROTHER	-12.4566
▁Brainford	-12.4566
▁CAMBIO	-12.4566
▁CENTURION	-12.4566
▁CLERK	-12.4566
▁CUPID	-12.4566
▁Clitus	-12.4566
▁Cobweb	-12.4566
▁Cornelius	-12.4566
▁Creep	-12.4566
▁Danger	-12.4566
▁Daniel	-12.4566
▁EXECUTIONER	-12.4566
▁Elizabeth	-12.4566
▁Elysium	-12.4566
▁Entreat	-12.4566
▁Ethiope	-12.4566
▁FORESTER	-12.4566
▁FRANCISCO	-12.4566
▁Flatter	-12.4566
▁GALLUS	-12.4566
▁Grief	-12.4566
▁Happily	-12.4566
▁Husband	-12.4566
▁ISIDORE	-12.4566
▁LANCASTER	-12.4566
▁LIGARIUS	-12.4566
▁LONDON	-12.4566
▁Lucifer	-12.4566
▁Lucrece	-12.4566
▁MACMORRIS	-12.4566
▁MENTEITH	-12.4566
▁METELLUS	-12.4566
▁MICHAEL	-12.4566
▁Macmorris	-12.4566
▁Maintain	-12.4566
▁Minola	-12.4566
▁Mustardseed	-12.4566
▁Nilus	-12.4566
▁PHRYNIA	-12.4566
▁PINDARUS	-12.4566
▁People	-12.4566
▁Reynaldo	-12.4566
▁Rhodes	-12.4566
▁SEYTON	-12.4566
▁SOUTHWELL	-12.4566
▁Saturninus	-12.4566
▁Smithfield	-12.4566
▁Soothsayer	-12.4566
▁Spaniard	-12.4566
▁Subdue	-12.4566
▁Syria	-12.4566
▁Taurus	-12.4566
▁Traveller	-12.4566
▁VARRIUS	-12.4566
▁Wretche	-12.4566
▁adversity	-12.4566
▁anguish	-12.4566
▁apparition	-12.4566
▁appellant	-12.4566
▁arbitrement	-12.4566
▁arrogance	-12.4566
▁attentive	-12.4566
▁bespeak	-12.4566
▁brawn	-12.4566
▁brutish	-12.4566
▁captivity	-12.4566
▁conduit	-12.4566
▁contagion	-12.4566
▁convince	-12.4566
▁damask	-12.4566
▁dawning	-12.4566
▁demonstrate	-12.4566
▁desolate	-12.4566
▁diligent	-12.4566
▁discarded	-12.4566
▁disjoin	-12.4566
▁domestic	-12.4566
▁dross	-12.4566
▁dulcet	-12.4566
▁embassage	-12.4566
▁eminent	-12.4566
▁empery	-12.4566
▁estimate	-12.4566
▁examination	-12.4566
▁excrement	-12.4566
▁expert	-12.4566
▁fealty	-12.4566
▁gauntlet	-12.4566
▁haviour	-12.4566
▁hilding	-12.4566
▁hilts	-12.4566
▁idolatry	-12.4566
▁immode	-12.4566
▁incessant	-12.4566
▁incision	-12.4566
▁increasing	-12.4566
▁indignity	-12.4566
▁iniquity	-12.4566
▁insurrection	-12.4566
▁jollity	-12.4566
▁liberties	-12.4566
▁libertine	-12.4566
▁merciless	-12.4566
▁misprision	-12.4566
▁necessaries	-12.4566
▁nostril	-12.4566
▁nunnery	-12.4566
▁ordnance	-12.4566
▁palpable	-12.4566
▁penitence	-12.4566
▁platform	-12.4566
▁plunge	-12.4566
▁potency	-12.4566
▁presumption	-12.4566
▁promontory	-12.4566
▁promotion	-12.4566
▁quillets	-12.4566
▁quondam	-12.4566
▁rancour	-12.4566
▁reflection	-12.4566
▁refuge	-12.4566
▁repulse	-12.4566
▁respite	-12.4566
▁rosemary	-12.4566
▁salvation	-12.4566
▁sconce	-12.4566
▁shrine	-12.4566
▁striving	-12.4566
▁supplant	-12.4566
▁suppliant	-12.4566
▁synod	-12.4566
▁tinct	-12.4566
▁treaty	-12.4566
▁trophies	-12.4566
▁undoubted	-12.4566
▁unfeigned	-12.4566
▁ungrateful	-12.4566
▁unpeople	-12.4566
▁unsatisfied	-12.4566
▁unsettled	-12.4566
▁vacant	-12.4566
▁vanities	-12.4566
▁variable	-12.4566
▁venison	-12.4566
▁vulture	-12.4566
scension	-12.4566
▁Beggar	-12.4566
▁GUARDSMAN	-12.4566
▁Joy	-12.4566
▁affirm	-12.4566
▁benediction	-12.4566
▁blench	-12.4566
▁carbuncle	-12.4566
▁cliff	-12.4566
▁critic	-12.4566
▁disinherit	-12.4566
▁firmament	-12.4566
▁flax	-12.4566
▁gaudy	-12.4566
▁glimmer	-12.4566
▁guile	-12.4566
▁inventory	-12.4566
▁levity	-12.4566
▁mariners	-12.4566
▁musk	-12.4566
▁passenger	-12.4566
▁pauca	-12.4566
▁prostrate	-12.4566
▁prunes	-12.4566
▁reprove	-12.4566
▁sensual	-12.4566
▁speculati	-12.4566
▁unpleas	-12.4566
▁victual	-12.4566
▁Chrish	-12.4566
▁besmear	-12.4566
▁bristle	-12.4566
▁cream	-12.4566
▁epithet	-12.4566
▁foison	-12.4566
▁liable	-12.4566
▁margent	-12.4566
▁ooze	-12.4566
▁pudding	-12.4566
▁Egeus	-12.4566
▁filch	-12.4566
▁quittance	-12.4566
▁reveal	-12.4566
Charge	-12.4566
▁Danish	-12.4566
▁Next	-12.4566
▁brush	-12.4566
▁eighteen	-12.4566
▁expel	-12.4566
▁mongrel	-12.4566
▁shiver	-12.4566
▁trail	-12.4566
▁viands	-12.4566
Discover	-12.4566
▁Vex	-12.4566
▁basis	-12.4566
▁infringe	-12.4566
▁stifle	-12.4566
wrung	-12.4566
▁lisp	-12.4566
▁sentinel	-12.4566
▁sinister	-12.4566
▁tangle	-12.4566
▁Fresh	-12.4566
▁Severn	-12.4566
▁Slave	-12.4566
▁dank	-12.4566
▁Roger	-12.4566
▁agony	-12.4566
▁sincerity	-12.4566
▁slug	-12.4566
▁honourably	-12.4566
▁Swift	-12.4566
▁galleys	-12.4566
▁glide	-12.4566
▁Slander	-12.4566
▁Snare	-12.4566
▁Drive	-12.4566
▁disfigure	-12.4566
▁effus	-12.4566
▁origin	-12.4566
▁fife	-12.4566
▁Gramerc	-12.4566
bodied	-12.4566
▁fume	-12.4566
Awak	-12.4566
▁Power	-12.4566
▁Sparta	-12.4566
▁Invite	-12.4567
▁rancor	-12.4568
▁Refus	-12.4569
▁pencil	-12.457
Cornets	-12.4571
▁extol	-12.4573
▁Sardi	-12.4574
raduc	-12.4576
shearing	-12.4583
▁Gues	-12.4588
▁artific	-12.4615
quint	-12.4617
Knocks	-12.4661
graff	-12.4797
▁signifie	-12.4857
Lack	-12.4863
▁irks	-12.493
cullion	-12.4981
acian	-12.527
▁bridle	-12.533
▁perfum	-12.5393
FORD	-12.5628
▁sacrific	-12.579
spirit	-12.6001
Leonato	-12.6154
feeling	-12.6183
proud	-12.6184
valiant	-12.6184
belov	-12.6191
Strik	-12.6263
▁ancestor	-12.6374
▁citizen	-12.6377
▁magnifi	-12.6538
▁rehears	-12.6552
plagu	-12.6562
▁transgress	-12.6563
experienc	-12.6564
▁Brabant	-12.6565
intelligen	-12.6565
▁dolphin	-12.6566
Anglais	-12.6566
Marseilles	-12.6566
Southampton	-12.6566
descried	-12.6566
gratulate	-12.6566
honneur	-12.6566
vulnerable	-12.6566
▁ABBOT	-12.6566
▁APPARITION	-12.6566
▁Abbess	-12.6566
▁Aegeon	-12.6566
▁Affection	-12.6566
▁Antipodes	-12.6566
▁Aunchient	-12.6566
▁BANDITTI	-12.6566
▁BOURBON	-12.6566
▁BULLEN	-12.6566
▁Belarius	-12.6566
▁Bequeath	-12.6566
▁CHRISTOPHER	-12.6566
▁CICERO	-12.6566
▁Canidius	-12.6566
▁Cease	-12.6566
▁Contempt	-12.6566
▁Continue	-12.6566
&	-13.8496
X	-13.8497
Q	-13.8498
q	-13.8499
j	-13.85
