<pad>	0
<unk>	0
<s>	0
</s>	0
[MASK]	0
[NL]	0
▁▁	-0
▁▁▁▁	-1
▁t	-2
he	-3
▁a	-4
ou	-5
▁s	-6
in	-7
▁m	-8
▁w	-9
re	-10
ha	-11
nd	-12
▁the	-13
▁b	-14
is	-15
er	-16
or	-17
ll	-18
▁f	-19
on	-20
it	-21
▁I	-22
▁d	-23
es	-24
▁c	-25
▁l	-26
▁o	-27
▁y	-28
▁n	-29
en	-30
▁th	-31
ar	-32
▁h	-33
▁you	-34
▁p	-35
▁to	-36
hat	-37
▁and	-38
▁of	-39
ot	-40
▁he	-41
an	-42
ve	-43
st	-44
ing	-45
ow	-46
om	-47
▁▁▁▁▁▁▁▁	-48
▁g	-49
at	-50
▁be	-51
▁in	-52
se	-53
ce	-54
▁my	-55
▁ha	-56
et	-57
le	-58
ay	-59
ld	-60
ut	-61
▁me	-62
ith	-63
ir	-64
im	-65
ch	-66
ed	-67
▁not	-68
gh	-69
▁is	-70
▁T	-71
ill	-72
▁that	-73
oo	-74
▁e	-75
▁for	-76
▁A	-77
our	-78
ke	-79
▁u	-80
▁W	-81
▁with	-82
▁we	-83
ent	-84
ad	-85
▁it	-86
as	-87
id	-88
▁your	-89
al	-90
her	-91
ter	-92
▁S	-93
And	-94
▁his	-95
ri	-96
▁C	-97
▁st	-98
ER	-99
ra	-100
▁thou	-101
▁H	-102
▁him	-103
ght	-104
▁▁▁▁▁▁▁▁▁▁▁▁▁▁▁▁	-105
ome	-106
▁this	-107
▁M	-108
▁have	-109
ord	-110
▁re	-111
ly	-112
ur	-113
▁so	-114
▁O	-115
▁on	-116
▁li	-117
▁as	-118
ver	-119
US	-120
EN	-121
▁k	-122
▁B	-123
ore	-124
ould	-125
ain	-126
IN	-127
ro	-128
▁do	-129
▁de	-130
am	-131
▁will	-132
AN	-133
us	-134
ood	-135
hi	-136
ck	-137
▁sha	-138
ES	-139
▁E	-140
AR	-141
▁se	-142
ion	-143
ess	-144
est	-145
The	-146
ON	-147
▁G	-148
and	-149
▁L	-150
▁P	-151
ea	-152
▁her	-153
▁thy	-154
nt	-155
▁lo	-156
th	-157
▁no	-158
OR	-159
ge	-160
▁but	-161
▁an	-162
▁su	-163
▁all	-164
▁F	-165
ru	-166
il	-167
ake	-168
if	-169
ear	-170
ell	-171
▁sp	-172
▁fa	-173
ct	-174
▁'	-175
▁D	-176
▁N	-177
▁kn	-178
▁thee	-179
▁shall	-180
ight	-181
ho	-182
▁v	-183
▁are	-184
han	-185
rom	-186
ST	-187
To	-188
ast	-189
▁by	-190
▁our	-191
ard	-192
▁sh	-193
art	-194
▁man	-195
hen	-196
▁ne	-197
end	-198
▁at	-199
ine	-200
ous	-201
ant	-202
▁am	-203
AL	-204
here	-205
OL	-206
▁up	-207
▁mu	-208
▁lord	-209
▁com	-210
out	-211
sel	-212
That	-213
one	-214
qu	-215
▁good	-216
ie	-217
ind	-218
ul	-219
res	-220
▁con	-221
ive	-222
em	-223
hich	-224
▁go	-225
▁Y	-226
TH	-227
ong	-228
ble	-229
▁from	-230
▁what	-231
▁R	-232
ry	-233
ers	-234
ven	-235
nter	-236
row	-237
▁them	-238
au	-239
▁she	-240
▁know	-241
oth	-242
▁love	-243
▁bl	-244
▁sw	-245
LE	-246
▁was	-247
hy	-248
▁would	-249
ic	-250
▁more	-251
LO	-252
▁pr	-253
RO	-254
CH	-255
pp	-256
ath	-257
all	-258
▁can	-259
▁hat	-260
▁now	-261
▁there	-262
ep	-263
ost	-264
▁their	-265
fe	-266
ol	-267
▁or	-268
el	-269
▁they	-270
▁wor	-271
▁than	-272
▁▁▁▁▁▁	-273
self	-274
ure	-275
▁ar	-276
ate	-277
▁sir	-278
▁What	-279
▁if	-280
ink	-281
▁say	-282
IO	-283
▁us	-284
IA	-285
▁let	-286
▁K	-287
▁The	-288
ING	-289
ue	-290
ish	-291
▁here	-292
But	-293
ort	-294
ng	-295
are	-296
other	-297
reat	-298
um	-299
ves	-300
fore	-301
ook	-302
ather	-303
▁r	-304
od	-305
▁hath	-306
EL	-307
▁(	-308
ak	-309
Th	-310
▁well	-311
ame	-312
IUS	-313
ig	-314
▁see	-315
▁pl	-316
▁then	-317
As	-318
▁one	-319
ound	-320
▁like	-321
▁br	-322
IC	-323
▁j	-324
▁He	-325
▁come	-326
▁did	-327
▁should	-328
For	-329
▁Th	-330
▁un	-331
▁may	-332
ance	-333
gain	-334
▁mad	-335
ED	-336
▁make	-337
eak	-338
▁ho	-339
ide	-340
un	-341
▁dis	-342
▁upon	-343
ice	-344
▁out	-345
very	-346
▁OF	-347
▁sa	-348
▁must	-349
▁which	-350
▁were	-351
pe	-352
KING	-353
▁had	-354
ity	-355
ime	-356
▁tru	-357
IR	-358
pt	-359
▁too	-360
▁qu	-361
ence	-362
▁pro	-363
TI	-364
UC	-365
unt	-366
orn	-367
ther	-368
▁heart	-369
ies	-370
▁hand	-371
▁when	-372
▁such	-373
Enter	-374
▁And	-375
▁po	-376
▁J	-377
▁hon	-378
TR	-379
▁en	-380
ness	-381
▁ex	-382
ave	-383
ond	-384
IS	-385
ff	-386
▁again	-387
▁speak	-388
▁al	-389
▁ey	-390
ince	-391
ise	-392
wn	-393
▁King	-394
Ex	-395
IL	-396
ass	-397
▁yet	-398
ist	-399
ick	-400
▁off	-401
ire	-402
▁some	-403
ady	-404
ough	-405
▁who	-406
RI	-407
▁these	-408
ci	-409
eet	-410
▁fri	-411
ARD	-412
urn	-413
ack	-414
▁think	-415
▁father	-416
own	-417
▁mine	-418
ose	-419
oy	-420
ings	-421
▁fo	-422
ERS	-423
age	-424
UT	-425
eunt	-426
▁ab	-427
▁Ex	-428
ANT	-429
▁▁▁▁▁▁▁▁▁▁	-430
▁how	-431
▁great	-432
▁You	-433
▁hea	-434
With	-435
▁give	-436
▁time	-437
way	-438
▁cha	-439
OM	-440
▁take	-441
▁much	-442
ag	-443
▁most	-444
ation	-445
▁tw	-446
aster	-447
entle	-448
ful	-449
He	-450
▁friend	-451
▁Why	-452
to	-453
▁V	-454
ESS	-455
▁tell	-456
▁where	-457
ree	-458
▁day	-459
ust	-460
In	-461
os	-462
▁ro	-463
▁bet	-464
ap	-465
▁mar	-466
ert	-467
▁fl	-468
▁gra	-469
OP	-470
▁hear	-471
red	-472
▁My	-473
▁le	-474
▁men	-475
io	-476
▁lea	-477
ign	-478
▁AN	-479
▁blood	-480
ull	-481
▁▁▁▁▁▁▁▁▁▁▁▁	-482
ress	-483
▁des	-484
▁art	-485
▁look	-486
▁word	-487
ither	-488
▁never	-489
not	-490
▁part	-491
▁But	-492
li	-493
AD	-494
EM	-495
▁other	-496
Of	-497
Be	-498
INE	-499
▁bre	-500
▁death	-501
ool	-502
If	-503
ount	-504
▁life	-505
▁wr	-506
ase	-507
ment	-508
ORD	-509
▁son	-510
▁ear	-511
igh	-512
oul	-513
▁gentle	-514
▁ser	-515
▁No	-516
UR	-517
▁fair	-518
▁fear	-519
▁doth	-520
My	-521
▁ri	-522
PH	-523
▁If	-524
CA	-525
▁tr	-526
ace	-527
tle	-528
▁sc	-529
Which	-530
ward	-531
▁ple	-532
ite	-533
FF	-534
ans	-535
old	-536
AC	-537
de	-538
▁own	-539
tis	-540
▁any	-541
▁comm	-542
ces	-543
▁honour	-544
▁war	-545
ENE	-546
AND	-547
EC	-548
▁sweet	-549
▁ad	-550
hing	-551
▁cl	-552
ee	-553
▁Enter	-554
▁heaven	-555
▁God	-556
▁made	-557
▁ra	-558
man	-559
▁true	-560
▁per	-561
ove	-562
▁call	-563
What	-564
nce	-565
ft	-566
land	-567
▁night	-568
rown	-569
IST	-570
▁very	-571
BER	-572
▁Sir	-573
KE	-574
▁Pr	-575
GE	-576
per	-577
llow	-578
▁How	-579
sw	-580
▁wh	-581
ction	-582
augh	-583
PRO	-584
able	-585
nder	-586
▁hast	-587
DU	-588
▁ke	-589
ock	-590
▁cannot	-591
QU	-592
▁app	-593
ber	-594
ouse	-595
ving	-596
les	-597
▁wit	-598
▁▁▁▁▁▁▁▁▁▁▁▁▁▁	-599
▁pray	-600
▁world	-601
CE	-602
▁Come	-603
▁eyes	-604
▁af	-605
cc	-606
TER	-607
▁been	-608
You	-609
▁str	-610
▁away	-611
▁pre	-612
AB	-613
AM	-614
orrow	-615
▁brother	-616
CENE	-617
▁cour	-618
▁im	-619
▁bear	-620
▁done	-621
WN	-622
▁Lord	-623
che	-624
▁down	-625
LY	-626
ud	-627
Tis	-628
ife	-629
PE	-630
▁nor	-631
▁comp	-632
▁ru	-633
▁name	-634
ss	-635
aint	-636
▁way	-637
▁wom	-638
▁stand	-639
▁Ay	-640
▁It	-641
▁two	-642
▁head	-643
▁la	-644
LA	-645
Who	-646
When	-647
▁ever	-648
▁old	-649
ID	-650
We	-651
IRST	-652
▁Mar	-653
▁before	-654
▁cont	-655
FIRST	-656
▁noble	-657
▁might	-658
So	-659
Or	-660
▁new	-661
▁leave	-662
we	-663
uke	-664
▁thought	-665
▁This	-666
▁arm	-667
ks	-668
▁lady	-669
▁pres	-670
the	-671
▁sl	-672
iss	-673
▁fool	-674
TE	-675
▁thus	-676
ef	-677
This	-678
for	-679
ple	-680
▁To	-681
ears	-682
ps	-683
ason	-684
ause	-685
RE	-686
▁long	-687
▁Ca	-688
▁OR	-689
atch	-690
irst	-691
▁AND	-692
▁comes	-693
▁beg	-694
aughter	-695
less	-696
▁could	-697
me	-698
ENT	-699
▁pur	-700
▁better	-701
IAN	-702
ors	-703
OND	-704
RIB	-705
ach	-706
ought	-707
▁soul	-708
ew	-709
▁har	-710
▁rem	-711
ang	-712
come	-713
▁That	-714
▁Let	-715
atter	-716
AT	-717
BR	-718
eace	-719
▁dead	-720
▁show	-721
SS	-722
Exit	-723
▁FOR	-724
▁poor	-725
▁find	-726
hall	-727
▁house	-728
▁into	-729
▁BY	-730
ious	-731
▁COP	-732
ISTRIB	-733
ia	-734
▁best	-735
ower	-736
▁king	-737
▁keep	-738
▁Duke	-739
▁nothing	-740
▁mer	-741
▁being	-742
▁rep	-743
▁many	-744
cy	-745
ty	-746
▁Exeunt	-747
▁end	-748
ne	-749
▁both	-750
ERV	-751
ius	-752
▁ent	-753
Is	-754
be	-755
▁Well	-756
▁live	-757
▁serv	-758
nto	-759
akes	-760
ds	-761
ied	-762
▁gl	-763
▁bra	-764
rance	-765
▁There	-766
▁So	-767
Exeunt	-768
▁every	-769
▁put	-770
▁myself	-771
tend	-772
lf	-773
▁still	-774
ian	-775
ins	-776
▁Now	-777
eth	-778
ier	-779
uck	-780
▁We	-781
une	-782
Where	-783
hip	-784
well	-785
▁master	-786
How	-787
▁friends	-788
ittle	-789
▁fell	-790
▁sm	-791
▁wife	-792
IM	-793
cl	-794
ark	-795
There	-796
SH	-797
vil	-798
▁Thou	-799
ESTER	-800
mp	-801
▁set	-802
ren	-803
race	-804
▁lie	-805
▁follow	-806
men	-807
OST	-808
rant	-809
▁tong	-810
▁nat	-811
Thou	-812
IT	-813
ile	-814
MER	-815
ons	-816
esar	-817
▁Eng	-818
▁little	-819
ac	-820
bl	-821
UCH	-822
ECOND	-823
▁dear	-824
▁Is	-825
▁Here	-826
▁those	-827
▁hold	-828
▁daughter	-829
▁hour	-830
SECOND	-831
▁first	-832
By	-833
int	-834
▁sle	-835
aid	-836
uth	-837
ield	-838
its	-839
▁Nay	-840
▁die	-841
▁young	-842
.'	-843
▁TH	-844
OTH	-845
STA	-846
▁lords	-847
▁conf	-848
▁Good	-849
ret	-850
LUC	-851
alk	-852
▁gone	-853
▁Rome	-854
ORK	-855
▁gu	-856
▁answ	-857
har	-858
▁chi	-859
SCENE	-860
lt	-861
ET	-862
▁eye	-863
ilt	-864
▁Be	-865
LOUC	-866
▁cons	-867
LOUCESTER	-868
▁co	-869
▁against	-870
▁Exit	-871
▁Do	-872
iness	-873
▁rest	-874
▁mind	-875
It	-876
DUKE	-877
▁thine	-878
▁himself	-879
▁el	-880
▁fort	-881
▁place	-882
iv	-883
ION	-884
CI	-885
▁tra	-886
▁fall	-887
▁worth	-888
ens	-889
esty	-890
▁boy	-891
oud	-892
Than	-893
get	-894
▁stay	-895
istress	-896
GO	-897
QUE	-898
led	-899
▁play	-900
▁woman	-901
QUEEN	-902
▁Then	-903
▁face	-904
▁sword	-905
▁Caesar	-906
uty	-907
▁ch	-908
CL	-909
USE	-910
▁gri	-911
ows	-912
▁tri	-913
▁pass	-914
UN	-915
▁fe	-916
▁kind	-917
BA	-918
eds	-919
ison	-920
▁court	-921
▁peace	-922
▁words	-923
▁none	-924
irt	-925
▁till	-926
Let	-927
ANTON	-928
▁mother	-929
▁Go	-930
▁full	-931
▁answer	-932
ect	-933
▁gi	-934
▁cur	-935
▁char	-936
ale	-937
HI	-938
▁tongue	-939
DES	-940
IES	-941
▁IS	-942
▁MA	-943
ring	-944
▁pe	-945
Re	-946
▁turn	-947
▁after	-948
▁res	-949
▁else	-950
▁present	-951
ab	-952
▁COM	-953
▁bring	-954
SAL	-955
ult	-956
▁An	-957
ition	-958
ICK	-959
▁imp	-960
▁forth	-961
▁right	-962
▁dra	-963
▁under	-964
▁though	-965
RY	-966
UM	-967
▁tre	-968
▁che	-969
▁hus	-970
▁France	-971
Que	-972
▁back	-973
LIA	-974
pon	-975
▁count	-976
▁whose	-977
band	-978
▁mean	-979
▁For	-980
Queen	-981
sand	-982
▁Where	-983
ENRY	-984
asure	-985
▁bel	-986
▁spir	-987
▁By	-988
ONIC	-989
Your	-990
▁once	-991
▁wrong	-992
▁crown	-993
▁pri	-994
▁meet	-995
ail	-996
▁chan	-997
▁seem	-998
His	-999
eech	-1000
▁said	-1001
▁HENRY	-1002
▁matter	-1003
▁bid	-1004
▁sub	-1005
▁child	-1006
19	-1007
Ham	-1008
▁acc	-1009
STAFF	-1010
ix	-1011
oh	-1012
▁IN	-1013
▁LORD	-1014
▁vill	-1015
199	-1016
CTR	-1017
CIAL	-1018
UTED	-1019
hile	-1020
▁ARE	-1021
LECTR	-1022
MERCIAL	-1023
▁COPIES	-1024
▁DISTRIB	-1025
LECTRONIC	-1026
ont	-1027
▁Who	-1028
▁reason	-1029
orse	-1030
▁faith	-1031
▁letter	-1032
▁St	-1033
ried	-1034
▁hum	-1035
▁ret	-1036
▁hope	-1037
ALSTAFF	-1038
air	-1039
ohn	-1040
▁Ant	-1041
▁unto	-1042
OWN	-1043
▁dre	-1044
▁inde	-1045
▁earth	-1046
▁another	-1047
bt	-1048
▁fal	-1049
▁pra	-1050
ph	-1051
ory	-1052
GLOUCESTER	-1053
ati	-1054
OB	-1055
▁mo	-1056
▁thing	-1057
▁three	-1058
▁husband	-1059
▁bod	-1060
▁thr	-1061
▁kill	-1062
▁over	-1063
selves	-1064
▁indeed	-1065
▁therefore	-1066
▁bes	-1067
▁home	-1068
▁please	-1069
▁sold	-1070
▁about	-1071
▁ass	-1072
ister	-1073
ary	-1074
ets	-1075
▁Cl	-1076
They	-1077
▁cou	-1078
▁Br	-1079
▁even	-1080
ene	-1081
▁stre	-1082
▁hence	-1083
▁light	-1084
ELLO	-1085
CHARD	-1086
CLO	-1087
Aside	-1088
▁sleep	-1089
▁Al	-1090
▁hel	-1091
▁cause	-1092
▁hands	-1093
▁heard	-1094
▁truth	-1095
▁dou	-1096
▁thousand	-1097
▁has	-1098
▁whom	-1099
▁nature	-1100
any	-1101
▁dost	-1102
ertain	-1103
ony	-1104
Upon	-1105
fect	-1106
BO	-1107
of	-1108
▁false	-1109
▁madam	-1110
St	-1111
vy	-1112
▁mon	-1113
▁use	-1114
LES	-1115
ardon	-1116
FALSTAFF	-1117
omet	-1118
pect	-1119
▁just	-1120
ms	-1121
imes	-1122
▁disc	-1123
ARG	-1124
ETH	-1125
ants	-1126
▁sure	-1127
▁virt	-1128
Shall	-1129
▁thank	-1130
cious	-1131
▁villain	-1132
▁bed	-1133
IOL	-1134
▁power	-1135
day	-1136
ury	-1137
▁II	-1138
▁state	-1139
▁within	-1140
mb	-1141
▁i	-1142
▁Grace	-1143
▁val	-1144
▁RI	-1145
▁car	-1146
▁law	-1147
▁sent	-1148
Do	-1149
ches	-1150
No	-1151
▁news	-1152
▁wind	-1153
▁makes	-1154
▁youth	-1155
▁In	-1156
fort	-1157
ning	-1158
▁shame	-1159
lou	-1160
UTUS	-1161
▁gold	-1162
eal	-1163
▁Master	-1164
ORL	-1165
ute	-1166
▁break	-1167
▁hither	-1168
Now	-1169
Have	-1170
vere	-1171
▁things	-1172
▁bus	-1173
▁far	-1174
▁mis	-1175
ICE	-1176
und	-1177
▁Queen	-1178
bs	-1179
AGE	-1180
▁Your	-1181
aj	-1182
aud	-1183
ange	-1184
▁bea	-1185
▁fight	-1186
AG	-1187
RIN	-1188
use	-1189
▁bu	-1190
ANIO	-1191
ceive	-1192
▁England	-1193
▁ere	-1194
▁wel	-1195
ade	-1196
ouch	-1197
▁came	-1198
▁happ	-1199
MAN	-1200
ars	-1201
yal	-1202
ieve	-1203
ild	-1204
▁gr	-1205
▁ban	-1206
ERM	-1207
THERS	-1208
ERVANT	-1209
BRUTUS	-1210
pose	-1211
▁does	-1212
▁help	-1213
▁maid	-1214
▁shalt	-1215
▁since	-1216
ctor	-1217
ions	-1218
▁Not	-1219
▁She	-1220
▁adv	-1221
▁gentleman	-1222
dd	-1223
▁ye	-1224
▁grace	-1225
▁fellow	-1226
Nor	-1227
Then	-1228
▁ill	-1229
▁land	-1230
gether	-1231
▁RICHARD	-1232
.)	-1233
Pr	-1234
ours	-1235
▁rather	-1236
vers	-1237
▁gods	-1238
ener	-1239
▁sec	-1240
▁body	-1241
From	-1242
▁John	-1243
▁Prince	-1244
▁enough	-1245
Thy	-1246
ork	-1247
Come	-1248
Will	-1249
▁sound	-1250
OTHELLO	-1251
▁devil	-1252
▁without	-1253
pl	-1254
ATH	-1255
MON	-1256
IAGO	-1257
▁enem	-1258
pen	-1259
ousin	-1260
▁attend	-1261
eed	-1262
els	-1263
▁Ed	-1264
ates	-1265
▁hang	-1266
▁inst	-1267
▁last	-1268
▁tears	-1269
Our	-1270
▁sun	-1271
ROSAL	-1272
ajesty	-1273
▁honest	-1274
ner	-1275
▁bo	-1276
She	-1277
▁gre	-1278
▁lay	-1279
ORT	-1280
Yet	-1281
cle	-1282
com	-1283
ues	-1284
ject	-1285
▁care	-1286
een	-1287
ides	-1288
▁welcome	-1289
MAR	-1290
ily	-1291
▁At	-1292
▁Re	-1293
CASS	-1294
▁pers	-1295
▁seen	-1296
▁fault	-1297
ger	-1298
▁CH	-1299
ween	-1300
▁send	-1301
▁stri	-1302
hold	-1303
iers	-1304
urther	-1305
▁grief	-1306
ten	-1307
uff	-1308
ains	-1309
ents	-1310
▁Will	-1311
AU	-1312
ike	-1313
▁saw	-1314
enter	-1315
▁command	-1316
YR	-1317
▁near	-1318
▁swear	-1319
Al	-1320
DEM	-1321
LIAM	-1322
▁high	-1323
▁kiss	-1324
▁pati	-1325
ILLIAM	-1326
▁means	-1327
▁breath	-1328
▁mistress	-1329
LIN	-1330
OLK	-1331
now	-1332
CLOWN	-1333
▁fire	-1334
▁less	-1335
▁strong	-1336
▁yourself	-1337
ACT	-1338
ats	-1339
OUR	-1340
▁why	-1341
▁spirit	-1342
▁fortune	-1343
Why	-1344
▁As	-1345
▁strange	-1346
night	-1347
ANTONY	-1348
iz	-1349
ECT	-1350
▁They	-1351
Un	-1352
▁joy	-1353
▁pal	-1354
▁When	-1355
COM	-1356
hes	-1357
ATR	-1358
ads	-1359
usic	-1360
▁wish	-1361
▁remem	-1362
▁weep	-1363
tw	-1364
ONG	-1365
PRIN	-1366
PROV	-1367
peak	-1368
MEN	-1369
let	-1370
INIUS	-1371
anger	-1372
▁grow	-1373
▁lost	-1374
An	-1375
ran	-1376
gainst	-1377
▁yours	-1378
▁return	-1379
by	-1380
Hath	-1381
WICK	-1382
▁sea	-1383
▁spo	-1384
▁only	-1385
▁somet	-1386
aw	-1387
LEOP	-1388
▁run	-1389
ATRA	-1390
oney	-1391
▁sick	-1392
ARWICK	-1393
LEOPATRA	-1394
ift	-1395
rink	-1396
▁arms	-1397
▁prove	-1398
▁through	-1399
GH	-1400
alth	-1401
▁PRO	-1402
▁get	-1403
▁horse	-1404
Here	-1405
▁dru	-1406
▁need	-1407
▁pardon	-1408
iet	-1409
▁stra	-1410
AS	-1411
mer	-1412
▁Her	-1413
dom	-1414
sed	-1415
▁country	-1416
OLI	-1417
ken	-1418
ithe	-1419
outh	-1420
▁free	-1421
▁prom	-1422
▁talk	-1423
VIA	-1424
ople	-1425
with	-1426
▁den	-1427
morrow	-1428
PLE	-1429
▁Nor	-1430
▁With	-1431
▁royal	-1432
▁thoughts	-1433
uch	-1434
ster	-1435
ENTLE	-1436
▁hard	-1437
▁left	-1438
▁itself	-1439
GER	-1440
▁vo	-1441
like	-1442
▁cousin	-1443
▁sorrow	-1444
▁together	-1445
DER	-1446
enry	-1447
▁Cass	-1448
▁want	-1449
SE	-1450
rest	-1451
ISS	-1452
erv	-1453
YRAC	-1454
hard	-1455
rench	-1456
▁SYRAC	-1457
▁SYRACUSE	-1458
▁business	-1459
op	-1460
▁fly	-1461
▁born	-1462
▁supp	-1463
▁found	-1464
ABLE	-1465
▁York	-1466
▁alone	-1467
ross	-1468
▁jud	-1469
▁fore	-1470
▁foul	-1471
▁sing	-1472
IND	-1473
▁tem	-1474
▁half	-1475
▁says	-1476
▁seek	-1477
▁wilt	-1478
▁sight	-1479
ESSEN	-1480
▁read	-1481
av	-1482
▁cry	-1483
▁lies	-1484
▁gener	-1485
ESSENGER	-1486
oe	-1487
ROM	-1488
BAST	-1489
form	-1490
onder	-1491
▁draw	-1492
▁late	-1493
▁service	-1494
▁bloody	-1495
arry	-1496
▁dist	-1497
▁told	-1498
▁proud	-1499
▁beauty	-1500
▁comfort	-1501
ls	-1502
▁BE	-1503
▁aw	-1504
▁gave	-1505
ithee	-1506
▁TIM	-1507
▁wear	-1508
▁Antony	-1509
ITH	-1510
▁ca	-1511
most	-1512
▁met	-1513
▁fare	-1514
▁doubt	-1515
▁sister	-1516
TA	-1517
gs	-1518
PER	-1519
lish	-1520
ures	-1521
▁THE	-1522
▁SCENE	-1523
▁reven	-1524
Ed	-1525
RS	-1526
▁bro	-1527
▁prison	-1528
EMB	-1529
▁Lu	-1530
RESS	-1531
▁sit	-1532
Whose	-1533
▁exce	-1534
▁same	-1535
▁self	-1536
▁people	-1537
▁purpose	-1538
MAC	-1539
itor	-1540
TIMON	-1541
▁work	-1542
cester	-1543
urse	-1544
▁bri	-1545
▁cra	-1546
▁tend	-1547
▁field	-1548
rs	-1549
ial	-1550
▁All	-1551
ounds	-1552
▁Fare	-1553
▁oath	-1554
▁pity	-1555
up	-1556
Not	-1557
▁Tro	-1558
▁def	-1559
▁hate	-1560
▁desire	-1561
All	-1562
Her	-1563
IMO	-1564
▁dep	-1565
ub	-1566
BETH	-1567
UTEN	-1568
▁cold	-1569
▁suff	-1570
▁Henry	-1571
TION	-1572
Are	-1573
WARD	-1574
oose	-1575
▁sil	-1576
▁quick	-1577
CLEOPATRA	-1578
eon	-1579
OLUS	-1580
TIPH	-1581
TIPHOLUS	-1582
xt	-1583
MRS	-1584
ater	-1585
cius	-1586
▁fit	-1587
▁lear	-1588
▁knows	-1589
Cl	-1590
▁Ar	-1591
YORK	-1592
▁sad	-1593
▁disp	-1594
ROSALIND	-1595
oman	-1596
▁air	-1597
▁dam	-1598
▁cond	-1599
▁lose	-1600
Prince	-1601
ENTLEMAN	-1602
▁SERVANT	-1603
▁beseech	-1604
AK	-1605
HIP	-1606
ham	-1607
▁aff	-1608
▁win	-1609
▁soon	-1610
▁times	-1611
cess	-1612
▁int	-1613
▁High	-1614
▁looks	-1615
▁WILLIAM	-1616
XT	-1617
▁"	-1618
Lear	-1619
ERSON	-1620
▁dream	-1621
Sh	-1622
no	-1623
▁SO	-1624
ARUS	-1625
SERV	-1626
▁MAY	-1627
▁age	-1628
▁dare	-1629
▁foot	-1630
HN	-1631
OHN	-1632
▁sk	-1633
ELEN	-1634
bour	-1635
ling	-1636
▁forg	-1637
▁company	-1638
aim	-1639
oor	-1640
▁vi	-1641
vent	-1642
▁French	-1643
▁danger	-1644
▁Majesty	-1645
eter	-1646
▁sen	-1647
ments	-1648
▁uncle	-1649
.,	-1650
GR	-1651
gg	-1652
urd	-1653
▁RE	-1654
▁wa	-1655
ices	-1656
▁del	-1657
▁coun	-1658
▁trust	-1659
▁OTHERS	-1660
▁charge	-1661
▁common	-1662
LI	-1663
ABEL	-1664
▁sin	-1665
▁days	-1666
rew	-1667
ible	-1668
▁ter	-1669
▁und	-1670
cause	-1671
▁each	-1672
▁drink	-1673
az	-1674
COR	-1675
HAM	-1676
ted	-1677
▁LI	-1678
THIS	-1679
ives	-1680
▁mark	-1681
SIR	-1682
aff	-1683
BERG	-1684
wick	-1685
▁inf	-1686
▁loves	-1687
▁music	-1688
▁prince	-1689
▁general	-1690
OT	-1691
TIZ	-1692
Even	-1693
TIZEN	-1694
▁Give	-1695
▁LONG	-1696
▁lives	-1697
▁serve	-1698
▁worthy	-1699
On	-1700
King	-1701
▁ask	-1702
▁cho	-1703
ROMIO	-1704
UTION	-1705
▁PAGE	-1706
▁Highness	-1707
LEN	-1708
▁ob	-1709
TEXT	-1710
erve	-1711
utus	-1712
▁fav	-1713
▁sum	-1714
aking	-1715
▁wise	-1716
▁grave	-1717
▁queen	-1718
WARWICK	-1719
▁believe	-1720
▁gracious	-1721
ARE	-1722
ARM	-1723
ARY	-1724
▁War	-1725
ABELLA	-1726
▁between	-1727
ief	-1728
▁happy	-1729
▁US	-1730
adam	-1731
ford	-1732
ting	-1733
▁COL	-1734
ichard	-1735
loucester	-1736
▁GENTLEMAN	-1737
ICT	-1738
gue	-1739
▁AS	-1740
Till	-1741
▁bat	-1742
▁TIME	-1743
▁holy	-1744
PERSON	-1745
▁known	-1746
▁years	-1747
▁yield	-1748
▁thyself	-1749
.>	-1750
0-	-1751
1)	-1752
2)	-1753
At	-1754
.>>	-1755
BIT	-1756
CLU	-1757
GHT	-1758
NLY	-1759
OIS	-1760
YRI	-1761
hal	-1762
you	-1763
▁IL	-1764
1993	-1765
AKES	-1766
ENED	-1767
IDED	-1768
JECT	-1769
LEGE	-1770
LOAD	-1771
ORKS	-1772
ORLD	-1773
WITH	-1774
▁(1)	-1775
▁(2)	-1776
▁199	-1777
▁ANY	-1778
▁INC	-1779
▁NOT	-1780
▁USE	-1781
▁bir	-1782
▁par	-1783
ARGES	-1784
BITED	-1785
BRARY	-1786
CHINE	-1787
ENIUS	-1788
PEARE	-1789
PLETE	-1790
PROHI	-1791
▁DOWN	-1792
▁MEMB	-1793
▁ONLY	-1794
▁PERM	-1795
▁READ	-1796
▁SUCH	-1797
▁THAT	-1798
▁USED	-1799
▁VERS	-1800
▁YOUR	-1801
▁writ	-1802
0-1993	-1803
CLUDES	-1804
ERSHIP	-1805
ICTINE	-1806
ISSION	-1807
LINOIS	-1808
SHAKES	-1809
YRIGHT	-1810
▁BENED	-1811
▁ETEXT	-1812
▁GUTEN	-1813
▁WORKS	-1814
▁WORLD	-1815
DISTRIB	-1816
SERVICE	-1817
PERSONAL	-1818
PROVIDED	-1819
▁CHARGES	-1820
▁COLLEGE	-1821
▁LIBRARY	-1822
▁MACHINE	-1823
▁PROJECT	-1824
▁VERSION	-1825
▁further	-1826
MERCIALLY	-1827
▁COMPLETE	-1828
▁DOWNLOAD	-1829
▁ILLINOIS	-1830
▁INCLUDES	-1831
▁READABLE	-1832
ANTIPHOLUS	-1833
ELECTRONIC	-1834
PROHIBITED	-1835
▁1990-1993	-1836
▁COPYRIGHT	-1837
▁GUTENBERG	-1838
DISTRIBUTED	-1839
SHAKESPEARE	-1840
▁COMMERCIAL	-1841
▁ELECTRONIC	-1842
▁MEMBERSHIP	-1843
▁PERMISSION	-1844
COMMERCIALLY	-1845
▁BENEDICTINE	-1846
▁DISTRIBUTED	-1847
▁DISTRIBUTION	-1848
ANO	-1849
estion	-1850
▁bound	-1851
▁brave	-1852
▁marry	-1853
fection	-1854
▁others	-1855
▁warrant	-1856
ship	-1857
▁brought	-1858
▁content	-1859
Go	-1860
pr	-1861
rem	-1862
ever	-1863
unes	-1864
TRUCH	-1865
▁KING	-1866
▁hell	-1867
UCKING	-1868
▁given	-1869
TRUCHIO	-1870
UCKINGHAM	-1871
ADY	-1872
gar	-1873
PAND	-1874
▁bar	-1875
oward	-1876
▁Pray	-1877
▁deep	-1878
▁certain	-1879
Did	-1880
ONA	-1881
PAR	-1882
UFF	-1883
ANUS	-1884
▁cut	-1885
▁min	-1886
UFFOLK	-1887
▁money	-1888
▁pleas	-1889
IOLANUS	-1890
▁Edward	-1891
▁virtue	-1892
▁Warwick	-1893
ery	-1894
▁ac	-1895
▁Yes	-1896
▁rec	-1897
▁past	-1898
BUR	-1899
UNT	-1900
kes	-1901
KATH	-1902
More	-1903
enty	-1904
▁sovere	-1905
▁pleasure	-1906
FORD	-1907
iant	-1908
▁act	-1909
▁div	-1910
TIT	-1911
ush	-1912
▁pay	-1913
▁poss	-1914
▁sake	-1915
▁save	-1916
▁side	-1917
▁point	-1918
▁report	-1919
Fal	-1920
lly	-1921
▁CI	-1922
▁His	-1923
HELEN	-1924
▁beat	-1925
▁lead	-1926
▁Marry	-1927
▁while	-1928
▁hearts	-1929
▁CITIZEN	-1930
ek	-1931
OBY	-1932
VAL	-1933
VOL	-1934
OWNE	-1935
▁cor	-1936
▁TOBY	-1937
▁rich	-1938
Though	-1939
▁praise	-1940
TES	-1941
oof	-1942
▁bold	-1943
▁person	-1944
▁English	-1945
ots	-1946
ESAR	-1947
oint	-1948
▁JOHN	-1949
▁mock	-1950
▁knave	-1951
▁touch	-1952
▁Gloucester	-1953
Rom	-1954
anc	-1955
iece	-1956
▁dev	-1957
▁inc	-1958
▁ten	-1959
DEMONA	-1960
ENTINE	-1961
▁learn	-1962
▁mouth	-1963
▁Brutus	-1964
▁Richard	-1965
DESDEMONA	-1966
Like	-1967
▁ste	-1968
▁sur	-1969
Would	-1970
▁requ	-1971
DROMIO	-1972
▁ground	-1973
BEL	-1974
IDA	-1975
LOW	-1976
inks	-1977
▁col	-1978
▁est	-1979
▁lov	-1980
stand	-1981
▁Look	-1982
▁morn	-1983
▁heavy	-1984
RESSIDA	-1985
MENENIUS	-1986
CAL	-1987
RAN	-1988
alt	-1989
Some	-1990
▁wis	-1991
thing	-1992
▁gall	-1993
▁suit	-1994
▁mercy	-1995
▁soldiers	-1996
!'	-1997
edi	-1998
esh	-1999
hil	-2000
TEUS	-2001
▁gar	-2002
ALLOW	-2003
OLLES	-2004
▁sons	-2005
▁enemy	-2006
BEROWNE	-2007
▁tender	-2008
▁confess	-2009
OLD	-2010
cha	-2011
ior	-2012
ceed	-2013
▁four	-2014
▁sign	-2015
▁knight	-2016
PETRUCHIO	-2017
amp	-2018
ries	-2019
▁pen	-2020
▁goes	-2021
▁Madam	-2022
▁black	-2023
ESUS	-2024
that	-2025
▁bos	-2026
▁eat	-2027
PHESUS	-2028
▁women	-2029
▁farewell	-2030
IER	-2031
Was	-2032
ask	-2033
ILUS	-2034
ires	-2035
▁woo	-2036
▁prof	-2037
ROILUS	-2038
▁watch	-2039
BUS	-2040
IRD	-2041
▁vis	-2042
THIRD	-2043
▁fast	-2044
▁ring	-2045
ourish	-2046
▁merry	-2047
▁subject	-2048
ec	-2049
CUS	-2050
vel	-2051
ally	-2052
ated	-2053
fter	-2054
▁cast	-2055
▁knew	-2056
▁bless	-2057
▁course	-2058
▁patience	-2059
.-	-2060
▁hot	-2061
ready	-2062
▁burn	-2063
▁bosom	-2064
▁short	-2065
▁themselves	-2066
Tw	-2067
sue	-2068
edro	-2069
▁dro	-2070
▁next	-2071
▁open	-2072
▁change	-2073
VALENTINE	-2074
irm	-2075
uous	-2076
▁quar	-2077
▁voice	-2078
PANDARUS	-2079
▁EPHESUS	-2080
Therefore	-2081
oss	-2082
▁Yet	-2083
▁exp	-2084
ORTIA	-2085
▁base	-2086
▁desp	-2087
▁town	-2088
▁Shall	-2089
CRESSIDA	-2090
!-	-2091
YM	-2092
gel	-2093
ixt	-2094
ote	-2095
over	-2096
rice	-2097
▁dog	-2098
▁enter	-2099
▁guard	-2100
ethinks	-2101
▁entreat	-2102
ANS	-2103
ges	-2104
ray	-2105
▁ord	-2106
▁Have	-2107
▁weak	-2108
▁trump	-2109
▁banish	-2110
▁palace	-2111
CORIOLANUS	-2112
▁sovereign	-2113
AP	-2114
rah	-2115
▁Or	-2116
Were	-2117
weet	-2118
▁att	-2119
▁lad	-2120
▁deed	-2121
▁ears	-2122
▁took	-2123
▁speed	-2124
▁worse	-2125
▁appear	-2126
▁toward	-2127
▁neither	-2128
▁straight	-2129
ENCE	-2130
aste	-2131
▁hair	-2132
▁haste	-2133
urt	-2134
ague	-2135
atis	-2136
ANTONIO	-2137
PROTEUS	-2138
▁behold	-2139
▁valiant	-2140
,'	-2141
bly	-2142
hed	-2143
IANA	-2144
ones	-2145
▁exc	-2146
ortal	-2147
▁prop	-2148
▁wall	-2149
▁wret	-2150
HELENA	-2151
MACBETH	-2152
▁remember	-2153
▁gentlemen	-2154
ILIA	-2155
▁prov	-2156
▁walk	-2157
▁plain	-2158
▁servant	-2159
so	-2160
▁Ch	-2161
▁ta	-2162
ROKE	-2163
▁didst	-2164
▁water	-2165
▁question	-2166
AST	-2167
▁III	-2168
▁woe	-2169
▁duty	-2170
PRINCE	-2171
▁liege	-2172
▁counsel	-2173
▁something	-2174
GEN	-2175
ully	-2176
were	-2177
ARBUS	-2178
ISTOL	-2179
▁damn	-2180
Give	-2181
rows	-2182
▁oft	-2183
▁unt	-2184
aught	-2185
ities	-2186
▁canst	-2187
PAROLLES	-2188
BUCKINGHAM	-2189
JA	-2190
sh	-2191
Can	-2192
▁Ha	-2193
rous	-2194
▁bad	-2195
▁emb	-2196
ptain	-2197
riage	-2198
▁feel	-2199
SUFFOLK	-2200
▁wonder	-2201
▁soldier	-2202
▁traitor	-2203
CO	-2204
NOR	-2205
BURY	-2206
ENOB	-2207
feit	-2208
▁opp	-2209
▁note	-2210
▁appro	-2211
CASSIUS	-2212
▁coming	-2213
ENOBARBUS	-2214
FL	-2215
UE	-2216
HOST	-2217
cept	-2218
▁whe	-2219
ONTES	-2220
▁door	-2221
▁glad	-2222
▁harm	-2223
CAESAR	-2224
▁needs	-2225
SHALLOW	-2226
▁Hector	-2227
▁twenty	-2228
▁justice	-2229
FE	-2230
cks	-2231
▁ED	-2232
ANDO	-2233
each	-2234
east	-2235
mber	-2236
▁Thy	-2237
▁city	-2238
▁EDWARD	-2239
ip	-2240
BOT	-2241
thy	-2242
▁Em	-2243
▁cr	-2244
IOLA	-2245
cent	-2246
hood	-2247
ines	-2248
▁cle	-2249
ondon	-2250
umber	-2251
▁Lady	-2252
▁lack	-2253
Before	-2254
▁Romeo	-2255
▁flesh	-2256
▁speech	-2257
bb	-2258
ona	-2259
Bene	-2260
GELO	-2261
LADY	-2262
dden	-2263
▁SEN	-2264
TITUS	-2265
▁deli	-2266
▁Speak	-2267
▁scorn	-2268
▁spoke	-2269
▁sport	-2270
▁offend	-2271
▁prithee	-2272
TEN	-2273
asc	-2274
olk	-2275
▁gro	-2276
eness	-2277
PORTIA	-2278
ICINIUS	-2279
▁Cassio	-2280
▁almost	-2281
▁coward	-2282
▁streng	-2283
▁already	-2284
▁revenge	-2285
▁Farewell	-2286
my	-2287
rel	-2288
vol	-2289
cher	-2290
Pedro	-2291
ament	-2292
▁move	-2293
▁hours	-2294
TROILUS	-2295
ched	-2296
▁cap	-2297
▁kne	-2298
▁Alas	-2299
MESSENGER	-2300
bit	-2301
con	-2302
PERO	-2303
▁fra	-2304
SPERO	-2305
audio	-2306
▁grant	-2307
▁suffer	-2308
▁married	-2309
umb	-2310
▁DU	-2311
Kent	-2312
ught	-2313
▁lips	-2314
▁close	-2315
▁pluck	-2316
▁favour	-2317
▁withal	-2318
▁presently	-2319
▁U	-2320
ERD	-2321
May	-2322
▁Sc	-2323
▁ag	-2324
ashi	-2325
bert	-2326
rist	-2327
▁pow	-2328
▁red	-2329
ARGAR	-2330
▁moon	-2331
LUCIUS	-2332
▁Peace	-2333
▁laugh	-2334
▁stands	-2335
ISABELLA	-2336
▁Mistress	-2337
▁du	-2338
Leon	-2339
UNCE	-2340
ites	-2341
rust	-2342
▁bond	-2343
▁book	-2344
▁dark	-2345
▁forb	-2346
▁heir	-2347
▁pret	-2348
▁stir	-2349
OLIVIA	-2350
ainted	-2351
▁creat	-2352
▁action	-2353
Jul	-2354
alm	-2355
oop	-2356
etch	-2357
▁ind	-2358
▁mot	-2359
▁Away	-2360
▁deny	-2361
▁loss	-2362
▁wars	-2363
▁become	-2364
▁heavens	-2365
MAL	-2366
▁pu	-2367
Look	-2368
ends	-2369
rive	-2370
▁add	-2371
▁low	-2372
▁grie	-2373
▁jest	-2374
▁prep	-2375
▁scar	-2376
▁trou	-2377
▁vile	-2378
PISTOL	-2379
Within	-2380
cience	-2381
▁Would	-2382
▁beast	-2383
▁const	-2384
▁sworn	-2385
▁white	-2386
▁Claudio	-2387
▁morning	-2388
▁respect	-2389
▁strength	-2390
nk	-2391
Beat	-2392
TRAM	-2393
ised	-2394
▁Say	-2395
Claud	-2396
Since	-2397
▁hide	-2398
Should	-2399
LEONTES	-2400
▁battle	-2401
ash	-2402
PEED	-2403
empt	-2404
These	-2405
llent	-2406
▁pale	-2407
▁slain	-2408
▁slave	-2409
ARGARET	-2410
▁sudden	-2411
EPH	-2412
REY	-2413
ird	-2414
mit	-2415
▁FRAN	-2416
▁wild	-2417
▁feast	-2418
Against	-2419
AIN	-2420
oin	-2421
ses	-2422
▁id	-2423
ELIA	-2424
OLPH	-2425
mand	-2426
▁Hel	-2427
▁mod	-2428
VIOLA	-2429
▁Troy	-2430
▁form	-2431
▁inter	-2432
▁sense	-2433
▁truly	-2434
ARDOLPH	-2435
▁office	-2436
▁speaks	-2437
eem	-2438
pes	-2439
aken	-2440
ceiv	-2441
roke	-2442
▁ext	-2443
▁pap	-2444
▁reg	-2445
gment	-2446
ution	-2447
▁DUKE	-2448
▁mess	-2449
▁kingdom	-2450
CON	-2451
bey	-2452
▁em	-2453
▁ty	-2454
hind	-2455
ENTIO	-2456
▁sever	-2457
ORLANDO	-2458
▁understand	-2459
Com	-2460
rer	-2461
▁IV	-2462
OMPE	-2463
▁fat	-2464
▁pit	-2465
▁disg	-2466
▁priv	-2467
▁ready	-2468
BASTIAN	-2469
▁thanks	-2470
▁letters	-2471
BY	-2472
EE	-2473
Wh	-2474
cri	-2475
ron	-2476
ATOR	-2477
ULIA	-2478
▁abs	-2479
OMPEY	-2480
▁dire	-2481
▁rage	-2482
IMOGEN	-2483
OLDIER	-2484
▁begin	-2485
▁force	-2486
▁mount	-2487
▁having	-2488
SICINIUS	-2489
ler	-2490
▁Of	-2491
▁hu	-2492
Glou	-2493
arum	-2494
▁Our	-2495
▁got	-2496
SPEED	-2497
atisf	-2498
ffect	-2499
▁dish	-2500
ANGELO	-2501
KATHER	-2502
▁instru	-2503
▁chamber	-2504
▁lordship	-2505
ETR	-2506
Hor	-2507
Good	-2508
your	-2509
▁Are	-2510
▁bit	-2511
▁din	-2512
▁mal	-2513
▁Most	-2514
▁flow	-2515
ETRIUS	-2516
antage	-2517
ashion	-2518
asters	-2519
undred	-2520
▁above	-2521
▁living	-2522
▁loving	-2523
PROSPERO	-2524
▁deliver	-2525
▁spirits	-2526
▁witness	-2527
▁children	-2528
NE	-2529
ADO	-2530
EST	-2531
als	-2532
ern	-2533
rey	-2534
▁ve	-2535
ench	-2536
▁Did	-2537
▁ang	-2538
▁fam	-2539
Their	-2540
▁often	-2541
BOY	-2542
raw	-2543
have	-2544
will	-2545
▁sho	-2546
hilst	-2547
▁FORD	-2548
▁sigh	-2549
▁soft	-2550
▁deeds	-2551
▁steal	-2552
▁FRANCE	-2553
▁strike	-2554
One	-2555
ieu	-2556
riar	-2557
▁Mac	-2558
▁lim	-2559
▁reb	-2560
▁stru	-2561
LAUNCE	-2562
ations	-2563
ortune	-2564
▁mortal	-2565
Sc	-2566
FEU	-2567
Had	-2568
ZAB	-2569
▁ba	-2570
CESS	-2571
INGB	-2572
VIUS	-2573
aris	-2574
ying	-2575
▁Can	-2576
▁rel	-2577
▁tit	-2578
▁case	-2579
▁fill	-2580
▁five	-2581
ARENCE	-2582
OLINGB	-2583
ZABETH	-2584
astard	-2585
▁dread	-2586
▁whole	-2587
▁chance	-2588
▁either	-2589
OLINGBROKE	-2590
▁conscience	-2591
br	-2592
gl	-2593
chan	-2594
imon	-2595
ited	-2596
▁ELI	-2597
▁Jul	-2598
LUCIO	-2599
UNTESS	-2600
▁wound	-2601
▁morrow	-2602
▁marriage	-2603
▁ELIZABETH	-2604
AY	-2605
DIO	-2606
ENS	-2607
idd	-2608
PAGE	-2609
ging	-2610
▁sim	-2611
▁mist	-2612
CASSIO	-2613
othing	-2614
▁These	-2615
▁beard	-2616
▁resol	-2617
▁passion	-2618
sp	-2619
SIL	-2620
asy	-2621
ram	-2622
urs	-2623
fere	-2624
resh	-2625
▁Ham	-2626
ANTUS	-2627
ardin	-2628
claim	-2629
inces	-2630
under	-2631
▁fing	-2632
EMILIA	-2633
ignior	-2634
▁cheer	-2635
EMANTUS	-2636
▁behind	-2637
▁breast	-2638
▁second	-2639
▁enemies	-2640
▁Therefore	-2641
ny	-2642
ALL	-2643
ATI	-2644
▁op	-2645
Make	-2646
enge	-2647
more	-2648
umph	-2649
▁ran	-2650
CELIA	-2651
▁exec	-2652
▁lust	-2653
▁cross	-2654
▁issue	-2655
▁poison	-2656
▁wouldst	-2657
arl	-2658
ety	-2659
lex	-2660
AGUE	-2661
Must	-2662
ancy	-2663
arch	-2664
vern	-2665
▁May	-2666
▁ble	-2667
▁obs	-2668
JULIA	-2669
ument	-2670
▁chur	-2671
▁shad	-2672
▁gives	-2673
▁effect	-2674
▁treason	-2675
▁ut	-2676
LAND	-2677
ider	-2678
▁MUR	-2679
▁Tru	-2680
peror	-2681
▁gift	-2682
▁host	-2683
▁offer	-2684
▁Christ	-2685
▁Hamlet	-2686
▁mighty	-2687
▁hundred	-2688
▁ourselves	-2689
alb	-2690
emn	-2691
ils	-2692
▁De	-2693
▁Fl	-2694
▁Pl	-2695
VANS	-2696
ural	-2697
▁Pom	-2698
▁shi	-2699
YMBEL	-2700
force	-2701
▁acqu	-2702
▁lion	-2703
▁post	-2704
▁Count	-2705
▁Sweet	-2706
▁along	-2707
▁souls	-2708
YMBELINE	-2709
▁fortunes	-2710
▁affection	-2711
AV	-2712
HUM	-2713
Hot	-2714
oly	-2715
BASS	-2716
bury	-2717
ises	-2718
▁Per	-2719
▁Pro	-2720
▁Kate	-2721
▁Tell	-2722
▁Roman	-2723
▁heads	-2724
▁revere	-2725
Con	-2726
ONE	-2727
him	-2728
Take	-2729
aith	-2730
leep	-2731
ners	-2732
▁cru	-2733
eding	-2734
right	-2735
▁Than	-2736
▁safe	-2737
▁tale	-2738
elcome	-2739
▁kings	-2740
▁parts	-2741
▁small	-2742
▁worst	-2743
BERTRAM	-2744
▁health	-2745
▁pretty	-2746
▁satisf	-2747
▁secret	-2748
PRINCESS	-2749
▁fashion	-2750
).	-2751
set	-2752
▁bow	-2753
fully	-2754
▁Take	-2755
POMPEY	-2756
▁Harry	-2757
▁Which	-2758
▁noise	-2759
▁paper	-2760
▁pride	-2761
▁write	-2762
▁forget	-2763
▁longer	-2764
▁worship	-2765
Qu	-2766
su	-2767
INA	-2768
anch	-2769
aunt	-2770
twas	-2771
▁mir	-2772
▁vow	-2773
▁tent	-2774
ARMADO	-2775
ealous	-2776
▁conqu	-2777
▁fetch	-2778
▁seems	-2779
BASTARD	-2780
▁choose	-2781
COUNTESS	-2782
APEMANTUS	-2783
eep	-2784
▁Ah	-2785
▁er	-2786
RIAN	-2787
ages	-2788
cted	-2789
kind	-2790
▁Fal	-2791
▁buy	-2792
▁ign	-2793
▁inv	-2794
▁occ	-2795
▁hurt	-2796
▁murd	-2797
OSTARD	-2798
▁bears	-2799
▁gates	-2800
▁SENATOR	-2801
▁SOLDIER	-2802
▁patient	-2803
▁possess	-2804
▁presence	-2805
ago	-2806
iew	-2807
oke	-2808
DUCH	-2809
aves	-2810
▁arg	-2811
staff	-2812
▁died	-2813
▁birth	-2814
▁order	-2815
▁teach	-2816
DUCHESS	-2817
▁awhile	-2818
▁forgot	-2819
▁ladies	-2820
▁trouble	-2821
SEBASTIAN	-2822
▁MARGARET	-2823
SEY	-2824
ude	-2825
▁ap	-2826
▁sn	-2827
ITES	-2828
hens	-2829
▁Ros	-2830
LAFEU	-2831
ledge	-2832
ASTING	-2833
▁brief	-2834
▁drown	-2835
▁least	-2836
▁march	-2837
▁throw	-2838
▁dangerous	-2839
BOLINGBROKE	-2840
Edg	-2841
God	-2842
via	-2843
ilus	-2844
rupt	-2845
▁god	-2846
▁sor	-2847
ARDIN	-2848
ARINE	-2849
VOLIO	-2850
▁dull	-2851
▁stud	-2852
arence	-2853
▁Timon	-2854
ASTINGS	-2855
ardinal	-2856
▁Lucius	-2857
▁labour	-2858
▁rememb	-2859
▁consent	-2860
▁proceed	-2861
▁excellent	-2862
IFF	-2863
Out	-2864
Sir	-2865
eng	-2866
iff	-2867
ify	-2868
▁Sh	-2869
HUMUS	-2870
asion	-2871
▁fine	-2872
▁sole	-2873
▁succ	-2874
▁curse	-2875
▁fools	-2876
▁forsw	-2877
▁match	-2878
▁valour	-2879
OSTHUMUS	-2880
▁promise	-2881
▁receive	-2882
▁judgment	-2883
▁honourable	-2884
ca	-2885
LORD	-2886
THUM	-2887
born	-2888
nown	-2889
▁saf	-2890
▁tor	-2891
Nurse	-2892
ility	-2893
▁year	-2894
ISBURY	-2895
ORTENS	-2896
▁judge	-2897
BERLAND	-2898
▁wisdom	-2899
▁commend	-2900
▁foolish	-2901
▁virtuous	-2902
THUMBERLAND	-2903
ze	-2904
ACH	-2905
BAN	-2906
but	-2907
ual	-2908
wor	-2909
ILLO	-2910
Such	-2911
head	-2912
▁emp	-2913
▁wed	-2914
ellow	-2915
▁wood	-2916
though	-2917
▁Saint	-2918
▁offence	-2919
▁perceive	-2920
ax	-2921
CAM	-2922
min	-2923
LYSS	-2924
icul	-2925
iles	-2926
▁Cap	-2927
▁Des	-2928
▁Ind	-2929
▁Sil	-2930
▁won	-2931
Being	-2932
eaven	-2933
▁kept	-2934
▁qual	-2935
LYSSES	-2936
▁going	-2937
osition	-2938
▁faults	-2939
▁flatter	-2940
▁quarrel	-2941
OW	-2942
OLY	-2943
Pol	-2944
app	-2945
mon	-2946
pher	-2947
▁Tit	-2948
▁ver	-2949
OLSEY	-2950
ingly	-2951
twere	-2952
▁horn	-2953
▁viol	-2954
▁knock	-2955
▁depart	-2956
llo	-2957
pey	-2958
ume	-2959
uri	-2960
▁di	-2961
Thus	-2962
ales	-2963
king	-2964
▁MAR	-2965
albot	-2966
inion	-2967
▁among	-2968
▁fresh	-2969
▁neigh	-2970
▁shows	-2971
▁bitter	-2972
DEMETRIUS	-2973
THERSITES	-2974
▁anything	-2975
EEK	-2976
gin	-2977
host	-2978
▁See	-2979
CHEEK	-2980
comes	-2981
▁Page	-2982
▁shar	-2983
▁vain	-2984
▁went	-2985
ADRIAN	-2986
TRANIO	-2987
▁blind	-2988
▁troth	-2989
▁Signior	-2990
▁entertain	-2991
CK	-2992
Edm	-2993
PUC	-2994
YLO	-2995
ged	-2996
phe	-2997
▁Ad	-2998
ANNE	-2999
arge	-3000
ease	-3001
ered	-3002
▁amb	-3003
YLOCK	-3004
chief	-3005
▁Love	-3006
▁seal	-3007
▁view	-3008
▁wast	-3009
▁cruel	-3010
▁pains	-3011
▁round	-3012
▁shake	-3013
▁title	-3014
▁Talbot	-3015
▁humour	-3016
▁Emperor	-3017
▁fearful	-3018
▁quickly	-3019
▁Clarence	-3020
▁MESSENGER	-3021
ELL	-3022
Mar	-3023
ato	-3024
can	-3025
dge	-3026
eks	-3027
zen	-3028
▁ay	-3029
▁pi	-3030
ided	-3031
▁enc	-3032
ature	-3033
onour	-3034
Unless	-3035
▁angry	-3036
▁pract	-3037
▁quiet	-3038
▁taken	-3039
▁whore	-3040
▁summer	-3041
▁forward	-3042
▁jealous	-3043
Pro	-3044
VIR	-3045
cil	-3046
▁On	-3047
▁da	-3048
ames	-3049
hose	-3050
▁Yea	-3051
▁ele	-3052
▁nob	-3053
▁wid	-3054
CALUS	-3055
CLIFF	-3056
ILLES	-3057
▁Earl	-3058
▁Gree	-3059
▁anon	-3060
▁blow	-3061
▁fier	-3062
▁pain	-3063
▁prot	-3064
stance	-3065
▁takes	-3066
ESCALUS	-3067
ORTENSIO	-3068
▁bastard	-3069
AGUECHEEK	-3070
yb	-3071
ays	-3072
ror	-3073
HERM	-3074
airs	-3075
aret	-3076
onio	-3077
▁jew	-3078
▁sus	-3079
EVANS	-3080
essed	-3081
▁Thus	-3082
ucking	-3083
▁Helen	-3084
▁offic	-3085
▁sorry	-3086
▁Pompey	-3087
▁dinner	-3088
▁golden	-3089
MALVOLIO	-3090
▁herself	-3091
▁masters	-3092
NON	-3093
ley	-3094
MOTH	-3095
▁Jew	-3096
illes	-3097
itors	-3098
▁army	-3099
▁laid	-3100
▁sort	-3101
▁Faith	-3102
▁Stand	-3103
▁carry	-3104
▁proof	-3105
SERVANT	-3106
▁Cassius	-3107
▁measure	-3108
▁perform	-3109
CYMBELINE	-3110
▁Falstaff	-3111
See	-3112
oun	-3113
rac	-3114
vey	-3115
OUCH	-3116
read	-3117
urst	-3118
▁Cor	-3119
▁One	-3120
▁whi	-3121
ICKLY	-3122
STONE	-3123
TISTA	-3124
enger	-3125
garet	-3126
▁Char	-3127
▁evil	-3128
▁ours	-3129
▁star	-3130
▁calls	-3131
▁grand	-3132
▁green	-3133
▁shape	-3134
QUICKLY	-3135
▁intend	-3136
▁Fortune	-3137
▁counter	-3138
OUCHSTONE	-3139
▁Cardinal	-3140
▁GLOUCESTER	-3141
Fl	-3142
gy	-3143
mn	-3144
ov	-3145
MED	-3146
att	-3147
his	-3148
loy	-3149
Doth	-3150
ETER	-3151
Tell	-3152
Whom	-3153
beth	-3154
ilty	-3155
MEDES	-3156
ollow	-3157
▁Iago	-3158
▁Suff	-3159
▁drum	-3160
▁inno	-3161
▁alive	-3162
▁blame	-3163
▁concl	-3164
▁frown	-3165
▁sland	-3166
COSTARD	-3167
▁double	-3168
▁thence	-3169
KATHERINA	-3170
Bet	-3171
joy	-3172
phin	-3173
▁Ben	-3174
▁SIR	-3175
▁mut	-3176
▁try	-3177
ARIUS	-3178
Scene	-3179
▁Call	-3180
▁cred	-3181
▁feed	-3182
▁fled	-3183
▁temp	-3184
unning	-3185
▁brain	-3186
▁broke	-3187
▁glory	-3188
▁ignor	-3189
▁Gentle	-3190
▁prayers	-3191
MOR	-3192
UST	-3193
isp	-3194
FOLK	-3195
ding	-3196
ords	-3197
rain	-3198
rate	-3199
▁dec	-3200
▁Jove	-3201
▁Moor	-3202
▁dest	-3203
▁join	-3204
▁rasc	-3205
▁stop	-3206
▁wert	-3207
▁Paris	-3208
▁conce	-3209
▁stood	-3210
▁swift	-3211
▁walls	-3212
▁libert	-3213
▁plague	-3214
▁delight	-3215
▁instant	-3216
▁prisoner	-3217
ey	-3218
erc	-3219
ENES	-3220
iful	-3221
▁Com	-3222
▁LUC	-3223
▁MAC	-3224
▁inj	-3225
▁ins	-3226
▁sav	-3227
ALBOT	-3228
cient	-3229
ished	-3230
▁stor	-3231
▁wine	-3232
▁piece	-3233
▁purse	-3234
ULYSSES	-3235
▁beggar	-3236
▁manner	-3237
▁motion	-3238
▁wealth	-3239
CLARENCE	-3240
▁fellows	-3241
▁hearing	-3242
▁success	-3243
▁methinks	-3244
ISH	-3245
NIA	-3246
Say	-3247
mia	-3248
DUFF	-3249
gelo	-3250
ians	-3251
itiz	-3252
▁Ven	-3253
▁sch	-3254
BOYET	-3255
MARIA	-3256
▁obey	-3257
▁publ	-3258
▁drawn	-3259
▁hadst	-3260
▁month	-3261
ADRIANA	-3262
SHYLOCK	-3263
▁contin	-3264
▁demand	-3265
▁humble	-3266
▁scarce	-3267
▁Suffolk	-3268
▁Troilus	-3269
▁request	-3270
uckingham	-3271
EX	-3272
vo	-3273
ker	-3274
▁fi	-3275
IACH	-3276
SAND	-3277
mble	-3278
▁Val	-3279
▁cir	-3280
▁six	-3281
ERSET	-3282
icked	-3283
uthor	-3284
▁Hast	-3285
▁Some	-3286
▁bare	-3287
▁thro	-3288
ARMIAN	-3289
ATIANO	-3290
WOLSEY	-3291
▁breat	-3292
▁gross	-3293
IACHIMO	-3294
OMERSET	-3295
chilles	-3296
▁bestow	-3297
▁colour	-3298
▁street	-3299
▁struck	-3300
▁wounds	-3301
▁Antonio	-3302
▁Macbeth	-3303
▁Marcius	-3304
▁honesty	-3305
▁several	-3306
▁trumpet	-3307
▁Margaret	-3308
GON	-3309
Reg	-3310
edy	-3311
▁ur	-3312
sper	-3313
ters	-3314
▁Bel	-3315
▁cre	-3316
▁liv	-3317
broke	-3318
ISANIO	-3319
▁catch	-3320
▁folly	-3321
▁train	-3322
ference	-3323
▁Angelo	-3324
▁MURDER	-3325
▁bright	-3326
▁church	-3327
▁Captain	-3328
▁opinion	-3329
▁shepher	-3330
POSTHUMUS	-3331
UEL	-3332
ane	-3333
▁Po	-3334
ways	-3335
▁bot	-3336
▁eld	-3337
▁unf	-3338
CONST	-3339
Friar	-3340
usion	-3341
▁Brit	-3342
▁Mont	-3343
▁beha	-3344
▁held	-3345
▁pure	-3346
▁tear	-3347
▁wait	-3348
▁wits	-3349
CLOTEN	-3350
UELLEN	-3351
▁aside	-3352
▁chast	-3353
▁deare	-3354
▁sharp	-3355
▁greater	-3356
▁precious	-3357
SO	-3358
IEL	-3359
OLO	-3360
mbl	-3361
▁Ro	-3362
Into	-3363
ical	-3364
vell	-3365
▁leg	-3366
▁pet	-3367
▁ref	-3368
▁uns	-3369
▁Hear	-3370
▁Jack	-3371
▁gent	-3372
▁list	-3373
entine	-3374
ission	-3375
ounter	-3376
▁aught	-3377
▁bones	-3378
▁monst	-3379
▁rogue	-3380
▁trans	-3381
▁defend	-3382
▁blessed	-3383
▁deserve	-3384
▁thither	-3385
▁Buckingham	-3386
go	-3387
ADE	-3388
TON	-3389
iol	-3390
▁es	-3391
JAQU	-3392
John	-3393
Most	-3394
▁mid	-3395
ISHOP	-3396
Speak	-3397
orous	-3398
woman	-3399
▁From	-3400
▁Mark	-3401
▁boys	-3402
▁camp	-3403
▁lend	-3404
▁cheek	-3405
Because	-3406
ACHILLES	-3407
BASSANIO	-3408
ancaster	-3409
▁cunning	-3410
▁dispatch	-3411
▁wretched	-3412
TOUCHSTONE	-3413
▁condition	-3414
▁greatness	-3415
Ar	-3416
eg	-3417
IGO	-3418
INC	-3419
hys	-3420
ize	-3421
▁Bl	-3422
reed	-3423
▁Con	-3424
▁van	-3425
IDIUS	-3426
ident	-3427
lease	-3428
▁loud	-3429
▁mere	-3430
London	-3431
auphin	-3432
▁Rosal	-3433
▁borne	-3434
▁faire	-3435
▁obedi	-3436
▁taste	-3437
CAMILLO	-3438
▁Before	-3439
▁excuse	-3440
▁govern	-3441
▁priest	-3442
▁shadow	-3443
▁wicked	-3444
HASTINGS	-3445
▁because	-3446
▁Lancaster	-3447
▁wherefore	-3448
OC	-3449
Ben	-3450
UID	-3451
VER	-3452
afe	-3453
BERT	-3454
UMIO	-3455
ilia	-3456
▁mel	-3457
ERIUS	-3458
UTOLY	-3459
▁Hero	-3460
▁Upon	-3461
▁rain	-3462
▁rude	-3463
▁claim	-3464
▁fears	-3465
▁greet	-3466
▁third	-3467
itizens	-3468
▁forbid	-3469
▁goodly	-3470
▁import	-3471
▁safety	-3472
▁sirrah	-3473
UIDERIUS	-3474
UTOLYCUS	-3475
▁tongues	-3476
▁princely	-3477
▁knowledge	-3478
1.	-3479
ua	-3480
Nay	-3481
ARON	-3482
cend	-3483
vail	-3484
▁pol	-3485
ECTOR	-3486
ander	-3487
ronic	-3488
ustom	-3489
▁Leon	-3490
▁Stay	-3491
▁dies	-3492
▁drop	-3493
chance	-3494
icious	-3495
perate	-3496
▁clear	-3497
▁compl	-3498
▁drunk	-3499
▁heels	-3500
▁nurse	-3501
▁quite	-3502
▁rough	-3503
▁visit	-3504
▁widow	-3505
Without	-3506
▁author	-3507
▁endure	-3508
▁remain	-3509
▁wrongs	-3510
▁Dauphin	-3511
▁embrace	-3512
▁princes	-3513
HORTENSIO	-3514
▁MURDERER	-3515
▁yourselves	-3516
NORTHUMBERLAND	-3517
La	-3518
ts	-3519
cul	-3520
esy	-3521
ora	-3522
rim	-3523
son	-3524
▁ir	-3525
mong	-3526
wise	-3527
▁ben	-3528
▁equ	-3529
▁hor	-3530
▁mem	-3531
▁pun	-3532
Reads	-3533
after	-3534
ester	-3535
hysic	-3536
iance	-3537
▁bend	-3538
▁dism	-3539
▁fail	-3540
▁QUEEN	-3541
▁holds	-3542
▁large	-3543
▁smile	-3544
▁wrath	-3545
▁cheeks	-3546
▁forest	-3547
▁ancient	-3548
▁manners	-3549
▁private	-3550
Pl	-3551
Mer	-3552
olph	-3553
orge	-3554
ract	-3555
▁Som	-3556
▁deg	-3557
▁due	-3558
▁fig	-3559
▁fru	-3560
▁imm	-3561
▁owe	-3562
heart	-3563
▁JUST	-3564
▁corn	-3565
▁debt	-3566
▁foes	-3567
▁mour	-3568
▁weap	-3569
LENDER	-3570
▁weary	-3571
ancholy	-3572
ardolph	-3573
utation	-3574
▁Achilles	-3575
▁shepherd	-3576
▁Christian	-3577
▁advantage	-3578
2.	-3579
Ab	-3580
UL	-3581
BAP	-3582
Cap	-3583
cus	-3584
dem	-3585
eat	-3586
EMIO	-3587
LINA	-3588
Lest	-3589
THUR	-3590
acle	-3591
ARLES	-3592
edick	-3593
erset	-3594
▁Hark	-3595
▁deal	-3596
▁lest	-3597
▁mend	-3598
▁song	-3599
▁wash	-3600
AULINA	-3601
▁bount	-3602
▁glass	-3603
▁grows	-3604
▁revol	-3605
▁spend	-3606
▁terms	-3607
ARDINAL	-3608
▁Indeed	-3609
▁expect	-3610
▁former	-3611
▁necess	-3612
BAPTISTA	-3613
FLUELLEN	-3614
GRATIANO	-3615
▁Prithee	-3616
▁liberty	-3617
▁majesty	-3618
▁shouldst	-3619
'-	-3620
oes	-3621
pro	-3622
▁ce	-3623
AMEM	-3624
OLIX	-3625
Well	-3626
anio	-3627
idge	-3628
ocks	-3629
▁Bol	-3630
▁Cam	-3631
▁Was	-3632
ances	-3633
chant	-3634
irgin	-3635
▁brow	-3636
▁conj	-3637
▁heat	-3638
▁neck	-3639
▁usur	-3640
MARCUS	-3641
▁ANTON	-3642
▁dwell	-3643
▁stain	-3644
▁steel	-3645
AMEMNON	-3646
▁Attend	-3647
▁choice	-3648
▁leaves	-3649
▁malice	-3650
▁threat	-3651
▁thrice	-3652
COMINIUS	-3653
OLIXENES	-3654
ROSALINE	-3655
▁Welcome	-3656
▁desires	-3657
▁Somerset	-3658
▁brothers	-3659
ex	-3660
ich	-3661
oot	-3662
pos	-3663
▁ow	-3664
Unto	-3665
▁Sha	-3666
▁fie	-3667
▁pin	-3668
▁pot	-3669
ABIAN	-3670
UMNIA	-3671
Under	-3672
aring	-3673
there	-3674
▁Dost	-3675
▁abro	-3676
▁legs	-3677
▁leis	-3678
▁rans	-3679
▁trib	-3680
▁Never	-3681
▁blows	-3682
▁contr	-3683
▁faint	-3684
▁falls	-3685
▁oaths	-3686
▁persu	-3687
▁thief	-3688
PROVOST	-3689
▁Boling	-3690
▁commit	-3691
▁employ	-3692
▁swords	-3693
▁throne	-3694
▁wanton	-3695
▁JUSTICE	-3696
▁honours	-3697
▁madness	-3698
▁Bolingbroke	-3699
Ah	-3700
ug	-3701
JAX	-3702
REN	-3703
▁Ap	-3704
▁Sp	-3705
▁ga	-3706
CADE	-3707
ELLE	-3708
QUIN	-3709
ards	-3710
oral	-3711
▁few	-3712
IANCA	-3713
ified	-3714
orses	-3715
ybalt	-3716
▁Mess	-3717
▁hunt	-3718
▁meat	-3719
▁rare	-3720
▁room	-3721
▁Tower	-3722
▁dance	-3723
▁keeps	-3724
▁kneel	-3725
▁spent	-3726
▁stars	-3727
▁story	-3728
HOSTESS	-3729
▁appare	-3730
▁guilty	-3731
▁maiden	-3732
▁murder	-3733
▁tyrant	-3734
▁winter	-3735
AUTOLYCUS	-3736
▁argument	-3737
▁creature	-3738
fl	-3739
Fool	-3740
ILLE	-3741
ient	-3742
▁Sal	-3743
▁aid	-3744
▁gir	-3745
▁nay	-3746
▁rob	-3747
▁sli	-3748
▁wag	-3749
STEPH	-3750
ourse	-3751
▁Kent	-3752
▁Know	-3753
▁earn	-3754
▁fame	-3755
▁sail	-3756
▁vows	-3757
▁ways	-3758
▁wond	-3759
ifford	-3760
▁LORDS	-3761
▁chain	-3762
▁shore	-3763
▁stuff	-3764
▁Desdem	-3765
▁betray	-3766
▁physic	-3767
▁proper	-3768
▁public	-3769
▁simple	-3770
▁solemn	-3771
CHARMIAN	-3772
STEPHANO	-3773
▁affairs	-3774
▁perfect	-3775
▁approach	-3776
▁occasion	-3777
▁Valentine	-3778
EF	-3779
ys	-3780
Des	-3781
der	-3782
▁od	-3783
Both	-3784
eous	-3785
vish	-3786
▁dry	-3787
▁lam	-3788
▁med	-3789
▁sto	-3790
ising	-3791
wards	-3792
▁Anne	-3793
▁Ford	-3794
▁fond	-3795
▁gain	-3796
▁heed	-3797
▁idle	-3798
▁knee	-3799
▁nose	-3800
▁rise	-3801
▁rose	-3802
▁sens	-3803
▁vent	-3804
▁assur	-3805
▁mayst	-3806
▁smell	-3807
Another	-3808
▁Heaven	-3809
▁Though	-3810
▁desert	-3811
▁fought	-3812
▁repent	-3813
▁undert	-3814
LUCENTIO	-3815
▁Nothing	-3816
▁courage	-3817
▁leisure	-3818
▁reasons	-3819
▁thunder	-3820
▁Clifford	-3821
▁monstrous	-3822
SC	-3823
na	-3824
og	-3825
cum	-3826
fer	-3827
que	-3828
uce	-3829
ved	-3830
▁ed	-3831
gypt	-3832
mund	-3833
rift	-3834
▁Fie	-3835
▁Out	-3836
▁bas	-3837
▁baw	-3838
▁foe	-3839
house	-3840
shall	-3841
▁KATH	-3842
▁amaz	-3843
▁cost	-3844
▁easy	-3845
▁imag	-3846
GRUMIO	-3847
esides	-3848
ointed	-3849
▁Egypt	-3850
▁North	-3851
▁chall	-3852
▁enjoy	-3853
▁fiend	-3854
▁lover	-3855
▁utter	-3856
▁Edmund	-3857
▁Juliet	-3858
▁London	-3859
▁abroad	-3860
▁spring	-3861
▁weight	-3862
BARDOLPH	-3863
DIOMEDES	-3864
Flourish	-3865
▁follows	-3866
▁wherein	-3867
SALISBURY	-3868
▁particul	-3869
▁proclaim	-3870
▁trumpets	-3871
';	-3872
PO	-3873
LOR	-3874
LOT	-3875
ORA	-3876
jax	-3877
med	-3878
thi	-3879
▁ev	-3880
Fare	-3881
Laer	-3882
Made	-3883
Rome	-3884
angu	-3885
▁smo	-3886
AMORA	-3887
RENCH	-3888
UBERT	-3889
▁Even	-3890
▁cure	-3891
▁doom	-3892
▁hung	-3893
SANDER	-3894
▁awake	-3895
▁meant	-3896
▁stone	-3897
▁finger	-3898
▁ransom	-3899
▁silver	-3900
▁unless	-3901
▁monster	-3902
▁protest	-3903
▁forsworn	-3904
▁Desdemona	-3905
De	-3906
kin	-3907
ppy	-3908
ump	-3909
▁PH	-3910
AGUS	-3911
IBAN	-3912
IOND	-3913
aked	-3914
ouds	-3915
thou	-3916
▁Had	-3917
▁big	-3918
▁fle	-3919
▁mur	-3920
▁squ	-3921
After	-3922
agger	-3923
▁Bass	-3924
▁fury	-3925
▁kins	-3926
▁paid	-3927
▁port	-3928
▁rank	-3929
▁ship	-3930
▁stol	-3931
▁vict	-3932
JAQUES	-3933
▁Percy	-3934
▁adieu	-3935
▁cried	-3936
▁friar	-3937
▁honor	-3938
▁weigh	-3939
PAULINA	-3940
VIRAGUS	-3941
▁Athens	-3942
IONDELLO	-3943
▁silence	-3944
GUIDERIUS	-3945
umberland	-3946
▁Benedick	-3947
▁courtesy	-3948
▁execution	-3949
▁neighbour	-3950
▁melancholy	-3951
ARL	-3952
ERN	-3953
URN	-3954
isc	-3955
rum	-3956
▁Ge	-3957
▁Py	-3958
▁Qu	-3959
ANDA	-3960
CIUS	-3961
Corn	-3962
FERN	-3963
INUS	-3964
aces	-3965
ands	-3966
ault	-3967
dain	-3968
▁Art	-3969
▁Gre	-3970
▁adm	-3971
▁duc	-3972
▁fee	-3973
▁rot	-3974
▁sau	-3975
ATURN	-3976
RODER	-3977
allow	-3978
itude	-3979
omach	-3980
where	-3981
would	-3982
▁Time	-3983
▁begg	-3984
▁dign	-3985
▁dust	-3986
▁food	-3987
▁gate	-3988
▁heav	-3989
▁line	-3990
▁tomb	-3991
▁tune	-3992
FERNES	-3993
FIDIUS	-3994
IRANDA	-3995
TALBOT	-3996
incess	-3997
▁abuse	-3998
▁anger	-3999
▁doors	-4000
▁quoth	-4001
▁seven	-4002
▁spite	-4003
▁start	-4004
▁study	-4005
▁table	-4006
▁twice	-4007
▁witch	-4008
MACDUFF	-4009
NORFOLK	-4010
WILLIAM	-4011
▁assure	-4012
▁broken	-4013
▁compan	-4014
▁supper	-4015
▁wretch	-4016
RODERIGO	-4017
▁MACBETH	-4018
▁breathe	-4019
▁conquer	-4020
▁corrupt	-4021
OLOFERNES	-4022
▁BARDOLPH	-4023
▁remembrance	-4024
oc	-4025
ALO	-4026
Alb	-4027
Ere	-4028
ned	-4029
▁CA	-4030
ZALO	-4031
elve	-4032
fall	-4033
isho	-4034
this	-4035
yond	-4036
▁led	-4037
▁top	-4038
ience	-4039
▁YORK	-4040
▁empt	-4041
▁fain	-4042
▁ones	-4043
▁plot	-4044
▁seat	-4045
EPHERD	-4046
GREMIO	-4047
HECTOR	-4048
SILVIA	-4049
centio	-4050
enance	-4051
orious	-4052
thello	-4053
▁flood	-4054
▁miser	-4055
▁trial	-4056
PISANIO	-4057
▁lament	-4058
▁lawful	-4059
▁school	-4060
▁virgin	-4061
BELARIUS	-4062
VOLUMNIA	-4063
▁condemn	-4064
ATURNINUS	-4065
▁consider	-4066
▁dreadful	-4067
--	-4068
Ay	-4069
Dog	-4070
Oph	-4071
enc	-4072
▁Se	-4073
AJAX	-4074
Twas	-4075
inds	-4076
omin	-4077
▁Dou	-4078
▁cat	-4079
▁fun	-4080
▁hap	-4081
▁hit	-4082
▁rid	-4083
AARON	-4084
oteus	-4085
ouchs	-4086
▁feet	-4087
▁ruin	-4088
▁tail	-4089
▁unha	-4090
ctions	-4091
▁Great	-4092
▁doing	-4093
▁guilt	-4094
▁loath	-4095
▁niece	-4096
▁skill	-4097
▁tempt	-4098
▁Tybalt	-4099
▁asleep	-4100
▁custom	-4101
▁prepar	-4102
▁rascal	-4103
▁remedy	-4104
▁season	-4105
▁single	-4106
▁thinks	-4107
▁yonder	-4108
▁bearing	-4109
▁captain	-4110
▁natural	-4111
▁towards	-4112
▁whereof	-4113
POLIXENES	-4114
▁Bardolph	-4115
▁minister	-4116
▁subjects	-4117
ZO	-4118
TOM	-4119
WIS	-4120
ked	-4121
rat	-4122
▁VI	-4123
▁Wh	-4124
ENZO	-4125
enet	-4126
good	-4127
iest	-4128
ieur	-4129
iver	-4130
tern	-4131
Could	-4132
ENEAS	-4133
idius	-4134
otect	-4135
▁Wilt	-4136
▁burd	-4137
▁conc	-4138
▁dece	-4139
▁wide	-4140
LAVIUS	-4141
▁fruit	-4142
▁jewel	-4143
▁reign	-4144
▁wench	-4145
SLENDER	-4146
Wherein	-4147
▁Coriol	-4148
▁clouds	-4149
▁crowns	-4150
▁memory	-4151
▁stones	-4152
▁whence	-4153
▁whilst	-4154
Farewell	-4155
▁Othello	-4156
▁WARWICK	-4157
▁express	-4158
▁forgive	-4159
▁murther	-4160
▁warlike	-4161
▁citizens	-4162
▁possible	-4163
▁Wherefore	-4164
▁messenger	-4165
Br	-4166
IP	-4167
IZ	-4168
CHI	-4169
DOL	-4170
ESE	-4171
Gon	-4172
alf	-4173
awn	-4174
ere	-4175
she	-4176
tom	-4177
▁Gu	-4178
▁SH	-4179
IZEL	-4180
Lord	-4181
eeth	-4182
ffic	-4183
love	-4184
wixt	-4185
▁Get	-4186
▁Pol	-4187
▁Sen	-4188
▁Vol	-4189
▁aud	-4190
▁det	-4191
▁yea	-4192
CAIUS	-4193
CHIEF	-4194
ELAND	-4195
ESEUS	-4196
acher	-4197
astle	-4198
ators	-4199
enant	-4200
iving	-4201
onius	-4202
▁Beat	-4203
▁Fair	-4204
▁Scot	-4205
▁able	-4206
▁buck	-4207
▁comb	-4208
▁ease	-4209
▁fart	-4210
▁firm	-4211
▁slow	-4212
▁step	-4213
▁warm	-4214
ESTMOR	-4215
▁allow	-4216
▁condu	-4217
▁deter	-4218
▁fancy	-4219
▁Silvia	-4220
▁circum	-4221
▁horses	-4222
▁powers	-4223
▁purpos	-4224
▁sooner	-4225
▁thrive	-4226
▁colours	-4227
▁dearest	-4228
▁gallant	-4229
▁prepare	-4230
KATHARINE	-4231
▁sometime	-4232
HOLOFERNES	-4233
ESTMORELAND	-4234
▁counterfeit	-4235
EB	-4236
DUM	-4237
Ros	-4238
ald	-4239
urg	-4240
ENET	-4241
raid	-4242
upid	-4243
▁dif	-4244
▁hol	-4245
▁sac	-4246
While	-4247
aside	-4248
cture	-4249
eless	-4250
ences	-4251
inius	-4252
▁Ajax	-4253
▁Hold	-4254
▁Make	-4255
▁Mort	-4256
▁PHIL	-4257
▁Serv	-4258
▁shut	-4259
▁wont	-4260
DUMAIN	-4261
ontent	-4262
▁angel	-4263
▁griev	-4264
▁grown	-4265
▁minds	-4266
▁peril	-4267
▁venge	-4268
RICHARD	-4269
aintain	-4270
▁affect	-4271
▁always	-4272
▁flight	-4273
▁griefs	-4274
▁punish	-4275
▁receiv	-4276
▁twelve	-4277
▁Leonato	-4278
▁outward	-4279
▁profess	-4280
▁slander	-4281
▁weeping	-4282
AGAMEMNON	-4283
▁encounter	-4284
▁particular	-4285
▁countenance	-4286
Ca	-4287
af	-4288
CAS	-4289
Wor	-4290
icy	-4291
omp	-4292
ope	-4293
wit	-4294
ETTA	-4295
ctly	-4296
ired	-4297
omas	-4298
▁Don	-4299
▁Wor	-4300
▁clo	-4301
iling	-4302
twixt	-4303
▁More	-4304
▁gard	-4305
▁main	-4306
▁numb	-4307
▁womb	-4308
Alarum	-4309
urious	-4310
▁guest	-4311
▁hopes	-4312
▁loyal	-4313
▁naked	-4314
▁teeth	-4315
▁usurp	-4316
▁wives	-4317
CHARLES	-4318
utenant	-4319
▁extrem	-4320
▁lovers	-4321
▁nought	-4322
▁promis	-4323
▁thrust	-4324
▁voices	-4325
▁Proteus	-4326
▁absence	-4327
▁quality	-4328
▁stomach	-4329
▁triumph	-4330
▁whether	-4331
▁Rosalind	-4332
▁heavenly	-4333
▁reverend	-4334
▁treasure	-4335
▁Northumberland	-4336
?'	-4337
?-	-4338
Bl	-4339
ib	-4340
hor	-4341
iar	-4342
nat	-4343
oll	-4344
ria	-4345
▁AR	-4346
LAIN	-4347
Mine	-4348
ases	-4349
bear	-4350
cian	-4351
imer	-4352
ivil	-4353
lend	-4354
oved	-4355
reck	-4356
rius	-4357
▁bab	-4358
▁eng	-4359
▁pat	-4360
▁unc	-4361
▁unl	-4362
AMBER	-4363
ILIUS	-4364
ishop	-4365
vious	-4366
▁Mars	-4367
▁bids	-4368
▁boot	-4369
▁cuck	-4370
▁gown	-4371
▁melt	-4372
▁nine	-4373
BISHOP	-4374
HUBERT	-4375
ressid	-4376
▁First	-4377
▁Titus	-4378
▁bride	-4379
▁chief	-4380
▁realm	-4381
▁sheep	-4382
▁wings	-4383
CALIBAN	-4384
GONZALO	-4385
otector	-4386
▁Castle	-4387
▁buried	-4388
▁fright	-4389
▁hollow	-4390
▁intent	-4391
▁lovely	-4392
▁number	-4393
▁unkind	-4394
CLIFFORD	-4395
▁account	-4396
▁prosper	-4397
AMBERLAIN	-4398
▁traitors	-4399
▁daughters	-4400
▁desperate	-4401
▁discourse	-4402
▁happiness	-4403
▁Attendants	-4404
En	-4405
▁3	-4406
Put	-4407
roy	-4408
shi	-4409
ung	-4410
▁Cy	-4411
▁La	-4412
Hero	-4413
MONT	-4414
TIUS	-4415
▁Mil	-4416
▁Rom	-4417
▁ing	-4418
▁tid	-4419
LEWIS	-4420
Those	-4421
ertes	-4422
hiles	-4423
pense	-4424
rible	-4425
think	-4426
▁bawd	-4427
▁cher	-4428
▁exam	-4429
▁nobl	-4430
▁page	-4431
▁sack	-4432
▁tree	-4433
FABIAN	-4434
TAMORA	-4435
▁blush	-4436
▁cover	-4437
▁drops	-4438
▁faces	-4439
▁guess	-4440
▁knife	-4441
▁lands	-4442
▁shrew	-4443
▁trick	-4444
MIRANDA	-4445
▁Sirrah	-4446
▁Thomas	-4447
▁borrow	-4448
▁castle	-4449
▁denied	-4450
▁ducats	-4451
▁humbly	-4452
ouchsafe	-4453
▁charity	-4454
▁meaning	-4455
▁prevail	-4456
▁goodness	-4457
▁kindness	-4458
SATURNINUS	-4459
▁dishonour	-4460
do	-4461
▁z	-4462
ead	-4463
elt	-4464
gan	-4465
iny	-4466
ody	-4467
rep	-4468
rib	-4469
▁et	-4470
Hold	-4471
clin	-4472
iter	-4473
ranc	-4474
ront	-4475
they	-4476
▁aim	-4477
▁dar	-4478
▁dig	-4479
▁hid	-4480
▁unb	-4481
▁wol	-4482
MERLE	-4483
erves	-4484
ianca	-4485
iment	-4486
▁Very	-4487
▁bark	-4488
▁bell	-4489
▁envy	-4490
▁girl	-4491
▁mild	-4492
▁miss	-4493
▁prod	-4494
▁ride	-4495
▁root	-4496
BOTTOM	-4497
uteous	-4498
▁benef	-4499
▁breed	-4500
▁civil	-4501
▁disgu	-4502
▁flies	-4503
▁knees	-4504
▁langu	-4505
▁loose	-4506
▁plead	-4507
▁storm	-4508
▁thick	-4509
▁waste	-4510
umphrey	-4511
▁Romans	-4512
▁begins	-4513
▁disple	-4514
▁object	-4515
▁spoken	-4516
LYSANDER	-4517
▁compass	-4518
▁seeming	-4519
▁tidings	-4520
▁Beatrice	-4521
▁Montague	-4522
▁constant	-4523
▁servants	-4524
▁sickness	-4525
▁treacher	-4526
▁authority	-4527
ob	-4528
Cor	-4529
FIC	-4530
NER	-4531
Osw	-4532
igo	-4533
ney	-4534
reg	-4535
ued	-4536
▁Ne	-4537
▁Un	-4538
Call	-4539
Hear	-4540
ITCH	-4541
ROSS	-4542
ades	-4543
oder	-4544
rand	-4545
sing	-4546
▁apt	-4547
▁sal	-4548
▁sol	-4549
▁spe	-4550
▁unp	-4551
Think	-4552
asket	-4553
pping	-4554
ption	-4555
verse	-4556
▁hers	-4557
▁lean	-4558
▁perj	-4559
Whilst	-4560
edious	-4561
igence	-4562
isbury	-4563
▁WITCH	-4564
▁accus	-4565
▁crack	-4566
▁cries	-4567
▁joint	-4568
▁merit	-4569
▁mirth	-4570
▁party	-4571
▁pound	-4572
▁press	-4573
▁tyran	-4574
LUCETTA	-4575
▁Marcus	-4576
▁PHILIP	-4577
▁brings	-4578
▁credit	-4579
▁freely	-4580
▁making	-4581
▁prophe	-4582
▁undone	-4583
▁Charles	-4584
▁becomes	-4585
▁despair	-4586
▁learned	-4587
▁painted	-4588
▁Andronic	-4589
▁Hastings	-4590
▁acquaint	-4591
▁innocent	-4592
OV	-4593
▁.	-4594
PID	-4595
Per	-4596
ams	-4597
bus	-4598
soe	-4599
ton	-4600
▁LA	-4601
Love	-4602
aine	-4603
ctav	-4604
emet	-4605
▁Ban	-4606
▁CLO	-4607
▁Lau	-4608
▁Mal	-4609
▁Men	-4610
▁Pet	-4611
▁ant	-4612
▁gaz	-4613
▁haz	-4614
▁ung	-4615
▁wat	-4616
ARIEL	-4617
ESTOR	-4618
ating	-4619
ision	-4620
volio	-4621
▁True	-4622
▁Were	-4623
▁capt	-4624
▁clot	-4625
▁hill	-4626
▁pick	-4627
▁quit	-4628
▁salt	-4629
▁stab	-4630
▁tide	-4631
▁tort	-4632
AVILLE	-4633
HERMIA	-4634
▁below	-4635
▁blest	-4636
▁empty	-4637
▁ghost	-4638
▁habit	-4639
▁honey	-4640
▁horns	-4641
▁imper	-4642
▁swore	-4643
THESEUS	-4644
▁Bianca	-4645
▁Doctor	-4646
▁George	-4647
▁deadly	-4648
▁divine	-4649
▁invent	-4650
SOMERSET	-4651
emetrius	-4652
▁Cressid	-4653
▁earnest	-4654
▁forbear	-4655
▁officer	-4656
▁streets	-4657
▁tedious	-4658
▁greatest	-4659
uc	-4660
vi	-4661
COL	-4662
LAU	-4663
aul	-4664
bed	-4665
hum	-4666
ina	-4667
run	-4668
val	-4669
▁Ab	-4670
Away	-4671
ISSA	-4672
ONSO	-4673
atio	-4674
draw	-4675
eave	-4676
folk	-4677
haps	-4678
know	-4679
▁eag	-4680
▁mil	-4681
▁ton	-4682
Sings	-4683
ement	-4684
etern	-4685
forth	-4686
ounce	-4687
▁West	-4688
▁pack	-4689
EXETER	-4690
LAUDIO	-4691
urnish	-4692
▁Caius	-4693
▁Cupid	-4694
▁OFFIC	-4695
▁names	-4696
▁oppos	-4697
▁sighs	-4698
▁winds	-4699
FLAVIUS	-4700
▁bought	-4701
▁burden	-4702
▁estate	-4703
▁esteem	-4704
▁garden	-4705
▁regard	-4706
▁saying	-4707
▁temper	-4708
ethought	-4709
▁appears	-4710
▁enforce	-4711
▁modesty	-4712
▁prevent	-4713
▁virtues	-4714
▁Humphrey	-4715
▁contempt	-4716
▁garments	-4717
▁maintain	-4718
▁Protector	-4719
▁satisfied	-4720
▁slaughter	-4721
▁commission	-4722
▁gentlewoman	-4723
GA	-4724
PA	-4725
Po	-4726
Sp	-4727
sc	-4728
▁4	-4729
Eng	-4730
SAY	-4731
bar	-4732
▁Ag	-4733
▁Di	-4734
ATRO	-4735
CLUS	-4736
INCH	-4737
oths	-4738
utes	-4739
▁lod	-4740
▁mov	-4741
antag	-4742
clock	-4743
istol	-4744
known	-4745
oured	-4746
▁Hath	-4747
▁bird	-4748
▁rule	-4749
▁sits	-4750
▁vice	-4751
▁wake	-4752
QUINCE	-4753
erving	-4754
father	-4755
lesome	-4756
▁Octav	-4757
▁appre	-4758
▁fiery	-4759
▁limbs	-4760
▁loved	-4761
▁prick	-4762
▁prize	-4763
▁turns	-4764
LORENZO	-4765
PUCELLE	-4766
oderigo	-4767
▁Pardon	-4768
▁Venice	-4769
▁brains	-4770
▁convey	-4771
▁throat	-4772
ATROCLUS	-4773
▁besides	-4774
▁despite	-4775
▁suspect	-4776
▁tempest	-4777
▁therein	-4778
▁violent	-4779
▁Mortimer	-4780
▁disgrace	-4781
▁ignorant	-4782
▁suddenly	-4783
▁obedience	-4784
▁attendants	-4785
ws	-4786
Ant	-4787
BIA	-4788
Dis	-4789
ORS	-4790
PPA	-4791
ULO	-4792
net	-4793
Alas	-4794
FLOR	-4795
ITUS	-4796
Lady	-4797
TAIN	-4798
hest	-4799
ourt	-4800
rees	-4801
some	-4802
what	-4803
▁Alb	-4804
▁Hor	-4805
▁NOR	-4806
▁Pri	-4807
▁cup	-4808
▁neg	-4809
▁pil	-4810
▁var	-4811
CIBIA	-4812
DIANA	-4813
Never	-4814
RIPPA	-4815
ember	-4816
icate	-4817
▁Amen	-4818
▁Ital	-4819
▁Such	-4820
▁lock	-4821
▁shed	-4822
▁trif	-4823
▁wing	-4824
BIANCA	-4825
action	-4826
▁Hence	-4827
▁brook	-4828
▁build	-4829
▁chair	-4830
▁etern	-4831
▁spare	-4832
▁swell	-4833
atience	-4834
▁Hermia	-4835
▁flower	-4836
▁sacred	-4837
▁strang	-4838
▁window	-4839
CIBIADES	-4840
FLORIZEL	-4841
SHEPHERD	-4842
▁Norfolk	-4843
▁conduct	-4844
▁disdain	-4845
▁forfeit	-4846
▁victory	-4847
ARVIRAGUS	-4848
▁mischief	-4849
▁Salisbury	-4850
▁challenge	-4851
▁undertake	-4852
▁Andronicus	-4853
Ad	-4854
Lo	-4855
RA	-4856
SIM	-4857
Ver	-4858
fac	-4859
quo	-4860
uil	-4861
ATCH	-4862
IONE	-4863
IRON	-4864
alks	-4865
cial	-4866
illo	-4867
mine	-4868
ogue	-4869
rald	-4870
ulet	-4871
▁cam	-4872
▁eas	-4873
▁fix	-4874
▁fro	-4875
▁pie	-4876
▁rhy	-4877
ERDIN	-4878
iliar	-4879
ramus	-4880
sooth	-4881
uring	-4882
▁Alex	-4883
▁alas	-4884
▁dumb	-4885
▁ends	-4886
▁leng	-4887
▁reck	-4888
▁sour	-4889
▁sway	-4890
AENEAS	-4891
Myself	-4892
idence	-4893
ording	-4894
▁Bring	-4895
▁Truly	-4896
▁brows	-4897
▁charm	-4898
▁chide	-4899
▁early	-4900
▁frame	-4901
▁sides	-4902
▁spake	-4903
ISTRESS	-4904
▁Please	-4905
▁deserv	-4906
▁policy	-4907
▁renown	-4908
▁slight	-4909
▁smooth	-4910
▁sounds	-4911
▁taught	-4912
AUFIDIUS	-4913
CHBISHOP	-4914
ERDINAND	-4915
▁Shallow	-4916
▁dischar	-4917
▁flowers	-4918
▁kinsman	-4919
▁meeting	-4920
▁shallow	-4921
▁tonight	-4922
LAUNCELOT	-4923
▁ambition	-4924
▁contrary	-4925
▁flourish	-4926
▁Demetrius	-4927
▁followers	-4928
▁following	-4929
▁sometimes	-4930
LEY	-4931
Yea	-4932
arm	-4933
col	-4934
lot	-4935
oon	-4936
pic	-4937
Gent	-4938
IDOW	-4939
aded	-4940
ails	-4941
avin	-4942
pass	-4943
reak	-4944
rent	-4945
undy	-4946
▁Ber	-4947
▁Man	-4948
▁SAL	-4949
▁avo	-4950
▁bud	-4951
▁hig	-4952
▁tap	-4953
▁vex	-4954
Makes	-4955
Stand	-4956
Sweet	-4957
inite	-4958
place	-4959
▁Burg	-4960
▁Lear	-4961
▁clim	-4962
▁fish	-4963
▁pear	-4964
▁sham	-4965
▁shot	-4966
▁sore	-4967
rancis	-4968
worthy	-4969
▁Capit	-4970
▁Think	-4971
▁Wales	-4972
▁cerem	-4973
▁dares	-4974
▁durst	-4975
▁equal	-4976
▁groan	-4977
▁liest	-4978
▁store	-4979
▁sweat	-4980
LUCIANA	-4981
ruction	-4982
▁dreams	-4983
▁imagin	-4984
▁infect	-4985
▁profit	-4986
▁purcha	-4987
▁burning	-4988
▁Burgundy	-4989
▁Roderigo	-4990
▁prisoners	-4991
▁vengeance	-4992
▁disposition	-4993
act	-4994
fri	-4995
pir	-4996
rue	-4997
▁Am	-4998
▁sy	-4999
ANCE	-5000
ERIO	-5001
Know	-5002
alls	-5003
mend	-5004
mpet	-5005
nock	-5006
omed	-5007
wear	-5008
▁Cal	-5009
PIDUS	-5010
rough	-5011
▁PRIN	-5012
▁Poor	-5013
▁band	-5014
▁bill	-5015
▁cock	-5016
▁cool	-5017
▁edge	-5018
▁fant	-5019
▁hark	-5020
▁iron	-5021
▁odds	-5022
▁rash	-5023
▁rock	-5024
▁seas	-5025
▁suck	-5026
ALONSO	-5027
asting	-5028
hether	-5029
▁WATCH	-5030
▁cease	-5031
▁cloud	-5032
▁dying	-5033
▁gifts	-5034
▁image	-5035
▁murde	-5036
▁seest	-5037
▁shine	-5038
▁tread	-5039
Between	-5040
oldiers	-5041
▁armour	-5042
▁behalf	-5043
▁bodies	-5044
▁dagger	-5045
▁damned	-5046
▁native	-5047
▁render	-5048
▁smiles	-5049
▁Capitol	-5050
▁Horatio	-5051
▁Pyramus	-5052
▁complex	-5053
▁picture	-5054
▁shortly	-5055
▁perforce	-5056
'?	-5057
DY	-5058
Ha	-5059
ERO	-5060
Unt	-5061
ape	-5062
rid	-5063
▁Ly	-5064
LONG	-5065
Stri	-5066
WELL	-5067
anct	-5068
hend	-5069
iege	-5070
then	-5071
thur	-5072
upon	-5073
▁Gon	-5074
▁Hal	-5075
▁mag	-5076
▁sky	-5077
isper	-5078
twill	-5079
▁Hang	-5080
▁Merc	-5081
▁cens	-5082
▁crow	-5083
▁dogs	-5084
▁prey	-5085
▁pron	-5086
▁sell	-5087
▁woes	-5088
Whiles	-5089
fellow	-5090
resent	-5091
semble	-5092
▁Watch	-5093
▁admit	-5094
▁apart	-5095
▁appet	-5096
▁belly	-5097
▁crave	-5098
▁elder	-5099
▁mourn	-5100
▁pursu	-5101
▁raise	-5102
▁stock	-5103
▁weeds	-5104
▁Senate	-5105
▁advice	-5106
▁beaten	-5107
▁beyond	-5108
▁degree	-5109
▁devise	-5110
▁forces	-5111
▁herald	-5112
▁imposs	-5113
▁inform	-5114
▁Laertes	-5115
▁Plantag	-5116
▁attempt	-5117
▁confirm	-5118
▁farther	-5119
▁sorrows	-5120
▁offended	-5121
LONGAVILLE	-5122
▁KATHARINE	-5123
Me	-5124
Ne	-5125
co	-5126
wd	-5127
zz	-5128
iam	-5129
lip	-5130
▁Tw	-5131
COLM	-5132
adua	-5133
ator	-5134
glas	-5135
lect	-5136
look	-5137
roll	-5138
sequ	-5139
uted	-5140
▁Cle	-5141
▁der	-5142
▁fif	-5143
▁fil	-5144
▁sat	-5145
▁wax	-5146
Might	-5147
Poins	-5148
TRINC	-5149
assad	-5150
bling	-5151
olute	-5152
roach	-5153
which	-5154
▁LADY	-5155
▁Mine	-5156
▁cell	-5157
▁pair	-5158
▁thie	-5159
Either	-5160
NESTOR	-5161
avinia	-5162
master	-5163
sander	-5164
▁Greek	-5165
▁affli	-5166
▁alike	-5167
▁fatal	-5168
▁stick	-5169
▁until	-5170
MARCIUS	-5171
natural	-5172
▁afraid	-5173
▁dearly	-5174
▁device	-5175
▁fairly	-5176
▁figure	-5177
▁hazard	-5178
▁island	-5179
▁knaves	-5180
▁observ	-5181
▁prefer	-5182
▁search	-5183
TRINCULO	-5184
▁Douglas	-5185
▁deceive	-5186
▁fathers	-5187
▁numbers	-5188
BIONDELLO	-5189
▁blessing	-5190
▁glorious	-5191
▁infinite	-5192
▁practice	-5193
▁sleeping	-5194
▁stranger	-5195
▁reverence	-5196
Acc	-5197
Bel	-5198
Rem	-5199
Too	-5200
eld	-5201
▁Bo	-5202
Save	-5203
TEND	-5204
anus	-5205
came	-5206
elsh	-5207
hand	-5208
mond	-5209
omen	-5210
osed	-5211
▁Ver	-5212
▁ven	-5213
CASCA	-5214
LEANS	-5215
onest	-5216
unate	-5217
▁Vols	-5218
▁abus	-5219
▁fits	-5220
▁mart	-5221
▁pill	-5222
▁puts	-5223
▁roar	-5224
▁sees	-5225
▁serp	-5226
EDWARD	-5227
seless	-5228
▁Alack	-5229
▁Peter	-5230
▁Welsh	-5231
▁fairy	-5232
▁maids	-5233
▁tells	-5234
AUMERLE	-5235
MALCOLM	-5236
onsieur	-5237
▁ANTONY	-5238
▁Banquo	-5239
▁Diomed	-5240
▁Follow	-5241
▁accept	-5242
▁barren	-5243
▁bounty	-5244
▁deceiv	-5245
▁parted	-5246
▁revolt	-5247
▁worthi	-5248
CARDINAL	-5249
▁fairest	-5250
▁fingers	-5251
▁privile	-5252
▁special	-5253
▁weapons	-5254
CONSTABLE	-5255
▁Bassanio	-5256
▁Hereford	-5257
▁attended	-5258
▁confound	-5259
▁discover	-5260
▁forsooth	-5261
▁ladyship	-5262
▁merchant	-5263
▁midnight	-5264
▁purposes	-5265
▁speaking	-5266
▁villains	-5267
ALCIBIADES	-5268
▁attending	-5269
▁hereafter	-5270
▁substance	-5271
CHAMBERLAIN	-5272
▁countrymen	-5273
▁Plantagenet	-5274
gu	-5275
uf	-5276
GUN	-5277
Sha	-5278
WER	-5279
acy	-5280
boy	-5281
des	-5282
new	-5283
rop	-5284
ros	-5285
AUPH	-5286
Keep	-5287
Turn	-5288
cure	-5289
gels	-5290
lock	-5291
oops	-5292
outs	-5293
rite	-5294
▁Bar	-5295
▁dew	-5296
▁dim	-5297
▁dri	-5298
▁mom	-5299
▁odd	-5300
▁shr	-5301
Great	-5302
Somet	-5303
etter	-5304
prise	-5305
▁Doth	-5306
▁Must	-5307
▁None	-5308
▁bred	-5309
▁calm	-5310
▁cave	-5311
▁pock	-5312
▁ripe	-5313
▁snow	-5314
▁tall	-5315
AUPHIN	-5316
OLIVER	-5317
eliver	-5318
igious	-5319
ustice	-5320
▁nephe	-5321
▁scept	-5322
▁sooth	-5323
▁tarry	-5324
▁wants	-5325
CLAUDIO	-5326
TENDANT	-5327
▁Nature	-5328
▁Pistol	-5329
▁Thanks	-5330
▁bottom	-5331
▁chaste	-5332
▁length	-5333
▁modest	-5334
▁Camillo	-5335
▁William	-5336
▁conceit	-5337
▁handker	-5338
▁hateful	-5339
▁unknown	-5340
▁whisper	-5341
▁wrought	-5342
INCHESTER	-5343
PATROCLUS	-5344
▁Lucentio	-5345
▁MISTRESS	-5346
▁Princess	-5347
▁courtier	-5348
▁familiar	-5349
▁monument	-5350
▁mountain	-5351
▁sentence	-5352
▁thinking	-5353
▁reputation	-5354
WESTMORELAND	-5355
),	-5356
OX	-5357
OY	-5358
jo	-5359
ta	-5360
App	-5361
SUR	-5362
ank	-5363
apt	-5364
avy	-5365
bow	-5366
cap	-5367
law	-5368
uns	-5369
was	-5370
▁AT	-5371
▁LE	-5372
BRAY	-5373
THER	-5374
chio	-5375
ency	-5376
mark	-5377
▁Emp	-5378
▁unw	-5379
blood	-5380
hange	-5381
ivers	-5382
▁Rich	-5383
▁bade	-5384
▁bind	-5385
▁bite	-5386
▁deer	-5387
▁jour	-5388
▁mass	-5389
▁nice	-5390
▁pier	-5391
▁pour	-5392
▁slew	-5393
▁stat	-5394
▁tame	-5395
▁wink	-5396
EDFORD	-5397
OWBRAY	-5398
engers	-5399
illain	-5400
indsor	-5401
itable	-5402
ruchio	-5403
▁admir	-5404
▁alter	-5405
▁boast	-5406
▁craft	-5407
▁dress	-5408
▁finds	-5409
▁inher	-5410
▁saint	-5411
▁sanct	-5412
▁staff	-5413
▁super	-5414
ufidius	-5415
▁accuse	-5416
▁fierce	-5417
▁grieve	-5418
▁market	-5419
▁minute	-5420
▁moment	-5421
▁repair	-5422
HERMIONE	-5423
moreland	-5424
▁Britain	-5425
▁betwixt	-5426
▁cuckold	-5427
▁vantage	-5428
▁appetite	-5429
▁CLEOPATRA	-5430
▁affections	-5431
▁everything	-5432
▁friendship	-5433
▁instrument	-5434
GN	-5435
ICA	-5436
NYM	-5437
Ret	-5438
Two	-5439
ado	-5440
dst	-5441
pur	-5442
riv	-5443
▁2.	-5444
Bora	-5445
EROS	-5446
Each	-5447
Only	-5448
PUCK	-5449
elia	-5450
hers	-5451
maid	-5452
oard	-5453
thee	-5454
them	-5455
time	-5456
▁Den	-5457
▁Phi	-5458
▁Pis	-5459
▁Sat	-5460
▁Tur	-5461
▁coz	-5462
▁dot	-5463
▁dow	-5464
▁fin	-5465
▁fox	-5466
▁ink	-5467
▁kin	-5468
ANLEY	-5469
BERON	-5470
arent	-5471
ested	-5472
light	-5473
retch	-5474
▁also	-5475
▁babe	-5476
▁bent	-5477
▁fate	-5478
▁isle	-5479
▁lamb	-5480
▁luck	-5481
▁mood	-5482
▁unse	-5483
▁worm	-5484
Cannot	-5485
ESSICA	-5486
FRENCH	-5487
THURIO	-5488
▁Friar	-5489
▁March	-5490
▁TITUS	-5491
▁abhor	-5492
▁banqu	-5493
▁eight	-5494
▁peers	-5495
▁pitch	-5496
▁plant	-5497
▁shift	-5498
▁shoot	-5499
▁sings	-5500
▁stage	-5501
▁trade	-5502
▁twain	-5503
NERISSA	-5504
hearted	-5505
ression	-5506
▁Emilia	-5507
▁Kather	-5508
▁arrest	-5509
▁befall	-5510
▁graces	-5511
▁intell	-5512
▁misery	-5513
▁months	-5514
▁nobles	-5515
▁prayer	-5516
▁retire	-5517
▁rotten	-5518
▁stroke	-5519
▁Brother	-5520
▁Empress	-5521
▁advance	-5522
▁benefit	-5523
▁favours	-5524
▁whither	-5525
CONSTANCE	-5526
▁Aufidius	-5527
▁Lysander	-5528
▁villainy	-5529
▁ATTENDANT	-5530
▁complexion	-5531
▁Westmoreland	-5532
ux	-5533
AUS	-5534
LAW	-5535
Rep	-5536
ded	-5537
ipe	-5538
off	-5539
pet	-5540
str	-5541
urb	-5542
OCTA	-5543
atra	-5544
ense	-5545
fold	-5546
irty	-5547
ping	-5548
tell	-5549
wife	-5550
▁COR	-5551
▁deb	-5552
▁moe	-5553
▁ves	-5554
▁vol	-5555
MENAS	-5556
Still	-5557
amour	-5558
asted	-5559
bours	-5560
rison	-5561
romio	-5562
▁Toby	-5563
▁bury	-5564
▁cler	-5565
▁grey	-5566
▁hind	-5567
▁huge	-5568
▁laws	-5569
▁mult	-5570
▁rede	-5571
▁resc	-5572
▁sins	-5573
▁spur	-5574
▁task	-5575
ediate	-5576
leness	-5577
opatra	-5578
should	-5579
▁Brook	-5580
▁CLOWN	-5581
▁Death	-5582
▁amiss	-5583
▁avoid	-5584
▁blunt	-5585
▁cares	-5586
▁chang	-5587
▁delay	-5588
▁drums	-5589
▁flatt	-5590
▁front	-5591
▁sends	-5592
▁wears	-5593
▁wreck	-5594
Besides	-5595
▁Arthur	-5596
▁Robert	-5597
▁belong	-5598
▁consul	-5599
▁devils	-5600
▁except	-5601
▁groans	-5602
▁hardly	-5603
▁mouths	-5604
▁nights	-5605
▁places	-5606
▁seeing	-5607
▁silent	-5608
▁sleeps	-5609
▁strain	-5610
▁unfold	-5611
▁wither	-5612
▁yester	-5613
Although	-5614
▁Francis	-5615
▁Lavinia	-5616
▁clothes	-5617
▁conjure	-5618
▁dignity	-5619
▁envious	-5620
▁eternal	-5621
▁furnish	-5622
▁swallow	-5623
▁torment	-5624
▁torture	-5625
▁willing	-5626
▁wounded	-5627
▁darkness	-5628
▁heartily	-5629
▁Petruchio	-5630
▁beauteous	-5631
▁ignorance	-5632
▁unnatural	-5633
▁vouchsafe	-5634
▁BUCKINGHAM	-5635
▁acquainted	-5636
▁difference	-5637
Am	-5638
Su	-5639
wh	-5640
▁1	-5641
IGN	-5642
IOR	-5643
oms	-5644
ser	-5645
war	-5646
▁1.	-5647
▁3.	-5648
LANT	-5649
Poor	-5650
arus	-5651
gged	-5652
held	-5653
lied	-5654
long	-5655
pier	-5656
rers	-5657
roth	-5658
tled	-5659
▁Bra	-5660
▁Lie	-5661
▁lip	-5662
▁sup	-5663
FFORD	-5664
GILIA	-5665
GUNDY	-5666
cules	-5667
iddle	-5668
ously	-5669
stant	-5670
uties	-5671
▁Corn	-5672
▁GREY	-5673
▁Hail	-5674
▁Soft	-5675
▁bull	-5676
▁coff	-5677
▁diss	-5678
▁pomp	-5679
▁rail	-5680
▁runs	-5681
▁soci	-5682
▁test	-5683
▁yond	-5684
AGENET	-5685
AINTER	-5686
IGNIER	-5687
hamber	-5688
▁bleed	-5689
▁chase	-5690
▁check	-5691
▁marks	-5692
▁raven	-5693
▁recom	-5694
▁sacri	-5695
▁slept	-5696
ATCLIFF	-5697
England	-5698
▁SENIOR	-5699
▁angels	-5700
▁assist	-5701
▁pieces	-5702
▁redeem	-5703
▁shrewd	-5704
▁sought	-5705
▁vessel	-5706
Methinks	-5707
▁SUFFOLK	-5708
▁apparel	-5709
▁banquet	-5710
▁defence	-5711
▁feather	-5712
▁passage	-5713
▁thereof	-5714
▁although	-5715
▁commonwe	-5716
▁followed	-5717
▁friendly	-5718
▁pleasant	-5719
▁stronger	-5720
LANTAGENET	-5721
▁Gentlemen	-5722
▁commanded	-5723
▁pleasures	-5724
▁banishment	-5725
▁impossible	-5726
▁displeasure	-5727
AE	-5728
CHM	-5729
DOV	-5730
ICO	-5731
QUO	-5732
ept	-5733
▁CL	-5734
Bear	-5735
Hark	-5736
INIA	-5737
Mess	-5738
POET	-5739
erns	-5740
geon	-5741
port	-5742
▁BER	-5743
▁Boy	-5744
▁Nap	-5745
▁Tom	-5746
▁bew	-5747
Clown	-5748
First	-5749
LODOV	-5750
SAYER	-5751
UTLAW	-5752
hemia	-5753
inger	-5754
otion	-5755
ouses	-5756
ranio	-5757
ubert	-5758
uries	-5759
venge	-5760
▁Dian	-5761
▁Help	-5762
▁Post	-5763
▁felt	-5764
▁fors	-5765
▁milk	-5766
▁poet	-5767
▁rend	-5768
▁robb	-5769
▁sink	-5770
▁west	-5771
▁wolf	-5772
▁worn	-5773
BANQUO	-5774
CHMOND	-5775
mbling	-5776
reedom	-5777
retion	-5778
upiter	-5779
▁Offic	-5780
▁Priam	-5781
▁Since	-5782
▁artic	-5783
▁books	-5784
▁cloak	-5785
▁glove	-5786
▁haunt	-5787
▁incre	-5788
▁nobly	-5789
▁pause	-5790
▁scene	-5791
▁stays	-5792
▁stern	-5793
▁stoop	-5794
LEPIDUS	-5795
bitious	-5796
▁Dromio	-5797
▁Thisby	-5798
▁fairer	-5799
▁height	-5800
▁kindly	-5801
▁marvel	-5802
▁naught	-5803
▁nephew	-5804
▁perish	-5805
▁record	-5806
▁secure	-5807
▁senses	-5808
▁slaves	-5809
▁visage	-5810
LODOVICO	-5811
OTHSAYER	-5812
▁Believe	-5813
▁Whither	-5814
▁butcher	-5815
▁mistake	-5816
KATHERINE	-5817
▁FALSTAFF	-5818
▁Methinks	-5819
▁Richmond	-5820
▁Scotland	-5821
▁language	-5822
▁nobility	-5823
▁Cleopatra	-5824
▁committed	-5825
▁companion	-5826
▁creatures	-5827
▁Coriolanus	-5828
▁afterwards	-5829
▁lieutenant	-5830
▁acquaintance	-5831
▁handkerchief	-5832
mm	-5833
BOW	-5834
INS	-5835
ITA	-5836
Kne	-5837
acc	-5838
iev	-5839
pit	-5840
pul	-5841
ris	-5842
rog	-5843
uts	-5844
▁AG	-5845
▁YO	-5846
Came	-5847
Conf	-5848
ENAS	-5849
Show	-5850
asca	-5851
bble	-5852
cing	-5853
eril	-5854
foot	-5855
give	-5856
ista	-5857
live	-5858
roop	-5859
wall	-5860
▁Bid	-5861
▁Rem	-5862
▁hur	-5863
▁tou	-5864
GOWER	-5865
Gives	-5866
ainty	-5867
erest	-5868
illon	-5869
leans	-5870
viour	-5871
▁Fear	-5872
▁Port	-5873
▁cand	-5874
▁curs	-5875
▁gild	-5876
▁hail	-5877
▁mask	-5878
▁mill	-5879
▁pawn	-5880
▁zeal	-5881
ARTIUS	-5882
France	-5883
arried	-5884
bridge	-5885
▁Every	-5886
▁Italy	-5887
▁Lords	-5888
▁abide	-5889
▁birds	-5890
▁blown	-5891
▁clock	-5892
▁creep	-5893
▁hangs	-5894
▁harsh	-5895
▁human	-5896
▁lines	-5897
▁moved	-5898
▁paint	-5899
▁scape	-5900
▁stamp	-5901
aptista	-5902
▁Naples	-5903
▁PRINCE	-5904
▁Troyan	-5905
▁alarum	-5906
▁beasts	-5907
▁design	-5908
▁league	-5909
▁parley	-5910
▁pocket	-5911
▁rebell	-5912
▁reward	-5913
▁sacrif	-5914
▁savage	-5915
▁serves	-5916
▁tailor	-5917
together	-5918
▁Capulet	-5919
▁Grecian	-5920
▁bravely	-5921
▁descend	-5922
▁monarch	-5923
▁passing	-5924
▁recover	-5925
▁thieves	-5926
▁tremble	-5927
▁tyranny	-5928
▁unhappy	-5929
▁weather	-5930
▁written	-5931
FERDINAND	-5932
▁Hercules	-5933
▁faithful	-5934
▁whoreson	-5935
▁SALISBURY	-5936
▁falsehood	-5937
▁circumstance	-5938
Set	-5939
agg	-5940
aws	-5941
bes	-5942
chb	-5943
eve	-5944
has	-5945
wer	-5946
▁AU	-5947
ANIA	-5948
ATES	-5949
DOLL	-5950
Hast	-5951
VERS	-5952
rank	-5953
than	-5954
▁Ang	-5955
▁PAR	-5956
▁PUC	-5957
▁Win	-5958
▁ach	-5959
▁glo	-5960
▁lap	-5961
▁mak	-5962
▁que	-5963
Bring	-5964
CHANT	-5965
Music	-5966
Until	-5967
amemn	-5968
aries	-5969
arrow	-5970
aying	-5971
beral	-5972
chard	-5973
earer	-5974
humus	-5975
quire	-5976
stain	-5977
▁Keep	-5978
▁Trib	-5979
▁gidd	-5980
▁godd	-5981
▁knit	-5982
▁knot	-5983
▁rejo	-5984
▁sple	-5985
▁stub	-5986
▁toil	-5987
CHIRON	-5988
OBERON	-5989
ferent	-5990
picion	-5991
▁Adieu	-5992
▁Casca	-5993
▁Flore	-5994
▁Goths	-5995
▁Julia	-5996
▁coron	-5997
▁corre	-5998
▁desir	-5999
▁drive	-6000
▁lusty	-6001
▁merri	-6002
▁north	-6003
▁plays	-6004
▁rhyme	-6005
▁signs	-6006
▁spoil	-6007
▁thorn	-6008
▁verse	-6009
▁wrest	-6010
DAUPHIN	-6011
EMBROKE	-6012
SALERIO	-6013
Through	-6014
amemnon	-6015
▁Hubert	-6016
▁OUTLAW	-6017
▁Tranio	-6018
▁charac	-6019
▁choler	-6020
▁depend	-6021
▁doctor	-6022
▁inward	-6023
▁partly	-6024
▁reveng	-6025
▁strife	-6026
▁surely	-6027
▁travel	-6028
▁tricks	-6029
▁Jupiter	-6030
▁humours	-6031
▁reading	-6032
▁remains	-6033
▁stretch	-6034
▁wedding	-6035
▁CLARENCE	-6036
▁Flourish	-6037
▁petition	-6038
▁services	-6039
▁wondrous	-6040
ARCHBISHOP	-6041
▁ambitious	-6042
▁miserable	-6043
▁willingly	-6044
▁perfection	-6045
▁satisfaction	-6046
LL	-6047
▁-	-6048
Bid	-6049
CAN	-6050
den	-6051
eav	-6052
hra	-6053
ict	-6054
lia	-6055
par	-6056
rag	-6057
see	-6058
▁GR	-6059
▁Le	-6060
▁Me	-6061
BRAB	-6062
Draw	-6063
cest	-6064
eard	-6065
ewis	-6066
iled	-6067
just	-6068
ldom	-6069
rels	-6070
same	-6071
▁Ire	-6072
▁Tut	-6073
▁cal	-6074
▁gru	-6075
▁oce	-6076
ANTIO	-6077
arded	-6078
cians	-6079
mouth	-6080
orter	-6081
▁Isab	-6082
▁Long	-6083
▁SERV	-6084
▁begu	-6085
▁blus	-6086
▁bore	-6087
▁gait	-6088
▁mile	-6089
▁rece	-6090
▁repe	-6091
▁term	-6092
▁trim	-6093
▁undo	-6094
▁whip	-6095
▁yoke	-6096
Caesar	-6097
THERER	-6098
lender	-6099
ortens	-6100
ressed	-6101
▁Edgar	-6102
▁Gaunt	-6103
▁Guild	-6104
▁Milan	-6105
▁Padua	-6106
▁TIMON	-6107
▁climb	-6108
▁daily	-6109
▁decay	-6110
▁duked	-6111
▁fifty	-6112
▁innoc	-6113
▁penny	-6114
▁saucy	-6115
▁towns	-6116
▁trees	-6117
MARIANA	-6118
MOWBRAY	-6119
ORLEANS	-6120
PAINTER	-6121
ordelia	-6122
▁Launce	-6123
▁absent	-6124
▁breach	-6125
▁conven	-6126
▁distra	-6127
▁giving	-6128
▁inclin	-6129
▁joyful	-6130
▁kisses	-6131
▁reckon	-6132
▁stream	-6133
▁subtle	-6134
INCENTIO	-6135
cription	-6136
▁Because	-6137
▁Ireland	-6138
▁Orleans	-6139
▁censure	-6140
▁example	-6141
▁goddess	-6142
▁guarded	-6143
▁hanging	-6144
▁kindred	-6145
▁liberal	-6146
▁message	-6147
▁observe	-6148
▁offices	-6149
▁redress	-6150
▁sceptre	-6151
▁serpent	-6152
BRABANTIO	-6153
▁Baptista	-6154
▁Malvolio	-6155
▁Polonius	-6156
▁addition	-6157
▁audience	-6158
▁conquest	-6159
▁deserves	-6160
▁determin	-6161
▁jealousy	-6162
▁unworthy	-6163
▁youthful	-6164
▁Agamemnon	-6165
▁Posthumus	-6166
▁otherwise	-6167
▁privilege	-6168
▁wholesome	-6169
▁possession	-6170
▁entertainment	-6171
MO	-6172
Dou	-6173
bre	-6174
ced	-6175
fav	-6176
lse	-6177
met	-6178
sha	-6179
▁Sy	-6180
ARRO	-6181
bled	-6182
duff	-6183
grim	-6184
gues	-6185
iety	-6186
inct	-6187
ital	-6188
keep	-6189
noon	-6190
quis	-6191
tles	-6192
uses	-6193
vest	-6194
▁Arm	-6195
▁Gra	-6196
▁Tam	-6197
▁ado	-6198
▁ago	-6199
▁fed	-6200
▁key	-6201
▁nun	-6202
▁oak	-6203
▁pee	-6204
▁spl	-6205
▁unm	-6206
CATES	-6207
Sound	-6208
Twere	-6209
aming	-6210
ative	-6211
emper	-6212
ining	-6213
stern	-6214
▁chid	-6215
▁coat	-6216
▁curt	-6217
▁drew	-6218
▁liqu	-6219
▁misc	-6220
▁palm	-6221
▁scru	-6222
▁sine	-6223
▁soil	-6224
▁wail	-6225
Heaven	-6226
isible	-6227
ivered	-6228
phelia	-6229
soever	-6230
▁Regan	-6231
▁armed	-6232
▁asham	-6233
▁corse	-6234
▁dozen	-6235
▁draws	-6236
▁ended	-6237
▁error	-6238
▁estim	-6239
▁leads	-6240
▁shown	-6241
▁siege	-6242
▁spurn	-6243
▁sting	-6244
▁warri	-6245
▁weeps	-6246
▁wills	-6247
CATESBY	-6248
Nothing	-6249
Whether	-6250
enstern	-6251
▁Portia	-6252
▁advise	-6253
▁aspect	-6254
▁contro	-6255
▁injury	-6256
▁lately	-6257
▁quench	-6258
▁resolv	-6259
▁spleen	-6260
▁terror	-6261
▁troops	-6262
▁weapon	-6263
▁wishes	-6264
ortensio	-6265
▁Goneril	-6266
▁Slender	-6267
▁current	-6268
▁disease	-6269
▁earthly	-6270
▁feeling	-6271
▁freedom	-6272
▁garland	-6273
▁granted	-6274
▁journey	-6275
▁younger	-6276
▁Cordelia	-6277
▁SOMERSET	-6278
▁Soldiers	-6279
▁banished	-6280
▁exchange	-6281
▁imprison	-6282
▁officers	-6283
▁senators	-6284
▁shoulder	-6285
▁stubborn	-6286
▁necessity	-6287
▁conference	-6288
▁discontent	-6289
▁enterprise	-6290
!"	-6291
gn	-6292
zy	-6293
Cry	-6294
EBE	-6295
Men	-6296
UGH	-6297
ese	-6298
hus	-6299
sir	-6300
▁Hu	-6301
▁Im	-6302
BOTH	-6303
Guil	-6304
LIUS	-6305
Mark	-6306
Much	-6307
Pray	-6308
clam	-6309
clus	-6310
hear	-6311
lean	-6312
lete	-6313
▁Dis	-6314
▁VII	-6315
▁WAL	-6316
▁bay	-6317
▁hom	-6318
▁nim	-6319
▁orn	-6320
▁wot	-6321
Among	-6322
ELBOW	-6323
OURTH	-6324
PARIS	-6325
Three	-6326
WIDOW	-6327
court	-6328
ickle	-6329
ishes	-6330
▁Coun	-6331
▁Fool	-6332
▁appl	-6333
▁duke	-6334
▁fret	-6335
▁grew	-6336
▁lent	-6337
▁pate	-6338
▁shun	-6339
▁stro	-6340
Attend	-6341
Follow	-6342
Master	-6343
ancing	-6344
eneral	-6345
illing	-6346
▁Lewis	-6347
▁Poins	-6348
▁Still	-6349
▁began	-6350
▁crest	-6351
▁fares	-6352
▁fleet	-6353
▁giddy	-6354
▁hears	-6355
▁lying	-6356
▁ocean	-6357
▁pinch	-6358
▁scope	-6359
▁score	-6360
▁scour	-6361
▁space	-6362
▁suits	-6363
▁torch	-6364
▁venom	-6365
▁wrink	-6366
AGRIPPA	-6367
ARDINER	-6368
chester	-6369
edition	-6370
▁CAESAR	-6371
▁Greeks	-6372
▁advent	-6373
▁ancest	-6374
▁combat	-6375
▁graves	-6376
▁rebels	-6377
▁refuse	-6378
▁strive	-6379
▁taking	-6380
▁theirs	-6381
▁wisely	-6382
WILLIAMS	-6383
chbishop	-6384
▁Princes	-6385
▁carried	-6386
▁foreign	-6387
▁knights	-6388
▁needful	-6389
▁orchard	-6390
▁peevish	-6391
▁perhaps	-6392
▁pilgrim	-6393
▁quarter	-6394
▁remorse	-6395
▁smiling	-6396
▁CARDINAL	-6397
▁bleeding	-6398
▁conceive	-6399
▁standing	-6400
▁strongly	-6401
▁troubled	-6402
▁appointed	-6403
▁invention	-6404
▁invisible	-6405
▁shoulders	-6406
▁suspicion	-6407
▁ATTENDANTS	-6408
GUE	-6409
OCT	-6410
Res	-6411
hel	-6412
owb	-6413
ril	-6414
tic	-6415
upt	-6416
who	-6417
▁BA	-6418
▁Du	-6419
▁EX	-6420
▁PE	-6421
▁ec	-6422
Fair	-6423
JOHN	-6424
ULPH	-6425
aker	-6426
ares	-6427
atic	-6428
bles	-6429
blet	-6430
erer	-6431
gent	-6432
hant	-6433
idus	-6434
ined	-6435
iven	-6436
osop	-6437
prus	-6438
reme	-6439
urvy	-6440
when	-6441
▁Oli	-6442
▁Par	-6443
▁Pat	-6444
▁SIL	-6445
▁Sic	-6446
▁vul	-6447
EDANT	-6448
ENTON	-6449
GAUNT	-6450
OCTOR	-6451
POINS	-6452
asant	-6453
hered	-6454
horse	-6455
▁Draw	-6456
▁Mant	-6457
▁Pand	-6458
▁bank	-6459
▁deaf	-6460
▁dote	-6461
▁east	-6462
▁hall	-6463
▁park	-6464
▁perf	-6465
▁rate	-6466
▁ruff	-6467
▁sequ	-6468
▁subd	-6469
▁week	-6470
▁whit	-6471
OLANIO	-6472
RANMER	-6473
SURREY	-6474
atient	-6475
owbray	-6476
▁Athen	-6477
▁Noble	-6478
▁Their	-6479
▁Those	-6480
▁advis	-6481
▁alleg	-6482
▁belov	-6483
▁bread	-6484
▁cozen	-6485
▁curst	-6486
▁fever	-6487
▁hairs	-6488
▁haply	-6489
▁moral	-6490
▁petty	-6491
▁theme	-6492
▁token	-6493
hilosop	-6494
▁Tamora	-6495
▁caught	-6496
▁cursed	-6497
▁curses	-6498
▁direct	-6499
▁famous	-6500
▁gather	-6501
▁gently	-6502
▁higher	-6503
▁parent	-6504
▁shapes	-6505
▁supply	-6506
▁whiles	-6507
▁yellow	-6508
▁ANTONIO	-6509
▁Council	-6510
▁Macduff	-6511
▁Ophelia	-6512
▁commons	-6513
▁growing	-6514
▁looking	-6515
▁pitiful	-6516
▁praises	-6517
▁shadows	-6518
▁venture	-6519
▁absolute	-6520
▁accident	-6521
▁ambassad	-6522
▁commands	-6523
▁continue	-6524
▁delicate	-6525
▁interest	-6526
▁laughter	-6527
▁learning	-6528
▁purchase	-6529
▁withdraw	-6530
SOOTHSAYER	-6531
▁ENOBARBUS	-6532
▁Katherine	-6533
▁Worcester	-6534
▁apprehend	-6535
▁confusion	-6536
▁conclusion	-6537
▁resolution	-6538
kn	-6539
RED	-6540
ULL	-6541
Wit	-6542
aqu	-6543
iel	-6544
nel	-6545
owl	-6546
ras	-6547
vis	-6548
▁Ho	-6549
▁Ox	-6550
▁hy	-6551
▁ug	-6552
Dies	-6553
EARL	-6554
Full	-6555
Once	-6556
RIEL	-6557
Serv	-6558
cell	-6559
eves	-6560
ille	-6561
illy	-6562
ique	-6563
itic	-6564
lipp	-6565
mian	-6566
ogen	-6567
owne	-6568
sion	-6569
sire	-6570
urio	-6571
▁Jud	-6572
▁Old	-6573
▁Two	-6574
▁hie	-6575
▁ope	-6576
▁rul	-6577
▁tum	-6578
▁tut	-6579
ANIEL	-6580
ERICK	-6581
Hence	-6582
Other	-6583
aches	-6584
inate	-6585
inous	-6586
otted	-6587
ratch	-6588
rence	-6589
shire	-6590
worth	-6591
▁BAST	-6592
▁BEAU	-6593
▁Cade	-6594
▁Hots	-6595
▁Paul	-6596
▁Pers	-6597
▁Turk	-6598
▁aunt	-6599
▁ball	-6600
▁braw	-6601
▁busy	-6602
▁cann	-6603
▁coll	-6604
▁flat	-6605
▁joys	-6606
▁pace	-6607
▁ward	-6608
FOURTH	-6609
epidus	-6610
headed	-6611
ounded	-6612
▁ARIEL	-6613
▁Scene	-6614
▁Thane	-6615
▁begun	-6616
▁burst	-6617
▁divor	-6618
▁event	-6619
▁hated	-6620
▁likes	-6621
▁newly	-6622
▁price	-6623
▁sembl	-6624
▁stale	-6625
▁veins	-6626
JESSICA	-6627
cellent	-6628
ication	-6629
▁LUCIUS	-6630
▁Oxford	-6631
▁Saturn	-6632
▁Should	-6633
▁Within	-6634
▁afeard	-6635
▁basket	-6636
▁bosoms	-6637
▁breaks	-6638
▁eldest	-6639
▁fields	-6640
▁jewels	-6641
▁nation	-6642
▁notice	-6643
▁overth	-6644
▁prodig	-6645
▁rapier	-6646
▁remove	-6647
▁shines	-6648
▁thrown	-6649
▁waters	-6650
▁woeful	-6651
ATHANIEL	-6652
REDERICK	-6653
VIRGILIA	-6654
▁BASTARD	-6655
▁Bohemia	-6656
▁Hotspur	-6657
▁Mowbray	-6658
▁cherish	-6659
▁hostess	-6660
▁inherit	-6661
▁knowing	-6662
▁parting	-6663
▁proport	-6664
▁Monsieur	-6665
▁contents	-6666
▁distance	-6667
▁increase	-6668
▁instruct	-6669
▁obedient	-6670
▁strumpet	-6671
▁tribunes	-6672
▁MURTHERER	-6673
▁assurance	-6674
▁contented	-6675
▁discharge	-6676
PLANTAGENET	-6677
▁Archbishop	-6678
▁Winchester	-6679
▁instruments	-6680
▁Guildenstern	-6681
."	-6682
Os	-6683
CUR	-6684
Imp	-6685
nes	-6686
oan	-6687
sec	-6688
ugg	-6689
yet	-6690
▁4.	-6691
▁En	-6692
▁Lo	-6693
▁RO	-6694
▁Tr	-6695
ALEX	-6696
Cons	-6697
DITA	-6698
Dost	-6699
ERAL	-6700
Marg	-6701
Wilt	-6702
oler	-6703
ollo	-6704
pper	-6705
raft	-6706
rief	-6707
runk	-6708
swer	-6709
utch	-6710
utio	-6711
▁KEE	-6712
▁Pho	-6713
▁ale	-6714
▁bru	-6715
▁cop	-6716
▁hue	-6717
▁lin	-6718
▁net	-6719
▁non	-6720
▁spy	-6721
▁sue	-6722
▁urg	-6723
ANDRA	-6724
EUTEN	-6725
andal	-6726
ilful	-6727
lando	-6728
raise	-6729
rantz	-6730
ulate	-6731
ursed	-6732
▁Dear	-6733
▁Eros	-6734
▁Stri	-6735
▁Sure	-6736
▁amen	-6737
▁gaze	-6738
▁hole	-6739
▁leap	-6740
▁lift	-6741
▁load	-6742
▁merc	-6743
▁nest	-6744
▁slay	-6745
▁thin	-6746
▁tied	-6747
▁wand	-6748
Having	-6749
Making	-6750
SIMPLE	-6751
gentle	-6752
ossess	-6753
roclus	-6754
stable	-6755
within	-6756
▁Glend	-6757
▁MARIA	-6758
▁amend	-6759
▁apace	-6760
▁begot	-6761
▁brand	-6762
▁carri	-6763
▁couch	-6764
▁eagle	-6765
▁goose	-6766
▁manif	-6767
▁metal	-6768
▁nails	-6769
▁pearl	-6770
▁prais	-6771
▁provo	-6772
▁reach	-6773
▁roses	-6774
▁rouse	-6775
▁shade	-6776
▁shook	-6777
▁steep	-6778
▁strew	-6779
▁troop	-6780
▁value	-6781
PERDITA	-6782
ROMWELL	-6783
STANLEY	-6784
▁Cyprus	-6785
▁Exeter	-6786
▁Isabel	-6787
▁beheld	-6788
▁closet	-6789
▁crying	-6790
▁deaths	-6791
▁dispos	-6792
▁easily	-6793
▁justly	-6794
▁kingly	-6795
▁lesser	-6796
▁oracle	-6797
▁points	-6798
▁pursue	-6799
▁unjust	-6800
▁wander	-6801
EUTENANT	-6802
encrantz	-6803
hersites	-6804
ousillon	-6805
standing	-6806
▁Berowne	-6807
▁Lepidus	-6808
▁SERVING	-6809
▁Villain	-6810
▁Windsor	-6811
▁amongst	-6812
▁couldst	-6813
▁destroy	-6814
▁manhood	-6815
▁mightst	-6816
▁miracle	-6817
▁prophes	-6818
▁restore	-6819
▁running	-6820
▁serious	-6821
▁signior	-6822
▁strikes	-6823
▁travell	-6824
▁LUCENTIO	-6825
▁OFFICERS	-6826
▁Officers	-6827
▁SERVANTS	-6828
▁Titinius	-6829
▁ceremony	-6830
▁conclude	-6831
▁forswear	-6832
▁philosop	-6833
▁terrible	-6834
▁Hortensio	-6835
▁delivered	-6836
▁immediate	-6837
▁lightning	-6838
▁perchance	-6839
▁physician	-6840
▁pronounce	-6841
▁rebellion	-6842
▁conditions	-6843
▁discretion	-6844
▁recompense	-6845
▁preparation	-6846
▁treacherous	-6847
▁commonwealth	-6848
UG	-6849
zo	-6850
Art	-6851
Hel	-6852
LOV	-6853
Osr	-6854
Par	-6855
SLY	-6856
SON	-6857
UNG	-6858
ala	-6859
bel	-6860
ica	-6861
ino	-6862
ips	-6863
nty	-6864
oft	-6865
ulf	-6866
voy	-6867
▁BR	-6868
▁te	-6869
Find	-6870
Hang	-6871
Host	-6872
IANS	-6873
UARD	-6874
VOST	-6875
ably	-6876
aron	-6877
athe	-6878
bell	-6879
cipl	-6880
eral	-6881
from	-6882
rish	-6883
side	-6884
sses	-6885
stit	-6886
take	-6887
tong	-6888
urnt	-6889
vels	-6890
▁CAP	-6891
▁DEM	-6892
▁HUM	-6893
▁MEN	-6894
▁VEN	-6895
▁bon	-6896
▁dat	-6897
▁nam	-6898
▁rev	-6899
▁rhe	-6900
▁tab	-6901
▁yes	-6902
ANTER	-6903
CORIN	-6904
GONUS	-6905
acles	-6906
eneas	-6907
erity	-6908
great	-6909
hrase	-6910
ignty	-6911
iting	-6912
ontin	-6913
poral	-6914
▁Prov	-6915
▁Show	-6916
▁bush	-6917
▁coin	-6918
▁cove	-6919
▁keen	-6920
▁owes	-6921
▁rack	-6922
▁riot	-6923
▁rush	-6924
▁spit	-6925
▁tres	-6926
▁wept	-6927
ECENAS	-6928
Giving	-6929
andria	-6930
ension	-6931
orough	-6932
▁HELEN	-6933
▁Leave	-6934
▁Three	-6935
▁boots	-6936
▁brace	-6937
▁burns	-6938
▁clean	-6939
▁forms	-6940
▁kills	-6941
▁rebel	-6942
▁seize	-6943
▁share	-6944
▁south	-6945
▁stopp	-6946
▁tooth	-6947
BEDFORD	-6948
MONTANO	-6949
SILVIUS	-6950
TIGONUS	-6951
TITANIA	-6952
brother	-6953
liament	-6954
▁Aeneas	-6955
▁Alarum	-6956
▁FRENCH	-6957
▁Father	-6958
▁Imogen	-6959
▁aboard	-6960
▁advers	-6961
▁beside	-6962
▁bottle	-6963
▁deceit	-6964
▁houses	-6965
▁mettle	-6966
▁nimble	-6967
▁potent	-6968
▁ragged	-6969
▁rescue	-6970
▁trifle	-6971
▁vulgar	-6972
BURGUNDY	-6973
MARGARET	-6974
▁PROVOST	-6975
▁TROILUS	-6976
▁cowards	-6977
▁effects	-6978
▁fairies	-6979
▁falling	-6980
▁matters	-6981
▁natures	-6982
▁neglect	-6983
▁provide	-6984
▁royalty	-6985
▁society	-6986
▁surfeit	-6987
▁sweetly	-6988
▁throats	-6989
▁tribute	-6990
ANTERBURY	-6991
VINCENTIO	-6992
clamation	-6993
▁Charmian	-6994
▁apparent	-6995
▁breaking	-6996
▁directly	-6997
▁distress	-6998
▁grievous	-6999
▁husbands	-7000
▁likewise	-7001
▁persuade	-7002
▁weakness	-7003
WINCHESTER	-7004
▁DEMETRIUS	-7005
▁Glendower	-7006
▁afternoon	-7007
▁behaviour	-7008
▁beholding	-7009
▁extremity	-7010
▁grandsire	-7011
▁CORIOLANUS	-7012
▁allegiance	-7013
▁henceforth	-7014
▁destruction	-7015
▁intelligence	-7016
CY	-7017
Sm	-7018
ym	-7019
Off	-7020
PIR	-7021
Tru	-7022
aus	-7023
bol	-7024
dis	-7025
lam	-7026
nzo	-7027
sey	-7028
too	-7029
▁Hy	-7030
▁SE	-7031
AMUS	-7032
DICK	-7033
Long	-7034
OLER	-7035
OMAN	-7036
Sing	-7037
cape	-7038
eder	-7039
erle	-7040
name	-7041
scri	-7042
sell	-7043
used	-7044
vity	-7045
work	-7046
▁Car	-7047
▁Dun	-7048
▁Him	-7049
▁LAD	-7050
▁MER	-7051
▁Mon	-7052
▁bol	-7053
▁box	-7054
▁bul	-7055
▁cud	-7056
▁sty	-7057
▁suc	-7058
About	-7059
Glend	-7060
Henry	-7061
IANUS	-7062
ORTER	-7063
PHEBE	-7064
adies	-7065
again	-7066
arter	-7067
cknow	-7068
eling	-7069
ickly	-7070
logue	-7071
sbury	-7072
speak	-7073
▁Cons	-7074
▁Hugh	-7075
▁Only	-7076
▁Step	-7077
▁blaz	-7078
▁blue	-7079
▁calf	-7080
▁cook	-7081
▁dine	-7082
▁dise	-7083
▁game	-7084
▁lark	-7085
▁medd	-7086
▁ming	-7087
▁pest	-7088
▁pred	-7089
▁pull	-7090
▁sets	-7091
▁sirs	-7092
▁skin	-7093
▁stum	-7094
▁ugly	-7095
▁urge	-7096
▁vass	-7097
▁wore	-7098
ARTHUR	-7099
eseech	-7100
orenzo	-7101
▁CAIUS	-7102
▁Nurse	-7103
▁WALES	-7104
▁accom	-7105
▁aloud	-7106
▁beams	-7107
▁beget	-7108
▁bonds	-7109
▁brown	-7110
▁clerk	-7111
▁everl	-7112
▁evils	-7113
▁exile	-7114
▁exper	-7115
▁flout	-7116
▁forty	-7117
▁frank	-7118
▁frost	-7119
▁level	-7120
▁medic	-7121
▁outra	-7122
▁steps	-7123
▁swain	-7124
▁today	-7125
▁trunk	-7126
▁walks	-7127
Welcome	-7128
▁Behold	-7129
▁County	-7130
▁EXETER	-7131
▁Helena	-7132
▁KEEPER	-7133
▁LADIES	-7134
▁Mantua	-7135
▁Thurio	-7136
▁Verona	-7137
▁access	-7138
▁amends	-7139
▁deputy	-7140
▁hungry	-7141
▁indign	-7142
▁lights	-7143
▁liking	-7144
▁perpet	-7145
▁phrase	-7146
▁prompt	-7147
▁repose	-7148
▁seldom	-7149
▁shield	-7150
▁spread	-7151
▁suffic	-7152
▁suitor	-7153
▁swears	-7154
▁temple	-7155
▁thirty	-7156
▁victor	-7157
REIGNIER	-7158
▁Besides	-7159
▁Denmark	-7160
▁Messala	-7161
▁Orlando	-7162
▁Pisanio	-7163
▁SHALLOW	-7164
▁amorous	-7165
▁answers	-7166
▁approve	-7167
▁beloved	-7168
▁conceal	-7169
▁conspir	-7170
▁dismiss	-7171
▁dispose	-7172
▁fantast	-7173
▁lodging	-7174
▁loyalty	-7175
▁process	-7176
▁sounded	-7177
▁working	-7178
DOLABELLA	-7179
▁Athenian	-7180
▁HASTINGS	-7181
▁ISABELLA	-7182
▁Octavius	-7183
▁comforts	-7184
▁contract	-7185
▁drinking	-7186
▁opposite	-7187
▁preserve	-7188
▁sweetest	-7189
▁Gentleman	-7190
▁Launcelot	-7191
▁exceeding	-7192
▁strangely	-7193
▁yesterday	-7194
▁proceeding	-7195
▁imagination	-7196
▁NORTHUMBERLAND	-7197
Le	-7198
PR	-7199
Sw	-7200
sm	-7201
CAP	-7202
Fie	-7203
NOX	-7204
OFF	-7205
Old	-7206
TIS	-7207
ais	-7208
asp	-7209
got	-7210
had	-7211
ien	-7212
key	-7213
may	-7214
plo	-7215
ric	-7216
say	-7217
umn	-7218
▁Ep	-7219
▁av	-7220
Does	-7221
Item	-7222
ORGE	-7223
Send	-7224
adle	-7225
chel	-7226
hast	-7227
lsin	-7228
lter	-7229
oubt	-7230
part	-7231
reet	-7232
rial	-7233
rity	-7234
roof	-7235
spir	-7236
umes	-7237
ured	-7238
xcom	-7239
▁ELY	-7240
▁Has	-7241
▁Hec	-7242
▁Jes	-7243
▁Lay	-7244
▁Set	-7245
▁alt	-7246
▁dun	-7247
▁err	-7248
▁nap	-7249
▁ped	-7250
▁pul	-7251
▁tax	-7252
▁tur	-7253
ALICE	-7254
Comes	-7255
Knock	-7256
Lords	-7257
ONIUS	-7258
antus	-7259
chess	-7260
igent	-7261
ivity	-7262
mbers	-7263
mpets	-7264
remio	-7265
rumio	-7266
verty	-7267
▁Apem	-7268
▁Both	-7269
▁Davy	-7270
▁Jaqu	-7271
▁Like	-7272
▁Part	-7273
▁Till	-7274
▁aged	-7275
▁beds	-7276
▁bere	-7277
▁bran	-7278
▁diet	-7279
▁diff	-7280
▁dove	-7281
▁drag	-7282
▁fact	-7283
▁goss	-7284
▁lads	-7285
▁peer	-7286
▁push	-7287
▁rais	-7288
▁slip	-7289
▁tren	-7290
DOCTOR	-7291
LOVELL	-7292
RIVERS	-7293
atesby	-7294
enches	-7295
iteous	-7296
keness	-7297
mother	-7298
repare	-7299
verses	-7300
▁Aaron	-7301
▁Didst	-7302
▁Somet	-7303
▁arise	-7304
▁charg	-7305
▁flame	-7306
▁goods	-7307
▁guide	-7308
▁imped	-7309
▁liver	-7310
▁lodge	-7311
▁mould	-7312
▁parce	-7313
▁quest	-7314
▁river	-7315
▁seeks	-7316
▁split	-7317
▁stout	-7318
▁vault	-7319
▁wager	-7320
CAPTAIN	-7321
CRANMER	-7322
LARTIUS	-7323
lsinore	-7324
ursions	-7325
▁Gremio	-7326
▁endeav	-7327
▁interp	-7328
▁likely	-7329
▁manage	-7330
▁mutiny	-7331
▁perjur	-7332
▁pierce	-7333
▁thread	-7334
▁willow	-7335
▁writes	-7336
CROMWELL	-7337
GARDINER	-7338
PANDULPH	-7339
daughter	-7340
▁CAPTAIN	-7341
▁Corioli	-7342
▁General	-7343
▁Octavia	-7344
▁Silence	-7345
▁actions	-7346
▁appoint	-7347
▁beggars	-7348
▁beguile	-7349
▁betimes	-7350
▁bidding	-7351
▁council	-7352
▁discipl	-7353
▁doublet	-7354
▁dukedom	-7355
▁fearing	-7356
▁grandam	-7357
▁happily	-7358
▁poverty	-7359
▁resolve	-7360
▁rightly	-7361
▁roaring	-7362
▁secrets	-7363
▁signify	-7364
▁steward	-7365
▁strokes	-7366
▁telling	-7367
▁thereby	-7368
▁touches	-7369
▁upright	-7370
▁yielded	-7371
NATHANIEL	-7372
▁MERCHANT	-7373
▁Mercutio	-7374
▁Remember	-7375
▁breeding	-7376
▁complain	-7377
▁elements	-7378
▁injuries	-7379
▁kingdoms	-7380
▁murderer	-7381
▁offences	-7382
▁provided	-7383
▁thankful	-7384
▁youngest	-7385
▁Apemantus	-7386
▁Thersites	-7387
▁according	-7388
▁instantly	-7389
▁qualities	-7390
▁severally	-7391
▁treachery	-7392
▁wonderful	-7393
▁ANTIPHOLUS	-7394
▁government	-7395
▁Rosencrantz	-7396
▁sovereignty	-7397
HY	-7398
Tr	-7399
ns	-7400
rt	-7401
▁5	-7402
ALA	-7403
Has	-7404
ILO	-7405
INO	-7406
Pet	-7407
RAM	-7408
add	-7409
bon	-7410
▁ax	-7411
ELIN	-7412
Fran	-7413
Many	-7414
alty	-7415
arer	-7416
away	-7417
bast	-7418
cock	-7419
face	-7420
fast	-7421
hath	-7422
iano	-7423
join	-7424
lius	-7425
llen	-7426
lord	-7427
room	-7428
wdor	-7429
▁BOY	-7430
▁CAM	-7431
▁CLI	-7432
▁Ere	-7433
▁Ned	-7434
▁OLI	-7435
▁Put	-7436
▁bag	-7437
▁dil	-7438
▁dit	-7439
▁fan	-7440
▁haw	-7441
▁rat	-7442
▁spr	-7443
▁tim	-7444
▁wak	-7445
ERALD	-7446
Leave	-7447
PETER	-7448
Sleep	-7449
Young	-7450
alter	-7451
anish	-7452
anley	-7453
asing	-7454
enius	-7455
enton	-7456
ianus	-7457
idden	-7458
ranch	-7459
ulous	-7460
▁Adam	-7461
▁BASS	-7462
▁Bear	-7463
▁Clot	-7464
▁Down	-7465
▁East	-7466
▁Jess	-7467
▁Joan	-7468
▁PAND	-7469
▁blot	-7470
▁defy	-7471
▁dial	-7472
▁fawn	-7473
▁pays	-7474
▁prog	-7475
▁rear	-7476
▁rust	-7477
▁seiz	-7478
▁spee	-7479
▁wipe	-7480
ELINOR	-7481
ESSALA	-7482
FENTON	-7483
LENNOX	-7484
Rather	-7485
Zounds	-7486
angers	-7487
eshrew	-7488
formed	-7489
manner	-7490
ublius	-7491
▁Being	-7492
▁Blunt	-7493
▁GUARD	-7494
▁House	-7495
▁Under	-7496
▁Whose	-7497
▁amity	-7498
▁bragg	-7499
▁dowry	-7500
▁exerc	-7501
▁explo	-7502
▁fount	-7503
▁grass	-7504
▁heirs	-7505
▁insol	-7506
▁lower	-7507
▁noted	-7508
▁notes	-7509
▁ordin	-7510
▁recon	-7511
▁ships	-7512
▁spect	-7513
▁straw	-7514
▁threw	-7515
▁whipt	-7516
▁works	-7517
Believe	-7518
SILENCE	-7519
mission	-7520
▁BISHOP	-7521
▁Cawdor	-7522
▁Grumio	-7523
▁HELENA	-7524
▁Mother	-7525
▁Strike	-7526
▁accord	-7527
▁barbar	-7528
▁bowels	-7529
▁called	-7530
▁coxcom	-7531
▁embass	-7532
▁hounds	-7533
▁infant	-7534
▁safely	-7535
▁survey	-7536
▁throng	-7537
▁waking	-7538
▁BERTRAM	-7539
▁Jessica	-7540
▁Justice	-7541
▁NORFOLK	-7542
▁OFFICER	-7543
▁Volsces	-7544
▁bargain	-7545
▁carries	-7546
▁compare	-7547
▁conclud	-7548
▁consequ	-7549
▁forsake	-7550
▁funeral	-7551
▁hideous	-7552
▁knowest	-7553
▁merrily	-7554
▁propert	-7555
▁protect	-7556
▁rejoice	-7557
▁requite	-7558
▁sadness	-7559
▁scruple	-7560
▁sitting	-7561
▁suppose	-7562
▁talking	-7563
▁CLIFFORD	-7564
▁Tribunes	-7565
▁converse	-7566
▁doubtful	-7567
▁greeting	-7568
▁horrible	-7569
▁immortal	-7570
▁imperial	-7571
▁likeness	-7572
▁mourning	-7573
▁pleasing	-7574
▁promised	-7575
▁received	-7576
▁speeches	-7577
▁Constable	-7578
▁character	-7579
▁complaint	-7580
▁conqueror	-7581
▁determine	-7582
▁innocence	-7583
▁methought	-7584
▁religious	-7585
▁senseless	-7586
▁convenient	-7587
▁expedition	-7588
withstanding	-7589
▁expectation	-7590
'!	-7591
NA	-7592
YS	-7593
▁&	-7594
AVY	-7595
CIN	-7596
CIS	-7597
ENN	-7598
Lay	-7599
MAY	-7600
abs	-7601
aph	-7602
ids	-7603
ium	-7604
jud	-7605
orp	-7606
vet	-7607
▁AL	-7608
▁ox	-7609
Fall	-7610
Fore	-7611
Gads	-7612
Lies	-7613
OMAS	-7614
ORUS	-7615
Seem	-7616
char	-7617
cons	-7618
empl	-7619
fool	-7620
hael	-7621
iger	-7622
ming	-7623
nken	-7624
ourn	-7625
ripp	-7626
teen	-7627
vert	-7628
▁DIO	-7629
▁IMO	-7630
▁YOU	-7631
▁ann	-7632
▁dem	-7633
▁enm	-7634
▁fem	-7635
▁jot	-7636
▁mas	-7637
▁voy	-7638
▁wet	-7639
CINNA	-7640
MAYOR	-7641
Madam	-7642
OFFIC	-7643
Twill	-7644
chers	-7645
field	-7646
heard	-7647
lling	-7648
might	-7649
osing	-7650
tance	-7651
their	-7652
water	-7653
▁EARL	-7654
▁Fore	-7655
▁Gall	-7656
▁HOST	-7657
▁Many	-7658
▁acts	-7659
▁boar	-7660
▁defe	-7661
▁forc	-7662
▁hare	-7663
▁helm	-7664
▁hist	-7665
▁judg	-7666
▁nupt	-7667
▁plan	-7668
▁roof	-7669
▁shri	-7670
▁spar	-7671
▁sugg	-7672
Behold	-7673
CURTIS	-7674
PEDANT	-7675
Pardon	-7676
bation	-7677
favour	-7678
friend	-7679
ichael	-7680
mongst	-7681
ourage	-7682
▁Antip	-7683
▁Ghost	-7684
▁Music	-7685
▁Pedro	-7686
▁ROSAL	-7687
▁Venus	-7688
▁afoot	-7689
▁aloft	-7690
▁babes	-7691
▁backs	-7692
▁beaut	-7693
▁diest	-7694
▁hasty	-7695
▁hedge	-7696
▁lions	-7697
▁miles	-7698
▁moves	-7699
▁penit	-7700
▁rites	-7701
▁schol	-7702
▁shout	-7703
▁slipp	-7704
▁spark	-7705
▁wheel	-7706
MESSALA	-7707
Whereof	-7708
against	-7709
itation	-7710
ratiano	-7711
▁Apollo	-7712
▁Cousin	-7713
▁DROMIO	-7714
▁IMOGEN	-7715
▁KATHER	-7716
▁TALBOT	-7717
▁Walter	-7718
▁acknow	-7719
▁afford	-7720
▁belike	-7721
▁breeds	-7722
▁canker	-7723
▁couple	-7724
▁craves	-7725
▁create	-7726
▁dearer	-7727
▁defect	-7728
▁dismal	-7729
▁divide	-7730
▁feeble	-7731
▁infirm	-7732
▁middle	-7733
▁myster	-7734
▁narrow	-7735
▁preced	-7736
▁resign	-7737
▁riches	-7738
▁scurvy	-7739
▁sinews	-7740
▁surety	-7741
▁varlet	-7742
▁worshi	-7743
OCTAVIUS	-7744
RATCLIFF	-7745
ifferent	-7746
ratitude	-7747
rewsbury	-7748
▁Lorenzo	-7749
▁Neither	-7750
▁Stanley	-7751
▁assault	-7752
▁beastly	-7753
▁careful	-7754
▁contain	-7755
▁cruelty	-7756
▁deserts	-7757
▁divorce	-7758
▁drunken	-7759
▁faction	-7760
▁gallows	-7761
▁grieves	-7762
▁nuptial	-7763
▁require	-7764
▁scandal	-7765
▁sisters	-7766
▁succeed	-7767
FREDERICK	-7768
▁Cornwall	-7769
▁DIOMEDES	-7770
▁PAROLLES	-7771
▁careless	-7772
▁carriage	-7773
▁concerns	-7774
▁division	-7775
▁evermore	-7776
▁flattery	-7777
▁forehead	-7778
▁fourteen	-7779
▁instance	-7780
▁marching	-7781
▁miseries	-7782
▁nobleman	-7783
▁renowned	-7784
▁trespass	-7785
▁Bassianus	-7786
▁Patroclus	-7787
▁breathing	-7788
▁direction	-7789
▁household	-7790
▁infection	-7791
▁ministers	-7792
▁sacrifice	-7793
▁virginity	-7794
▁estimation	-7795
▁proportion	-7796
▁prosperous	-7797
▁sufferance	-7798
Aw	-7799
Ch	-7800
UB	-7801
Adv	-7802
Ber	-7803
Boy	-7804
COX	-7805
Urs	-7806
cho	-7807
lar	-7808
olv	-7809
sen	-7810
▁GA	-7811
▁gn	-7812
ALEN	-7813
ANTH	-7814
ARIO	-7815
Dear	-7816
Dram	-7817
ERIA	-7818
Else	-7819
Fear	-7820
GEON	-7821
Kiss	-7822
PCOX	-7823
ROOP	-7824
SMAN	-7825
Samp	-7826
TRIA	-7827
bant	-7828
comp	-7829
core	-7830
full	-7831
icer	-7832
late	-7833
onae	-7834
oted	-7835
play	-7836
pris	-7837
rich	-7838
rick	-7839
rove	-7840
rude	-7841
such	-7842
sues	-7843
uish	-7844
ular	-7845
word	-7846
yard	-7847
▁Ari	-7848
▁BEL	-7849
▁Cin	-7850
▁Fri	-7851
▁Ger	-7852
▁Ner	-7853
▁Phe	-7854
▁Too	-7855
▁Uly	-7856
▁Wit	-7857
▁ape	-7858
▁axe	-7859
▁gap	-7860
▁ost	-7861
▁rus	-7862
▁tal	-7863
▁tro	-7864
Above	-7865
ELAUS	-7866
PHREY	-7867
Takes	-7868
ULLUS	-7869
agues	-7870
ajest	-7871
arson	-7872
being	-7873
btain	-7874
craft	-7875
ering	-7876
estor	-7877
ories	-7878
ullus	-7879
urity	-7880
▁Play	-7881
▁afar	-7882
▁chat	-7883
▁chin	-7884
▁clam	-7885
▁cord	-7886
▁date	-7887
▁decl	-7888
▁diam	-7889
▁fold	-7890
▁gird	-7891
▁hose	-7892
▁meas	-7893
▁muse	-7894
▁negl	-7895
▁pang	-7896
▁peep	-7897
▁reap	-7898
▁robe	-7899
▁silk	-7900
▁sire	-7901
▁summ	-7902
ENETTA	-7903
Please	-7904
acious	-7905
advent	-7906
asions	-7907
cannot	-7908
cially	-7909
hylock	-7910
reason	-7911
umerle	-7912
▁About	-7913
▁After	-7914
▁Bless	-7915
▁alack	-7916
▁beats	-7917
▁blast	-7918
▁crook	-7919
▁disse	-7920
▁drows	-7921
▁feign	-7922
▁fires	-7923
▁flint	-7924
▁integ	-7925
▁ought	-7926
▁print	-7927
▁reply	-7928
▁simpl	-7929
▁sober	-7930
▁solic	-7931
▁stole	-7932
▁taint	-7933
▁worms	-7934
ALENCON	-7935
ANTHINO	-7936
SOLANIO	-7937
bastian	-7938
nicious	-7939
ulation	-7940
▁BIANCA	-7941
▁Duncan	-7942
▁VENICE	-7943
▁Worthy	-7944
▁appeal	-7945
▁bachel	-7946
▁bounds	-7947
▁burial	-7948
▁candle	-7949
▁charms	-7950
▁commod	-7951
▁consum	-7952
▁dainty	-7953
▁dishon	-7954
▁divers	-7955
▁duties	-7956
▁errand	-7957
▁extend	-7958
▁gilded	-7959
▁herein	-7960
▁lecher	-7961
▁livery	-7962
▁madman	-7963
▁merely	-7964
▁pestil	-7965
▁ravish	-7966
▁scorns	-7967
▁sights	-7968
▁sleeve	-7969
▁suppos	-7970
▁titles	-7971
▁vanish	-7972
▁vassal	-7973
▁verses	-7974
▁wooing	-7975
Dramatis	-7976
PEMBROKE	-7977
▁Another	-7978
▁Catesby	-7979
▁MACDUFF	-7980
▁Proceed	-7981
▁Publius	-7982
▁Servant	-7983
▁Ulysses	-7984
▁achieve	-7985
▁enchant	-7986
▁execute	-7987
▁extreme	-7988
▁harbour	-7989
▁intents	-7990
▁legions	-7991
▁nightly	-7992
▁piteous	-7993
▁players	-7994
▁politic	-7995
▁presume	-7996
▁prophet	-7997
▁retreat	-7998
▁satisfy	-7999
▁soundly	-8000
▁wenches	-8001
▁writing	-8002
ANTIGONUS	-8003
conbridge	-8004
▁Gratiano	-8005
▁Personae	-8006
▁Rosaline	-8007
▁chastity	-8008
▁counsell	-8009
▁election	-8010
▁promises	-8011
▁reproach	-8012
▁sensible	-8013
▁swearing	-8014
▁treasons	-8015
▁BIONDELLO	-8016
▁CYMBELINE	-8017
▁SEBASTIAN	-8018
▁adventure	-8019
▁ancestors	-8020
▁blessings	-8021
▁confident	-8022
▁departure	-8023
▁fortunate	-8024
▁guiltless	-8025
▁necessary	-8026
▁altogether	-8027
▁correction	-8028
▁employment	-8029
▁unkindness	-8030
▁everlasting	-8031
▁proclamation	-8032
CU	-8033
SA	-8034
Se	-8035
ky	-8036
mo	-8037
sl	-8038
tr	-8039
BBO	-8040
BRI	-8041
DUN	-8042
Get	-8043
LAV	-8044
Lie	-8045
TUS	-8046
amn	-8047
cio	-8048
hol	-8049
liv	-8050
mod	-8051
oqu	-8052
top	-8053
▁Co	-8054
▁OV	-8055
▁je	-8056
BESS	-8057
Brit	-8058
Doug	-8059
IRAS	-8060
POLY	-8061
Pres	-8062
West	-8063
ardy	-8064
back	-8065
beit	-8066
body	-8067
boys	-8068
colm	-8069
enes	-8070
ione	-8071
kins	-8072
lead	-8073
lorn	-8074
must	-8075
nard	-8076
said	-8077
ungs	-8078
urch	-8079
vied	-8080
wart	-8081
wing	-8082
▁Bea	-8083
▁CON	-8084
▁Luc	-8085
▁Mus	-8086
▁Ret	-8087
▁Rob	-8088
▁cel	-8089
▁fur	-8090
▁hab	-8091
▁hey	-8092
▁lab	-8093
▁lun	-8094
▁mat	-8095
▁pos	-8096
▁pox	-8097
▁sex	-8098
▁vig	-8099
▁vot	-8100
Death	-8101
GOBBO	-8102
PEIUS	-8103
Twixt	-8104
avery	-8105
habit	-8106
imely	-8107
irect	-8108
irtue	-8109
isons	-8110
never	-8111
order	-8112
orthi	-8113
overy	-8114
pence	-8115
raint	-8116
unity	-8117
urder	-8118
▁ANNE	-8119
▁Phoe	-8120
▁Ross	-8121
▁Wife	-8122
▁butt	-8123
▁buzz	-8124
▁fray	-8125
▁holp	-8126
▁lays	-8127
▁lets	-8128
▁ling	-8129
▁moan	-8130
▁perd	-8131
▁peri	-8132
▁pine	-8133
▁plac	-8134
▁sand	-8135
▁swim	-8136
▁terr	-8137
▁used	-8138
▁vast	-8139
▁vous	-8140
ATESBY	-8141
DUNCAN	-8142
ERDONE	-8143
Edward	-8144
Gentle	-8145
POLYTA	-8146
Sirrah	-8147
aments	-8148
ellows	-8149
eptune	-8150
iments	-8151
lihood	-8152
▁Cinna	-8153
▁EVANS	-8154
▁Mayor	-8155
▁Sound	-8156
▁Young	-8157
▁arriv	-8158
▁ashes	-8159
▁broad	-8160
▁burnt	-8161
▁champ	-8162
▁clapp	-8163
▁curts	-8164
▁drift	-8165
▁frail	-8166
▁giant	-8167
▁puiss	-8168
▁purge	-8169
▁rocks	-8170
▁skull	-8171
▁smoke	-8172
▁stuck	-8173
▁style	-8174
▁tents	-8175
▁tried	-8176
Command	-8177
OFFICER	-8178
QUINTUS	-8179
Signior	-8180
Strikes	-8181
eration	-8182
rateful	-8183
urthere	-8184
▁Albany	-8185
▁Bishop	-8186
▁Cloten	-8187
▁Olivia	-8188
▁beware	-8189
▁drinks	-8190
▁enmity	-8191
▁escape	-8192
▁filthy	-8193
▁guests	-8194
▁hourly	-8195
▁knocks	-8196
▁ladder	-8197
▁liquor	-8198
▁losing	-8199
▁moving	-8200
▁muster	-8201
▁nobler	-8202
▁obtain	-8203
▁pledge	-8204
▁raging	-8205
▁rights	-8206
▁sheets	-8207
▁sickly	-8208
▁speedy	-8209
▁sphere	-8210
▁stocks	-8211
▁thrift	-8212
▁utmost	-8213
▁vanity	-8214
▁voyage	-8215
▁Brabant	-8216
▁CATESBY	-8217
▁MARCIUS	-8218
▁Michael	-8219
▁Milford	-8220
▁PISANIO	-8221
▁PUCELLE	-8222
▁Philipp	-8223
▁Prosper	-8224
▁bondage	-8225
▁changes	-8226
▁control	-8227
▁convers	-8228
▁crowned	-8229
▁demands	-8230
▁destiny	-8231
▁diamond	-8232
▁evening	-8233
▁harvest	-8234
▁history	-8235
▁keeping	-8236
▁kissing	-8237
▁mankind	-8238
▁mistook	-8239
▁ourself	-8240
▁outrage	-8241
▁peasant	-8242
▁penance	-8243
▁perjury	-8244
▁scholar	-8245
▁scratch	-8246
▁setting	-8247
▁subscri	-8248
▁superfl	-8249
▁sustain	-8250
▁undergo	-8251
▁waiting	-8252
▁windows	-8253
▁OVERDONE	-8254
▁RICHMOND	-8255
▁SENATORS	-8256
▁Servants	-8257
▁backward	-8258
▁complete	-8259
▁confeder	-8260
▁delights	-8261
▁diseases	-8262
▁entrance	-8263
▁executed	-8264
▁infected	-8265
▁medicine	-8266
▁POSTHUMUS	-8267
▁attendant	-8268
▁barbarous	-8269
▁disguised	-8270
▁integrity	-8271
▁mountains	-8272
▁perpetual	-8273
▁precedent	-8274
▁semblance	-8275
▁Lieutenant	-8276
▁Shrewsbury	-8277
▁coronation	-8278
▁countryman	-8279
▁pernicious	-8280
▁punishment	-8281
▁notwithstanding	-8282
,-	-8283
Up	-8284
yr	-8285
Him	-8286
ILE	-8287
Ven	-8288
YRE	-8289
abb	-8290
amy	-8291
aug	-8292
emb	-8293
fit	-8294
fty	-8295
how	-8296
mas	-8297
mph	-8298
uno	-8299
ura	-8300
uss	-8301
vir	-8302
▁5.	-8303
▁AD	-8304
▁CO	-8305
▁PR	-8306
▁TR	-8307
AKEN	-8308
AMIL	-8309
DREY	-8310
HORS	-8311
Mort	-8312
SPIR	-8313
Stay	-8314
UGBY	-8315
URIO	-8316
Verg	-8317
aply	-8318
done	-8319
down	-8320
forc	-8321
hill	-8322
ifth	-8323
ills	-8324
issa	-8325
kens	-8326
ples	-8327
rave	-8328
rong	-8329
semb	-8330
▁Hum	-8331
▁Nym	-8332
▁Son	-8333
▁awe	-8334
▁ebb	-8335
▁esp	-8336
▁etc	-8337
▁fac	-8338
▁hop	-8339
▁ice	-8340
▁lan	-8341
▁lat	-8342
▁rum	-8343
▁sed	-8344
▁tar	-8345
▁vel	-8346
Ghost	-8347
Romeo	-8348
VARRO	-8349
YREUS	-8350
arers	-8351
cheth	-8352
encon	-8353
erers	-8354
fered	-8355
iring	-8356
itary	-8357
itive	-8358
itter	-8359
mione	-8360
ossom	-8361
press	-8362
reant	-8363
stone	-8364
thren	-8365
ulvia	-8366
▁Crom	-8367
▁DUCH	-8368
▁Desp	-8369
▁Grey	-8370
▁Jesu	-8371
▁Once	-8372
▁Pope	-8373
▁Read	-8374
▁dart	-8375
▁deck	-8376
▁eats	-8377
▁hack	-8378
▁hire	-8379
▁lame	-8380
▁mast	-8381
▁purg	-8382
▁road	-8383
▁weed	-8384
AEGEON	-8385
GEORGE	-8386
HORSON	-8387
PORTER	-8388
Return	-8389
Toward	-8390
antime	-8391
cilius	-8392
eeming	-8393
esario	-8394
ispers	-8395
overed	-8396
▁Maine	-8397
▁Right	-8398
▁Robin	-8399
▁adore	-8400
▁aloof	-8401
▁antic	-8402
▁bliss	-8403
▁board	-8404
▁brass	-8405
▁chose	-8406
▁coats	-8407
▁depos	-8408
▁flock	-8409
▁gorge	-8410
▁hatch	-8411
▁incon	-8412
▁lived	-8413
▁locks	-8414
▁lungs	-8415
▁mocks	-8416
▁patch	-8417
▁plent	-8418
▁robes	-8419
▁sadly	-8420
▁saved	-8421
▁shirt	-8422
▁shoes	-8423
▁stake	-8424
▁tales	-8425
Betwixt	-8426
Commend	-8427
LAVINIA	-8428
SIMPCOX	-8429
SOLDIER	-8430
Witness	-8431
husband	-8432
thought	-8433
vellous	-8434
▁ANGELO	-8435
▁Garter	-8436
▁Greece	-8437
▁PORTIA	-8438
▁attain	-8439
▁butter	-8440
▁corner	-8441
▁devour	-8442
▁dreamt	-8443
▁excell	-8444
▁frowns	-8445
▁haught	-8446
▁horrid	-8447
▁hunger	-8448
▁joints	-8449
▁meddle	-8450
▁pitied	-8451
▁prover	-8452
▁resist	-8453
▁rogues	-8454
▁shames	-8455
▁starve	-8456
▁states	-8457
▁sullen	-8458
▁triump	-8459
▁trusty	-8460
AKENBURY	-8461
AMILLIUS	-8462
Elsinore	-8463
incentio	-8464
pecially	-8465
▁Angiers	-8466
▁Aumerle	-8467
▁DUCHESS	-8468
▁Malcolm	-8469
▁Neptune	-8470
▁Provost	-8471
▁battles	-8472
▁belongs	-8473
▁bending	-8474
▁ceremon	-8475
▁contend	-8476
▁coxcomb	-8477
▁dancing	-8478
▁disturb	-8479
▁harmony	-8480
▁imagine	-8481
▁mothers	-8482
▁noblest	-8483
▁procure	-8484
▁profane	-8485
▁singing	-8486
▁slumber	-8487
GENTLEMAN	-8488
adventure	-8489
▁BELARIUS	-8490
▁Cominius	-8491
▁HUMPHREY	-8492
▁Patience	-8493
▁affright	-8494
▁blushing	-8495
▁compound	-8496
▁counsels	-8497
▁devotion	-8498
▁exercise	-8499
▁fighting	-8500
▁ornament	-8501
▁practise	-8502
▁princess	-8503
▁prodigal	-8504
▁prologue	-8505
▁prophesy	-8506
▁stirring	-8507
▁violence	-8508
LIEUTENANT	-8509
▁Excellent	-8510
▁KATHERINA	-8511
▁Messenger	-8512
▁Sebastian	-8513
▁apprehens	-8514
▁bounteous	-8515
▁constable	-8516
▁honorable	-8517
▁impatient	-8518
▁mischance	-8519
▁multitude	-8520
▁persuaded	-8521
▁CANTERBURY	-8522
▁confession	-8523
▁impatience	-8524
▁messengers	-8525
▁persuasion	-8526
▁witchcraft	-8527
▁consequence	-8528
▁indifferent	-8529
▁ingratitude	-8530
▁understanding	-8531
GL	-8532
MA	-8533
ANG	-8534
AQU	-8535
DGE	-8536
Fly	-8537
KEE	-8538
Sit	-8539
TEZ	-8540
Tyb	-8541
ann	-8542
cet	-8543
cur	-8544
ias	-8545
iqu	-8546
jou	-8547
pas	-8548
rip	-8549
ula	-8550
ule	-8551
▁IR	-8552
▁SC	-8553
▁Sm	-8554
▁Up	-8555
▁ep	-8556
Duke	-8557
Gain	-8558
PHIL	-8559
PHIS	-8560
REEN	-8561
UNES	-8562
Wear	-8563
Wife	-8564
amed	-8565
culo	-8566
fend	-8567
fess	-8568
hano	-8569
inci	-8570
lady	-8571
lain	-8572
lips	-8573
pire	-8574
seem	-8575
▁MON	-8576
▁ORL	-8577
▁Rut	-8578
▁Sit	-8579
▁Tra	-8580
▁Urs	-8581
▁VAL	-8582
▁gav	-8583
▁lar	-8584
▁nod	-8585
▁owl	-8586
▁rue	-8587
▁vap	-8588
▁wra	-8589
ANDIT	-8590
Alack	-8591
Break	-8592
EDILE	-8593
IWARD	-8594
ORSET	-8595
Paris	-8596
TEZAN	-8597
about	-8598
angle	-8599
aning	-8600
cheap	-8601
endom	-8602
holus	-8603
igion	-8604
imony	-8605
piece	-8606
quiet	-8607
sweet	-8608
▁Anon	-8609
▁Dead	-8610
▁Disp	-8611
▁Fort	-8612
▁Four	-8613
▁HUGH	-8614
▁JAQU	-8615
▁Save	-8616
▁Turn	-8617
▁alms	-8618
▁bail	-8619
▁bait	-8620
▁bald	-8621
▁cent	-8622
▁chap	-8623
▁dame	-8624
▁fert	-8625
▁fift	-8626
▁grat	-8627
▁halt	-8628
▁heap	-8629
▁heel	-8630
▁inch	-8631
▁infl	-8632
▁lief	-8633
▁lily	-8634
▁limb	-8635
▁lute	-8636
▁nigh	-8637
▁pant	-8638
▁path	-8639
▁prec	-8640
▁race	-8641
▁rope	-8642
▁ruth	-8643
▁shoe	-8644
▁spot	-8645
▁sums	-8646
▁symp	-8647
▁vine	-8648
BRIDGE	-8649
Except	-8650
KEEPER	-8651
SANDYS	-8652
Venice	-8653
aggers	-8654
before	-8655
coming	-8656
eneath	-8657
estial	-8658
honour	-8659
liness	-8660
uments	-8661
ursday	-8662
▁Black	-8663
▁Canst	-8664
▁Dover	-8665
▁Phebe	-8666
▁Syrac	-8667
▁agree	-8668
▁belie	-8669
▁blank	-8670
▁block	-8671
▁chest	-8672
▁coast	-8673
▁covet	-8674
▁droop	-8675
▁eaten	-8676
▁engag	-8677
▁fixed	-8678
▁holid	-8679
▁jests	-8680
▁limit	-8681
▁lofty	-8682
▁magic	-8683
▁manly	-8684
▁prime	-8685
▁rheum	-8686
▁sails	-8687
▁spell	-8688
▁stabb	-8689
▁stops	-8690
▁suppl	-8691
▁swoon	-8692
▁unpro	-8693
▁waves	-8694
▁whipp	-8695
Britain	-8696
CITIZEN	-8697
Deliver	-8698
Present	-8699
edience	-8700
fortune	-8701
▁Albans	-8702
▁Fulvia	-8703
▁GENTLE	-8704
▁Nestor	-8705
▁Philip	-8706
▁ballad	-8707
▁became	-8708
▁brideg	-8709
▁cannon	-8710
▁chosen	-8711
▁confer	-8712
▁crimes	-8713
▁drowsy	-8714
▁eleven	-8715
▁enrich	-8716
▁famish	-8717
▁female	-8718
▁hatred	-8719
▁homage	-8720
▁impart	-8721
▁invite	-8722
▁latter	-8723
▁mantle	-8724
▁nearer	-8725
▁opport	-8726
▁patter	-8727
▁pounds	-8728
▁relish	-8729
▁salute	-8730
▁shores	-8731
▁silken	-8732
▁softly	-8733
▁statue	-8734
▁strict	-8735
▁tyrann	-8736
▁unseen	-8737
▁velvet	-8738
▁welkin	-8739
▁wilful	-8740
▁worser	-8741
OURTEZAN	-8742
▁AGRIPPA	-8743
▁Alencon	-8744
▁Beseech	-8745
▁Beshrew	-8746
▁COSTARD	-8747
▁Chamber	-8748
▁Duchess	-8749
▁ORLANDO	-8750
▁Paulina	-8751
▁Quickly	-8752
▁Rutland	-8753
▁article	-8754
▁bethink	-8755
▁chronic	-8756
▁compell	-8757
▁consort	-8758
▁curtain	-8759
▁dangers	-8760
▁discord	-8761
▁divided	-8762
▁emperor	-8763
▁encount	-8764
▁exclaim	-8765
▁exploit	-8766
▁forlorn	-8767
▁garment	-8768
▁grossly	-8769
▁heinous	-8770
▁leading	-8771
▁mystery	-8772
▁partner	-8773
▁persons	-8774
▁plainly	-8775
▁putting	-8776
▁removed	-8777
▁revenue	-8778
▁scourge	-8779
▁slaught	-8780
▁substit	-8781
▁suitors	-8782
▁surpris	-8783
▁torches	-8784
▁wanting	-8785
▁wearing	-8786
▁wonders	-8787
According	-8788
Something	-8789
▁COMINIUS	-8790
▁Cromwell	-8791
▁Lucilius	-8792
▁PANDARUS	-8793
▁Pandarus	-8794
▁Stephano	-8795
▁answered	-8796
▁articles	-8797
▁bachelor	-8798
▁baseness	-8799
▁bootless	-8800
▁borrowed	-8801
▁brethren	-8802
▁captains	-8803
▁cheerful	-8804
▁deserved	-8805
▁function	-8806
▁mistrust	-8807
▁profound	-8808
▁quarrels	-8809
▁respects	-8810
▁tomorrow	-8811
▁yielding	-8812
▁Alexander	-8813
▁Frenchmen	-8814
▁Rousillon	-8815
▁certainly	-8816
▁commodity	-8817
▁constancy	-8818
▁courteous	-8819
▁distemper	-8820
▁prevented	-8821
▁worthless	-8822
▁ambassador	-8823
▁charitable	-8824
▁gentleness	-8825
▁likelihood	-8826
▁reasonable	-8827
▁succession	-8828
▁sufficient	-8829
▁WESTMORELAND	-8830
BE	-8831
SW	-8832
ez	-8833
AIR	-8834
ILD	-8835
Ind	-8836
JOY	-8837
Lea	-8838
NEL	-8839
THE	-8840
emp	-8841
mar	-8842
ola	-8843
voc	-8844
▁4|	-8845
▁ah	-8846
ATIS	-8847
ATSW	-8848
Anon	-8849
Bard	-8850
CULE	-8851
Cont	-8852
DRAM	-8853
DULL	-8854
ENNY	-8855
Greg	-8856
ILOR	-8857
OPSA	-8858
Play	-8859
Troy	-8860
URSE	-8861
adem	-8862
anks	-8863
atus	-8864
book	-8865
bras	-8866
days	-8867
disc	-8868
ests	-8869
fret	-8870
hang	-8871
hief	-8872
ific	-8873
inth	-8874
many	-8875
mont	-8876
ouns	-8877
pray	-8878
qual	-8879
rung	-8880
tish	-8881
vise	-8882
ymph	-8883
▁App	-8884
▁BAP	-8885
▁Fle	-8886
▁Hie	-8887
▁LAV	-8888
▁Rep	-8889
▁Sur	-8890
▁bal	-8891
▁ded	-8892
▁egg	-8893
▁enf	-8894
▁ens	-8895
▁eun	-8896
▁lac	-8897
▁tea	-8898
▁tie	-8899
▁une	-8900
▁upb	-8901
▁utt	-8902
▁viz	-8903
LORDS	-8904
March	-8905
Thine	-8906
WOMAN	-8907
aniel	-8908
borne	-8909
brain	-8910
eared	-8911
envoy	-8912
eward	-8913
geons	-8914
hasar	-8915
istle	-8916
itate	-8917
lings	-8918
ocate	-8919
oughs	-8920
ulter	-8921
women	-8922
world	-8923
▁Bull	-8924
▁Does	-8925
▁Five	-8926
▁HERM	-8927
▁Lead	-8928
▁MONT	-8929
▁Phil	-8930
▁Send	-8931
▁TRIB	-8932
▁anch	-8933
▁arch	-8934
▁bide	-8935
▁brid	-8936
▁caps	-8937
▁cert	-8938
▁clay	-8939
▁crim	-8940
▁dram	-8941
▁foil	-8942
▁gage	-8943
▁gilt	-8944
▁grim	-8945
▁heal	-8946
▁howl	-8947
▁hush	-8948
▁idly	-8949
▁jack	-8950
▁lewd	-8951
▁male	-8952
▁meed	-8953
▁mudd	-8954
▁neat	-8955
▁noon	-8956
▁obst	-8957
▁omit	-8958
▁rags	-8959
▁ribs	-8960
▁surm	-8961
▁toad	-8962
▁uses	-8963
▁whet	-8964
ABBESS	-8965
ALEXAS	-8966
Better	-8967
Gainst	-8968
NELIUS	-8969
OLOGUE	-8970
Stands	-8971
Strike	-8972
Things	-8973
earest	-8974
heriff	-8975
inculo	-8976
ixenes	-8977
lected	-8978
rantic	-8979
twenty	-8980
withal	-8981
▁April	-8982
▁Ariel	-8983
▁Fifth	-8984
▁Judas	-8985
▁Lucio	-8986
▁MAYOR	-8987
▁Topas	-8988
▁abund	-8989
▁afore	-8990
▁ample	-8991
▁apply	-8992
▁assay	-8993
▁bands	-8994
▁brawl	-8995
▁bully	-8996
▁cheap	-8997
▁desol	-8998
▁entra	-8999
▁grain	-9000
▁infer	-9001
▁linen	-9002
▁moons	-9003
▁prays	-9004
▁pregn	-9005
▁ranks	-9006
▁renew	-9007
▁revel	-9008
▁scold	-9009
▁silly	-9010
▁stead	-9011
▁steed	-9012
▁stirs	-9013
▁stool	-9014
▁vanqu	-9015
AMINIUS	-9016
ATSWAIN	-9017
AUSTRIA	-9018
CULEIUS	-9019
ERSONAE	-9020
Whereto	-9021
Whither	-9022
another	-9023
chamber	-9024
isement	-9025
minster	-9026
nardine	-9027
racious	-9028
ricians	-9029
terbury	-9030
▁BRUTUS	-9031
▁Belike	-9032
▁Enough	-9033
▁Fenton	-9034
▁HERALD	-9035
▁Julius	-9036
▁MARCUS	-9037
▁PISTOL	-9038
▁POMPEY	-9039
▁Regent	-9040
▁accent	-9041
▁amazed	-9042
▁arrant	-9043
▁bereft	-9044
▁cradle	-9045
▁deeply	-9046
▁defeat	-9047
▁dwells	-9048
▁empire	-9049
▁eunuch	-9050
▁feasts	-9051
▁growth	-9052
▁horror	-9053
▁latest	-9054
▁leaden	-9055
▁marble	-9056
▁minion	-9057
▁moiety	-9058
▁motive	-9059
▁mutual	-9060
▁nobody	-9061
▁nuncle	-9062
▁obsequ	-9063
▁offers	-9064
▁passes	-9065
▁period	-9066
▁pillow	-9067
▁proves	-9068
▁purple	-9069
▁quaint	-9070
▁rebuke	-9071
▁reserv	-9072
▁rising	-9073
▁shrink	-9074
▁shroud	-9075
▁snatch	-9076
▁storms	-9077
▁tavern	-9078
▁wedded	-9079
DRAMATIS	-9080
Knocking	-9081
MAECENAS	-9082
Mistress	-9083
Remember	-9084
Together	-9085
althasar	-9086
ominable	-9087
▁Against	-9088
▁Cesario	-9089
▁Florent	-9090
▁LAVINIA	-9091
▁Phoebus	-9092
▁Shylock	-9093
▁assured	-9094
▁attends	-9095
▁confine	-9096
▁curious	-9097
▁degrees	-9098
▁descent	-9099
▁expense	-9100
▁falsely	-9101
▁feature	-9102
▁fifteen	-9103
▁hangman	-9104
▁hunting	-9105
▁minutes	-9106
▁mocking	-9107
▁nourish	-9108
▁outlive	-9109
▁parents	-9110
▁pleases	-9111
▁pursuit	-9112
▁reports	-9113
▁seeking	-9114
▁settled	-9115
▁suffice	-9116
▁support	-9117
▁sweeter	-9118
▁thereto	-9119
▁univers	-9120
▁whereon	-9121
therefore	-9122
▁BAPTISTA	-9123
▁Benvolio	-9124
▁Florence	-9125
▁MENENIUS	-9126
▁Monmouth	-9127
▁PERSONAE	-9128
▁Philippi	-9129
▁SICINIUS	-9130
▁TRIBUNES	-9131
▁affected	-9132
▁alliance	-9133
▁anointed	-9134
▁branches	-9135
▁contempl	-9136
▁deceived	-9137
▁handsome	-9138
▁humility	-9139
▁merciful	-9140
▁painting	-9141
▁smallest	-9142
▁supposed	-9143
▁swelling	-9144
▁warriors	-9145
▁HORTENSIO	-9146
▁PETRUCHIO	-9147
▁Saturnine	-9148
▁Vincentio	-9149
▁cowardice	-9150
▁deserving	-9151
▁flatterer	-9152
▁forthwith	-9153
▁judgement	-9154
▁loathsome	-9155
▁occasions	-9156
▁thousands	-9157
▁Canterbury	-9158
▁bridegroom	-9159
▁confidence	-9160
▁distracted	-9161
▁everywhere	-9162
▁experience	-9163
▁fellowship	-9164
▁flattering	-9165
▁neighbours	-9166
▁pilgrimage	-9167
▁worthiness	-9168
▁acknowledge	-9169
▁proceedings	-9170
',	-9171
BL	-9172
ae	-9173
bi	-9174
bo	-9175
rr	-9176
Add	-9177
OOL	-9178
Pre	-9179
REW	-9180
Sic	-9181
Sub	-9182
UTE	-9183
abl	-9184
aur	-9185
bet	-9186
igg	-9187
ipp	-9188
ipt	-9189
lle	-9190
mir	-9191
ply	-9192
rav	-9193
▁FL	-9194
▁OX	-9195
▁ST	-9196
▁Sn	-9197
▁eg	-9198
▁wo	-9199
Best	-9200
Capt	-9201
DAVY	-9202
Help	-9203
IENS	-9204
Live	-9205
Meet	-9206
None	-9207
Open	-9208
Supp	-9209
alus	-9210
arms	-9211
asci	-9212
aven	-9213
been	-9214
cibi	-9215
enor	-9216
fish	-9217
gins	-9218
gone	-9219
hine	-9220
itan	-9221
kill	-9222
nish	-9223
oons	-9224
oric	-9225
ouen	-9226
plex	-9227
ruly	-9228
seth	-9229
sick	-9230
uary	-9231
ugby	-9232
whel	-9233
▁Bed	-9234
▁Eno	-9235
▁Fly	-9236
▁Har	-9237
▁Hol	-9238
▁Lod	-9239
▁MOR	-9240
▁Mer	-9241
▁SIM	-9242
▁aut	-9243
▁aye	-9244
▁cro	-9245
▁les	-9246
▁lik	-9247
▁lur	-9248
▁raw	-9249
▁rig	-9250
▁rub	-9251
▁sap	-9252
▁sow	-9253
▁tow	-9254
BUSHY	-9255
DERBY	-9256
Didst	-9257
Draws	-9258
Swear	-9259
TIMER	-9260
Touch	-9261
arius	-9262
avish	-9263
could	-9264
drunk	-9265
ednes	-9266
iable	-9267
icity	-9268
inane	-9269
inish	-9270
liest	-9271
maker	-9272
neath	-9273
orset	-9274
oster	-9275
pulch	-9276
these	-9277
thorn	-9278
ually	-9279
▁Beau	-9280
▁Doll	-9281
▁FLOR	-9282
▁IRAS	-9283
▁Juno	-9284
▁Live	-9285
▁Nell	-9286
▁Seek	-9287
▁Wood	-9288
▁baby	-9289
▁bone	-9290
▁bulk	-9291
▁chaf	-9292
▁clos	-9293
▁cong	-9294
▁cull	-9295
▁dash	-9296
▁file	-9297
▁fram	-9298
▁idol	-9299
▁keys	-9300
▁loat	-9301
▁priz	-9302
▁sung	-9303
▁tick	-9304
▁toys	-9305
▁vein	-9306
▁weal	-9307
▁whir	-9308
ARDIAN	-9309
Appear	-9310
Beyond	-9311
CAPHIS	-9312
Cousin	-9313
GAOLER	-9314
GENTLE	-9315
Kneels	-9316
OXFORD	-9317
YRAMUS	-9318
better	-9319
enough	-9320
hearse	-9321
inbras	-9322
inking	-9323
iquity	-9324
isting	-9325
livion	-9326
ousins	-9327
pitaph	-9328
sembly	-9329
tongue	-9330
▁Anjou	-9331
▁Diana	-9332
▁Knock	-9333
▁Sleep	-9334
▁WIDOW	-9335
▁While	-9336
▁abbey	-9337
▁allay	-9338
▁annoy	-9339
▁built	-9340
▁choke	-9341
▁crept	-9342
▁crows	-9343
▁crush	-9344
▁debts	-9345
▁divin	-9346
▁dried	-9347
▁dropp	-9348
▁harms	-9349
▁hides	-9350
▁lacks	-9351
▁nymph	-9352
▁rated	-9353
▁rings	-9354
▁sands	-9355
▁scant	-9356
▁scarf	-9357
▁scars	-9358
▁stiff	-9359
▁sugar	-9360
▁taunt	-9361
▁theft	-9362
▁tiger	-9363
▁tutor	-9364
▁usure	-9365
▁vouch	-9366
▁wakes	-9367
▁wiser	-9368
▁woods	-9369
▁wring	-9370
Becomes	-9371
OCTAVIA	-9372
Richard	-9373
VALERIA	-9374
antages	-9375
iculous	-9376
irectly	-9377
sembled	-9378
▁Alcibi	-9379
▁Andrew	-9380
▁Either	-9381
▁Enobar	-9382
▁FABIAN	-9383
▁LAUNCE	-9384
▁OXFORD	-9385
▁Ursula	-9386
▁abused	-9387
▁ascend	-9388
▁believ	-9389
▁bigger	-9390
▁bloods	-9391
▁causes	-9392
▁coffin	-9393
▁contag	-9394
▁cuckoo	-9395
▁cudgel	-9396
▁declin	-9397
▁despis	-9398
▁enters	-9399
▁entire	-9400
▁exceed	-9401
▁excess	-9402
▁flying	-9403
▁gladly	-9404
▁gloves	-9405
▁highly	-9406
▁homely	-9407
▁keeper	-9408
▁landed	-9409
▁papers	-9410
▁plight	-9411
▁rabble	-9412
▁region	-9413
▁relent	-9414
▁revels	-9415
▁richer	-9416
▁squire	-9417
▁thirst	-9418
▁thorns	-9419
▁vision	-9420
LUCILIUS	-9421
PANTHINO	-9422
PHILARIO	-9423
RICHMOND	-9424
ednesday	-9425
unsinane	-9426
▁Bastard	-9427
▁CHARLES	-9428
▁Content	-9429
▁Masters	-9430
▁Nerissa	-9431
▁PROTEUS	-9432
▁QUICKLY	-9433
▁Revenge	-9434
▁Steward	-9435
▁address	-9436
▁antique	-9437
▁asunder	-9438
▁created	-9439
▁despise	-9440
▁disguis	-9441
▁dislike	-9442
▁fertile	-9443
▁frantic	-9444
▁furious	-9445
▁highest	-9446
▁holding	-9447
▁kinsmen	-9448
▁leather	-9449
▁parties	-9450
▁playing	-9451
▁preserv	-9452
▁rascals	-9453
▁recount	-9454
▁reproof	-9455
▁ruffian	-9456
▁sepulch	-9457
▁tainted	-9458
▁tempted	-9459
▁warning	-9460
▁worldly	-9461
BASSIANUS	-9462
HIPPOLYTA	-9463
MAMILLIUS	-9464
Methought	-9465
ascivious	-9466
▁AUFIDIUS	-9467
▁Laurence	-9468
▁PROSPERO	-9469
▁ROSALIND	-9470
▁Trinculo	-9471
▁bringing	-9472
▁churlish	-9473
▁cowardly	-9474
▁detested	-9475
▁fruitful	-9476
▁intended	-9477
▁mightily	-9478
▁oblivion	-9479
▁offender	-9480
▁passions	-9481
▁pregnant	-9482
▁religion	-9483
▁reported	-9484
▁restrain	-9485
▁scarcely	-9486
▁shameful	-9487
▁slanders	-9488
▁stomachs	-9489
▁untimely	-9490
▁usurping	-9491
Gloucester	-9492
▁ARVIRAGUS	-9493
▁Polixenes	-9494
▁beautiful	-9495
▁breakfast	-9496
▁celestial	-9497
▁concluded	-9498
▁corrupted	-9499
▁forgotten	-9500
▁nobleness	-9501
▁notorious	-9502
▁overthrow	-9503
▁patiently	-9504
▁readiness	-9505
▁reckoning	-9506
▁strangers	-9507
▁transform	-9508
▁transport	-9509
▁trembling	-9510
▁Alcibiades	-9511
▁Alexandria	-9512
▁Antipholus	-9513
▁affliction	-9514
▁approaches	-9515
▁companions	-9516
▁corruption	-9517
▁discipline	-9518
▁excellence	-9519
▁excursions	-9520
▁impediment	-9521
▁observance	-9522
▁oppression	-9523
▁ridiculous	-9524
▁triumphant	-9525
▁visitation	-9526
▁commandment	-9527
▁composition	-9528
▁description	-9529
▁fantastical	-9530
▁grandfather	-9531
▁imprisonment	-9532
'"	-9533
Gu	-9534
NO	-9535
WO	-9536
je	-9537
lo	-9538
po	-9539
sy	-9540
▁X	-9541
Bea	-9542
Den	-9543
Emb	-9544
IAM	-9545
REL	-9546
Rey	-9547
Run	-9548
War	-9549
cer	-9550
cor	-9551
cts	-9552
erd	-9553
eys	-9554
ico	-9555
mad	-9556
occ	-9557
reb	-9558
rec	-9559
rot	-9560
▁Si	-9561
▁ju	-9562
Alex	-9563
Char	-9564
Drum	-9565
High	-9566
IGOT	-9567
LUCY	-9568
Lend	-9569
NOUT	-9570
Over	-9571
RIFF	-9572
Rich	-9573
THEN	-9574
agon	-9575
ared	-9576
arre	-9577
calf	-9578
ella	-9579
ello	-9580
enix	-9581
hern	-9582
hire	-9583
inch	-9584
inus	-9585
lebr	-9586
made	-9587
mbel	-9588
miss	-9589
olve	-9590
ounc	-9591
recy	-9592
tock	-9593
turn	-9594
uate	-9595
ushi	-9596
wind	-9597
▁Ass	-9598
▁Aud	-9599
▁LOV	-9600
▁Len	-9601
▁Met	-9602
▁Pal	-9603
▁Six	-9604
▁Tar	-9605
▁Var	-9606
▁dol	-9607
▁eff	-9608
▁fre	-9609
▁fut	-9610
▁hal	-9611
▁mor	-9612
▁mus	-9613
▁oil	-9614
▁por	-9615
▁rod	-9616
▁toe	-9617
▁wea	-9618
▁yon	-9619
GHOST	-9620
MOPSA	-9621
Marry	-9622
North	-9623
ORCAS	-9624
PLEBE	-9625
Peace	-9626
Pluck	-9627
YRREL	-9628
achio	-9629
acity	-9630
ading	-9631
atage	-9632
berry	-9633
ceeds	-9634
civil	-9635
emand	-9636
ernon	-9637
erved	-9638
heads	-9639
imber	-9640
imple	-9641
itiff	-9642
large	-9643
llies	-9644
month	-9645
ottom	-9646
plish	-9647
somet	-9648
stood	-9649
swear	-9650
three	-9651
umain	-9652
vided	-9653
▁Gert	-9654
▁Head	-9655
▁Host	-9656
▁Illy	-9657
▁Moon	-9658
▁Pole	-9659
▁Talk	-9660
▁Vent	-9661
▁airy	-9662
▁balm	-9663
▁bath	-9664
▁blem	-9665
▁brag	-9666
▁buds	-9667
▁buff	-9668
▁chim	-9669
▁clap	-9670
▁copy	-9671
▁deem	-9672
▁doct	-9673
▁dole	-9674
▁ecst	-9675
▁feat	-9676
▁fulf	-9677
▁glow	-9678
▁gust	-9679
▁hood	-9680
▁jump	-9681
▁leaf	-9682
▁mang	-9683
▁muff	-9684
▁mute	-9685
▁nurs	-9686
▁pent	-9687
▁pipe	-9688
▁rein	-9689
▁rent	-9690
▁tire	-9691
▁trag	-9692
▁trow	-9693
▁whel	-9694
Brutus	-9695
Kisses	-9696
Nature	-9697
Worthy	-9698
ancies	-9699
answer	-9700
antity	-9701
edient	-9702
ention	-9703
follow	-9704
idents	-9705
ignier	-9706
inions	-9707
isters	-9708
orship	-9709
ostard	-9710
racted	-9711
rehend	-9712
riment	-9713
romise	-9714
strong	-9715
ucelle	-9716
▁AARON	-9717
▁ATHEN	-9718
▁CELIA	-9719
▁Could	-9720
▁Hadst	-9721
▁LAFEU	-9722
▁Rouen	-9723
▁Rugby	-9724
▁VIOLA	-9725
▁added	-9726
▁amain	-9727
▁arras	-9728
▁array	-9729
▁bills	-9730
▁canop	-9731
▁cryst	-9732
▁deriv	-9733
▁gains	-9734
▁goest	-9735
▁groom	-9736
▁grove	-9737
▁hates	-9738
▁helps	-9739
▁impud	-9740
▁lance	-9741
▁lists	-9742
▁madly	-9743
▁mouse	-9744
▁owner	-9745
▁pangs	-9746
▁prett	-9747
▁safer	-9748
▁sauce	-9749
▁separ	-9750
▁slack	-9751
▁spurs	-9752
▁tardy	-9753
▁thigh	-9754
▁truce	-9755
▁truer	-9756
▁waist	-9757
Forgive	-9758
Fortune	-9759
Knowing	-9760
RIFFITH	-9761
Sicilia	-9762
angling	-9763
certain	-9764
deliver	-9765
igation	-9766
indarus	-9767
married	-9768
mbeline	-9769
monster	-9770
unction	-9771
▁Jaques	-9772
▁Ladies	-9773
▁Norway	-9774
▁SILVIA	-9775
▁TRANIO	-9776
▁Vernon	-9777
▁WOLSEY	-9778
▁Zounds	-9779
▁abject	-9780
▁accomp	-9781
▁acquit	-9782
▁agreed	-9783
▁attach	-9784
▁batter	-9785
▁branch	-9786
▁casket	-9787
▁circle	-9788
▁cities	-9789
▁coldly	-9790
▁confin	-9791
▁consec	-9792
▁curtsy	-9793
▁detest	-9794
▁digest	-9795
▁dismay	-9796
▁driven	-9797
▁forced	-9798
▁habits	-9799
▁hinder	-9800
▁majest	-9801
▁melted	-9802
▁napkin	-9803
▁oppose	-9804
▁parcel	-9805
▁permit	-9806
▁proofs	-9807
▁resort	-9808
▁scroll	-9809
▁sevent	-9810
▁starts	-9811
▁steals	-9812
▁sweets	-9813
▁sympat	-9814
▁tokens	-9815
▁transg	-9816
▁truant	-9817
▁unruly	-9818
▁wasted	-9819
▁wolves	-9820
ABHORSON	-9821
CAMPEIUS	-9822
Proclaim	-9823
▁Certain	-9824
▁Commend	-9825
▁Marshal	-9826
▁Pomfret	-9827
▁Sicilia	-9828
▁adulter	-9829
▁capable	-9830
▁clamour	-9831
▁courses	-9832
▁distill	-9833
▁embassy	-9834
▁fantasy	-9835
▁feeding	-9836
▁footing	-9837
▁gravity	-9838
▁happier	-9839
▁haughty	-9840
▁heavier	-9841
▁impeach	-9842
▁intends	-9843
▁killing	-9844
▁knavery	-9845
▁leaving	-9846
▁longing	-9847
▁mansion	-9848
▁meanest	-9849
▁million	-9850
▁naughty	-9851
▁oppress	-9852
▁pastime	-9853
▁priests	-9854
▁produce	-9855
▁provoke	-9856
▁relieve	-9857
▁returns	-9858
▁secrecy	-9859
▁serving	-9860
▁talents	-9861
▁threats	-9862
▁trifles	-9863
▁walking	-9864
▁warrior	-9865
▁wronged	-9866
CASSANDRA	-9867
CORNELIUS	-9868
PLEBEIANS	-9869
gentleman	-9870
▁ATHENIAN	-9871
▁CHARMIAN	-9872
▁Citizens	-9873
▁Gertrude	-9874
▁Leonatus	-9875
▁Menenius	-9876
▁RATCLIFF	-9877
▁Thursday	-9878
▁accursed	-9879
▁assembly	-9880
▁bastards	-9881
▁bestowed	-9882
▁boldness	-9883
▁disguise	-9884
▁enforced	-9885
▁extremes	-9886
▁farthest	-9887
▁fountain	-9888
▁frowning	-9889
▁harmless	-9890
▁idleness	-9891
▁instinct	-9892
▁laughing	-9893
▁moreover	-9894
▁penitent	-9895
▁powerful	-9896
▁property	-9897
▁proudest	-9898
▁resolute	-9899
▁revenges	-9900
▁stratage	-9901
▁threaten	-9902
▁touching	-9903
▁worthier	-9904
JAQUENETTA	-9905
▁Brabantio	-9906
▁Cymbeline	-9907
▁Enobarbus	-9908
▁GENTLEMEN	-9909
▁Something	-9910
▁accidents	-9911
▁beginning	-9912
▁damnation	-9913
▁dignities	-9914
▁endeavour	-9915
▁husbandry	-9916
▁infirmity	-9917
▁insolence	-9918
▁universal	-9919
▁Fortinbras	-9920
▁WINCHESTER	-9921
▁negligence	-9922
▁parliament	-9923
▁profession	-9924
▁prosperity	-9925
▁underneath	-9926
▁villainous	-9927
▁BOLINGBROKE	-9928
▁Christendom	-9929
▁opportunity	-9930
▁superfluous	-9931
▁discontented	-9932
Kn	-9933
Wr	-9934
YO	-9935
ye	-9936
Ass	-9937
DEC	-9938
End	-9939
GOT	-9940
New	-9941
Oft	-9942
Str	-9943
TID	-9944
Ten	-9945
Tro	-9946
dra	-9947
fig	-9948
fle	-9949
ops	-9950
ott	-9951
poc	-9952
pse	-9953
rab	-9954
try	-9955
two	-9956
uba	-9957
▁3|	-9958
▁Cr	-9959
▁Pe	-9960
▁cu	-9961
▁pa	-9962
ANCH	-9963
Ever	-9964
GREY	-9965
Gave	-9966
LEOM	-9967
Page	-9968
SHAL	-9969
aved	-9970
bler	-9971
disp	-9972
door	-9973
ffer	-9974
firm	-9975
gery	-9976
gown	-9977
ifer	-9978
ists	-9979
lers	-9980
lict	-9981
lier	-9982
lion	-9983
make	-9984
olks	-9985
pite	-9986
poor	-9987
rade	-9988
rian	-9989
seed	-9990
serv	-9991
thus	-9992
tied	-9993
unch	-9994
vous	-9995
▁ACH	-9996
▁ARM	-9997
▁Acc	-9998
▁Amb	-9999
▁Ask	-10000
▁Eur	-10001
▁Got	-10002
▁Inn	-10003
▁Ors	-10004
▁Row	-10005
▁STA	-10006
▁ast	-10007
▁ber	-10008
▁cab	-10009
▁fet	-10010
▁gam	-10011
▁pup	-10012
▁rad	-10013
▁toy	-10014
ANDER	-10015
Blunt	-10016
Grace	-10017
Lives	-10018
Proud	-10019
Throw	-10020
YOUNG	-10021
andra	-10022
athan	-10023
chest	-10024
ching	-10025
ected	-10026
elaus	-10027
elids	-10028
ellus	-10029
glass	-10030
hesus	-10031
iding	-10032
ifter	-10033
ilius	-10034
imate	-10035
inter	-10036
nance	-10037
otent	-10038
ourer	-10039
plain	-10040
rempt	-10041
retty	-10042
ridge	-10043
uncle	-10044
while	-10045
▁Bona	-10046
▁Drum	-10047
▁Faul	-10048
▁PUCK	-10049
▁Pisa	-10050
▁SONG	-10051
▁Thee	-10052
▁Tush	-10053
▁ages	-10054
▁arts	-10055
▁bars	-10056
▁beef	-10057
▁boat	-10058
▁caus	-10059
▁curb	-10060
▁desc	-10061
▁earl	-10062
▁guts	-10063
▁herd	-10064
▁hook	-10065
▁igno	-10066
▁lime	-10067
▁lull	-10068
▁mort	-10069
▁pert	-10070
▁prim	-10071
▁rode	-10072
▁scap	-10073
▁shop	-10074
▁smil	-10075
▁torn	-10076
▁unth	-10077
AUDREY	-10078
Almost	-10079
DECIUS	-10080
Father	-10081
Mother	-10082
SCARUS	-10083
TIDIUS	-10084
VERNON	-10085
angled	-10086
arison	-10087
cellus	-10088
change	-10089
ending	-10090
esture	-10091
honest	-10092
iction	-10093
iggard	-10094
iously	-10095
pardon	-10096
queath	-10097
rement	-10098
twould	-10099
utboys	-10100
verted	-10101
▁Irish	-10102
▁Titan	-10103
▁Trust	-10104
▁Uncle	-10105
▁adder	-10106
▁arbit	-10107
▁banks	-10108
▁bawdy	-10109
▁clown	-10110
▁crime	-10111
▁cushi	-10112
▁discl	-10113
▁dower	-10114
▁eager	-10115
▁eloqu	-10116
▁endur	-10117
▁ensue	-10118
▁escap	-10119
▁favor	-10120
▁feats	-10121
▁fence	-10122
▁games	-10123
▁girls	-10124
▁greyh	-10125
▁lowly	-10126
▁model	-10127
▁moody	-10128
▁noses	-10129
▁occup	-10130
▁plots	-10131
▁popul	-10132
▁privy	-10133
▁prote	-10134
▁regal	-10135
▁remov	-10136
▁rests	-10137
▁rumin	-10138
▁scald	-10139
▁sheet	-10140
▁sorts	-10141
▁subdu	-10142
▁sweep	-10143
▁talks	-10144
▁taper	-10145
▁witty	-10146
Receive	-10147
counter	-10148
fellows	-10149
friends	-10150
picious	-10151
present	-10152
respect	-10153
stances	-10154
willing	-10155
without	-10156
▁ANDREW	-10157
▁Answer	-10158
▁BANDIT	-10159
▁Better	-10160
▁CHIRON	-10161
▁CLOTEN	-10162
▁Dorset	-10163
▁Gallia	-10164
▁Orsino	-10165
▁SIMPLE	-10166
▁Surrey	-10167
▁THOMAS	-10168
▁Yonder	-10169
▁arrows	-10170
▁attire	-10171
▁basest	-10172
▁boldly	-10173
▁brazen	-10174
▁celebr	-10175
▁centre	-10176
▁compul	-10177
▁daring	-10178
▁debate	-10179
▁diadem	-10180
▁disper	-10181
▁embrac	-10182
▁enforc	-10183
▁events	-10184
▁fiends	-10185
▁future	-10186
▁gazing	-10187
▁gentry	-10188
▁gossip	-10189
▁harlot	-10190
▁leader	-10191
▁losses	-10192
▁meaner	-10193
▁mended	-10194
▁plucks	-10195
▁porter	-10196
▁princi	-10197
▁proved	-10198
▁provok	-10199
▁repeal	-10200
▁restor	-10201
▁richly	-10202
▁square	-10203
▁steeds	-10204
▁suborn	-10205
▁summon	-10206
▁tables	-10207
▁tenour	-10208
▁unlike	-10209
▁villan	-10210
GRIFFITH	-10211
LEOMENES	-10212
SPIRATOR	-10213
Sometime	-10214
Trumpets	-10215
mannerly	-10216
ourscore	-10217
▁BEDFORD	-10218
▁Heavens	-10219
▁Illyria	-10220
▁Italian	-10221
▁LEONTES	-10222
▁Mercury	-10223
▁Rowland	-10224
▁SLENDER	-10225
▁Theseus	-10226
▁ULYSSES	-10227
▁adverse	-10228
▁affords	-10229
▁beating	-10230
▁caitiff	-10231
▁calling	-10232
▁capital	-10233
▁captive	-10234
▁carrion	-10235
▁chances	-10236
▁charges	-10237
▁compact	-10238
▁concern	-10239
▁crooked	-10240
▁daggers	-10241
▁epitaph	-10242
▁fasting	-10243
▁figures	-10244
▁follies	-10245
▁holiday	-10246
▁inhabit	-10247
▁lasting	-10248
▁lunatic	-10249
▁mangled	-10250
▁motions	-10251
▁mounted	-10252
▁notable	-10253
▁obscure	-10254
▁pattern	-10255
▁perempt	-10256
▁pigeons	-10257
▁plagues	-10258
▁praised	-10259
▁project	-10260
▁propose	-10261
▁proverb	-10262
▁publish	-10263
▁receipt	-10264
▁reconci	-10265
▁scatter	-10266
▁shelter	-10267
▁smother	-10268
▁studied	-10269
▁succour	-10270
▁surgeon	-10271
▁temples	-10272
▁weighty	-10273
BOATSWAIN	-10274
FLAMINIUS	-10275
fortunate	-10276
▁ACHILLES	-10277
▁Hermione	-10278
▁Menelaus	-10279
▁Prospero	-10280
▁SHEPHERD	-10281
▁STAFFORD	-10282
▁WATCHMAN	-10283
▁admitted	-10284
▁applause	-10285
▁champion	-10286
▁chiefest	-10287
▁commends	-10288
▁contrive	-10289
▁covetous	-10290
▁devilish	-10291
▁directed	-10292
▁discharg	-10293
▁dwelling	-10294
▁enfranch	-10295
▁perilous	-10296
▁progress	-10297
▁prophecy	-10298
▁quantity	-10299
▁recreant	-10300
▁requests	-10301
▁resolved	-10302
▁rightful	-10303
▁security	-10304
▁thorough	-10305
▁troubles	-10306
▁wrathful	-10307
▁AGAMEMNON	-10308
▁Frenchman	-10309
▁Wednesday	-10310
▁admirable	-10311
▁heaviness	-10312
▁malicious	-10313
▁merriment	-10314
▁mortality	-10315
▁musicians	-10316
▁presented	-10317
▁restraint	-10318
▁subscribe	-10319
▁worthiest	-10320
GENTLEWOMAN	-10321
▁ARCHBISHOP	-10322
▁Barnardine	-10323
▁Florentine	-10324
▁Messengers	-10325
▁SERVINGMAN	-10326
▁churchyard	-10327
▁lamentable	-10328
▁patricians	-10329
▁pestilence	-10330
▁philosophy	-10331
▁protection	-10332
▁simplicity	-10333
▁tenderness	-10334
▁whatsoever	-10335
▁CHAMBERLAIN	-10336
▁executioner	-10337
▁immediately	-10338
▁instruction	-10339
▁twelvemonth	-10340
▁apprehension	-10341
▁Faulconbridge	-10342
13	-10343
14	-10344
ba	-10345
▁2	-10346
Def	-10347
Imm	-10348
Lau	-10349
Pur	-10350
ULI	-10351
aby	-10352
dow	-10353
eap	-10354
hot	-10355
imo	-10356
nox	-10357
ode	-10358
orm	-10359
pri	-10360
tra	-10361
uto	-10362
▁AP	-10363
▁Bi	-10364
▁Ow	-10365
▁au	-10366
▁ge	-10367
▁jo	-10368
▁wi	-10369
ADAM	-10370
Been	-10371
Disc	-10372
ERCY	-10373
FRAN	-10374
IERS	-10375
ISLE	-10376
PILO	-10377
Part	-10378
RATE	-10379
STER	-10380
Time	-10381
ario	-10382
atin	-10383
call	-10384
cies	-10385
fire	-10386
into	-10387
itus	-10388
mans	-10389
mind	-10390
much	-10391
orns	-10392
othe	-10393
pple	-10394
quer	-10395
quit	-10396
show	-10397
sold	-10398
test	-10399
true	-10400
udes	-10401
uell	-10402
unct	-10403
vice	-10404
xton	-10405
▁CAL	-10406
▁Dol	-10407
▁Eve	-10408
▁Gri	-10409
▁Jer	-10410
▁Min	-10411
▁Mis	-10412
▁STE	-10413
▁Saw	-10414
▁Ser	-10415
▁Str	-10416
▁ash	-10417
▁bef	-10418
▁cas	-10419
▁ced	-10420
▁ken	-10421
▁lux	-10422
▁map	-10423
▁mew	-10424
▁nut	-10425
▁obl	-10426
▁pir	-10427
▁poo	-10428
▁raz	-10429
▁tak	-10430
▁tun	-10431
Chief	-10432
Drink	-10433
Falls	-10434
GREEN	-10435
Point	-10436
Prove	-10437
Stabs	-10438
Trans	-10439
UGHBY	-10440
ULIET	-10441
adise	-10442
andon	-10443
bbles	-10444
break	-10445
cline	-10446
death	-10447
devil	-10448
doubt	-10449
erkin	-10450
every	-10451
faith	-10452
first	-10453
grace	-10454
icing	-10455
ienna	-10456
ifies	-10457
inent	-10458
journ	-10459
loyal	-10460
marry	-10461
mercy	-10462
olles	-10463
orate	-10464
owned	-10465
rates	-10466
renzy	-10467
smith	-10468
stock	-10469
suing	-10470
tween	-10471
white	-10472
whore	-10473
▁ALEN	-10474
▁Barb	-10475
▁Bell	-10476
▁Dido	-10477
▁Dieu	-10478
▁Ever	-10479
▁Full	-10480
▁Gonz	-10481
▁Into	-10482
▁MOTH	-10483
▁Russ	-10484
▁Sirs	-10485
▁abst	-10486
▁ache	-10487
▁ague	-10488
▁awak	-10489
▁bate	-10490
▁bowl	-10491
▁bree	-10492
▁cloy	-10493
▁coal	-10494
▁coil	-10495
▁fest	-10496
▁fowl	-10497
▁fres	-10498
▁gull	-10499
▁hurl	-10500
▁jade	-10501
▁lawy	-10502
▁leek	-10503
▁liar	-10504
▁lodg	-10505
▁marr	-10506
▁mate	-10507
▁meek	-10508
▁nail	-10509
▁prat	-10510
▁reek	-10511
▁repl	-10512
▁roll	-10513
▁sith	-10514
▁size	-10515
▁surv	-10516
▁tops	-10517
▁trod	-10518
▁trop	-10519
▁unfe	-10520
▁wave	-10521
Answer	-10522
DORCAS	-10523
Hector	-10524
Oswald	-10525
SCROOP	-10526
SIWARD	-10527
STRATE	-10528
TAILOR	-10529
Verona	-10530
albain	-10531
avarre	-10532
colour	-10533
estern	-10534
inence	-10535
ixteen	-10536
leanor	-10537
little	-10538
llowed	-10539
matter	-10540
uellen	-10541
untary	-10542
usions	-10543
ventry	-10544
▁Biond	-10545
▁Fetch	-10546
▁Gower	-10547
▁PERCY	-10548
▁PETER	-10549
▁Spain	-10550
▁VARRO	-10551
▁Venet	-10552
▁Women	-10553
▁YOUNG	-10554
▁actor	-10555
▁apple	-10556
▁badge	-10557
▁beest	-10558
▁bells	-10559
▁chari	-10560
▁cords	-10561
▁dally	-10562
▁devis	-10563
▁disob	-10564
▁elbow	-10565
▁excus	-10566
▁feeds	-10567
▁fully	-10568
▁gloss	-10569
▁hound	-10570
▁hurts	-10571
▁jades	-10572
▁labor	-10573
▁lambs	-10574
▁loins	-10575
▁meets	-10576
▁moist	-10577
▁outst	-10578
▁parle	-10579
▁posts	-10580
▁prate	-10581
▁pupil	-10582
▁quake	-10583
▁rages	-10584
▁reads	-10585
▁rises	-10586
▁scale	-10587
▁scatt	-10588
▁sixth	-10589
▁songs	-10590
▁stray	-10591
▁thumb	-10592
▁tired	-10593
▁tower	-10594
▁treat	-10595
▁unlaw	-10596
▁vices	-10597
▁whate	-10598
ARLISLE	-10599
Capulet	-10600
FRANCIS	-10601
MARTIUS	-10602
MONTJOY	-10603
OLDIERS	-10604
PILOGUE	-10605
Prithee	-10606
THYREUS	-10607
Troilus	-10608
Windsor	-10609
enerate	-10610
ination	-10611
nothing	-10612
orachio	-10613
quisite	-10614
▁AENEAS	-10615
▁Audrey	-10616
▁Bottom	-10617
▁Calais	-10618
▁Dumain	-10619
▁Forest	-10620
▁HECTOR	-10621
▁Hecuba	-10622
▁Herald	-10623
▁Lennox	-10624
▁Marian	-10625
▁OLIVIA	-10626
▁Parthi	-10627
▁Rivers	-10628
▁Scroop	-10629
▁Whence	-10630
▁Worthi	-10631
▁arrive	-10632
▁asking	-10633
▁assail	-10634
▁beguil	-10635
▁broils	-10636
▁cheese	-10637
▁chival	-10638
▁christ	-10639
▁compet	-10640
▁compos	-10641
▁deeper	-10642
▁dishes	-10643
▁distin	-10644
▁drives	-10645
▁faster	-10646
▁fights	-10647
▁fitted	-10648
▁flames	-10649
▁frenzy	-10650
▁gaoler	-10651
▁glance	-10652
▁handle	-10653
▁happen	-10654
▁insult	-10655
▁kneels	-10656
▁levied	-10657
▁linger	-10658
▁lively	-10659
▁lustre	-10660
▁merits	-10661
▁motley	-10662
▁plough	-10663
▁reform	-10664
▁relief	-10665
▁saints	-10666
▁sayest	-10667
▁shriek	-10668
▁throws	-10669
▁treble	-10670
▁upward	-10671
▁vilely	-10672
▁winged	-10673
▁wisest	-10674
▁yields	-10675
Bardolph	-10676
CANIDIUS	-10677
Kneeling	-10678
MENELAUS	-10679
ounsieur	-10680
question	-10681
rebonius	-10682
▁ALENCON	-10683
▁Costard	-10684
▁Eleanor	-10685
▁Murther	-10686
▁Prepare	-10687
▁Pucelle	-10688
▁abandon	-10689
▁afflict	-10690
▁applaud	-10691
▁beggary	-10692
▁beneath	-10693
▁betters	-10694
▁blushes	-10695
▁briefly	-10696
▁coffers	-10697
▁contrad	-10698
▁crimson	-10699
▁crystal	-10700
▁decrees	-10701
▁disgrac	-10702
▁ecstasy	-10703
▁eyelids	-10704
▁fancies	-10705
▁greatly	-10706
▁impress	-10707
▁inquire	-10708
▁instead	-10709
▁labours	-10710
▁lechery	-10711
▁nearest	-10712
▁niggard	-10713
▁offense	-10714
▁pasture	-10715
▁payment	-10716
▁penalty	-10717
▁practis	-10718
▁seasons	-10719
▁studies	-10720
▁turning	-10721
▁upbraid	-10722
▁wayward	-10723
ILLOUGHBY	-10724
Perchance	-10725
uneration	-10726
▁Beaufort	-10727
▁CRESSIDA	-10728
▁Corporal	-10729
▁Dispatch	-10730
▁Fluellen	-10731
▁PEMBROKE	-10732
▁Parolles	-10733
▁bankrupt	-10734
▁changing	-10735
▁childish	-10736
▁contains	-10737
▁disorder	-10738
▁drunkard	-10739
▁entreaty	-10740
▁feathers	-10741
▁follower	-10742
▁forgiven	-10743
▁frighted	-10744
▁humorous	-10745
▁knocking	-10746
▁manifest	-10747
▁meantime	-10748
▁miscarry	-10749
▁monsieur	-10750
▁musician	-10751
▁nativity	-10752
▁nighting	-10753
▁opinions	-10754
▁personal	-10755
▁receives	-10756
▁rehearse	-10757
▁requires	-10758
▁secretly	-10759
▁somewhat	-10760
▁spacious	-10761
▁trencher	-10762
▁wretches	-10763
▁wrinkled	-10764
▁wrinkles	-10765
BRAKENBURY	-10766
PROCULEIUS	-10767
▁Biondello	-10768
▁Cambridge	-10769
▁Donalbain	-10770
▁FERDINAND	-10771
▁GUIDERIUS	-10772
▁VALENTINE	-10773
▁Ventidius	-10774
▁constrain	-10775
▁continent	-10776
▁goldsmith	-10777
▁imperious	-10778
▁interpret	-10779
▁interrupt	-10780
▁judgments	-10781
▁neglected	-10782
▁plainness	-10783
▁plenteous	-10784
▁practices	-10785
▁sanctuary	-10786
▁sepulchre	-10787
▁stockings	-10788
▁testimony	-10789
▁throughly	-10790
▁tyrannous	-10791
▁appearance	-10792
▁assistance	-10793
▁compliment	-10794
▁counsellor	-10795
▁marvellous	-10796
▁peremptory	-10797
▁victorious	-10798
▁dissembling	-10799
▁inheritance	-10800
▁necessities	-10801
▁performance	-10802
▁yesternight	-10803
▁schoolmaster	-10804
▁commendations	-10805
▁contemplation	-10806
Ac	-10807
Ap	-10808
EI	-10809
EY	-10810
Lu	-10811
Ro	-10812
Ye	-10813
uy	-10814
Arm	-10815
Cut	-10816
Div	-10817
ERY	-10818
HIT	-10819
IFE	-10820
Int	-10821
LEX	-10822
Mon	-10823
PHR	-10824
PUR	-10825
Rel	-10826
VEN	-10827
VEY	-10828
ait	-10829
ano	-10830
did	-10831
dle	-10832
eps	-10833
ext	-10834
iot	-10835
irn	-10836
mel	-10837
mes	-10838
mor	-10839
nor	-10840
pal	-10841
ubs	-10842
why	-10843
wny	-10844
▁LY	-10845
▁Ye	-10846
▁cy	-10847
▁ew	-10848
AIRY	-10849
ALTH	-10850
Cass	-10851
Dare	-10852
ERGE	-10853
Free	-10854
GEUS	-10855
GLAM	-10856
Happ	-10857
MAST	-10858
MITH	-10859
MORE	-10860
OBIN	-10861
OWER	-10862
Puts	-10863
RIAR	-10864
ROTH	-10865
Sits	-10866
Suff	-10867
UPHR	-10868
USIC	-10869
XTON	-10870
alem	-10871
amps	-10872
arce	-10873
atcl	-10874
ayer	-10875
case	-10876
chas	-10877
cont	-10878
dges	-10879
eaux	-10880
ersu	-10881
fair	-10882
find	-10883
flow	-10884
gold	-10885
iard	-10886
iban	-10887
ibly	-10888
idow	-10889
lear	-10890
mean	-10891
meet	-10892
once	-10893
pare	-10894
phan	-10895
ream	-10896
rier	-10897
rose	-10898
skin	-10899
song	-10900
spur	-10901
suff	-10902
supp	-10903
till	-10904
told	-10905
umps	-10906
▁BUR	-10907
▁Che	-10908
▁Col	-10909
▁DER	-10910
▁Der	-10911
▁Die	-10912
▁Egl	-10913
▁Ely	-10914
▁MAL	-10915
▁MRS	-10916
▁NER	-10917
▁New	-10918
▁Roy	-10919
▁Run	-10920
▁SUR	-10921
▁Ten	-10922
▁Woe	-10923
▁cod	-10924
▁cow	-10925
▁cue	-10926
▁don	-10927
▁giv	-10928
▁gun	-10929
▁ham	-10930
▁jar	-10931
▁kit	-10932
▁lic	-10933
▁los	-10934
▁pud	-10935
▁rud	-10936
▁vac	-10937
▁web	-10938
▁wip	-10939
Awake	-10940
Count	-10941
Cries	-10942
FLUTE	-10943
Harry	-10944
Light	-10945
PERCY	-10946
Right	-10947
Steal	-10948
VEYOR	-10949
VILLE	-10950
ables	-10951
abour	-10952
athar	-10953
bable	-10954
begot	-10955
black	-10956
blind	-10957
conce	-10958
crown	-10959
eable	-10960
edict	-10961
ender	-10962
feits	-10963
fleur	-10964
geant	-10965
icero	-10966
irnam	-10967
mbles	-10968
ontes	-10969
prove	-10970
ribly	-10971
rippa	-10972
sever	-10973
uence	-10974
versy	-10975
young	-10976
▁ALEX	-10977
▁Cato	-10978
▁Gone	-10979
▁Holy	-10980
▁Lend	-10981
▁Much	-10982
▁Name	-10983
▁Open	-10984
▁Perd	-10985
▁apes	-10986
▁batt	-10987
▁beam	-10988
▁beck	-10989
▁bias	-10990
▁bolt	-10991
▁boon	-10992
▁brim	-10993
▁carp	-10994
▁crab	-10995
▁crew	-10996
▁dirt	-10997
▁duck	-10998
▁enge	-10999
▁fath	-11000
▁fist	-11001
▁flag	-11002
▁flee	-11003
▁furn	-11004
▁gape	-11005
▁gnaw	-11006
▁grac	-11007
▁hiss	-11008
▁hoar	-11009
▁jaws	-11010
▁jugg	-11011
▁lane	-11012
▁lazy	-11013
▁levy	-11014
▁magn	-11015
▁meal	-11016
▁mete	-11017
▁mole	-11018
▁murm	-11019
▁nick	-11020
▁pole	-11021
▁puff	-11022
▁pupp	-11023
▁ranc	-11024
▁rapt	-11025
▁rats	-11026
▁rout	-11027
▁sall	-11028
▁scra	-11029
▁sess	-11030
▁ster	-11031
▁syll	-11032
▁text	-11033
▁tink	-11034
▁toss	-11035
▁unre	-11036
▁veil	-11037
▁void	-11038
▁warn	-11039
▁wary	-11040
AMIENS	-11041
Become	-11042
Coming	-11043
Commit	-11044
Edmund	-11045
Indeed	-11046
Knight	-11047
MASTER	-11048
Sblood	-11049
TYRREL	-11050
afford	-11051
aville	-11052
beians	-11053
breath	-11054
desire	-11055
indeed	-11056
oubted	-11057
raight	-11058
roward	-11059
strate	-11060
urable	-11061
usalem	-11062
vertis	-11063
witted	-11064
▁Boyet	-11065
▁Brave	-11066
▁Court	-11067
▁Dukes	-11068
▁Froth	-11069
▁Happy	-11070
▁Haven	-11071
▁JULIA	-11072
▁PARIS	-11073
▁ROBIN	-11074
▁Swear	-11075
▁Thank	-11076
▁Third	-11077
▁agent	-11078
▁balls	-11079
▁baser	-11080
▁beads	-11081
▁calam	-11082
▁cloth	-11083
▁demon	-11084
▁dungh	-11085
▁enrag	-11086
▁fills	-11087
▁folks	-11088
▁gaunt	-11089
▁hypoc	-11090
▁insin	-11091
▁knell	-11092
▁lends	-11093
▁mates	-11094
▁memor	-11095
▁midst	-11096
▁muddy	-11097
▁ports	-11098
▁smack	-11099
▁smart	-11100
▁snake	-11101
▁spies	-11102
▁stabs	-11103
▁stirr	-11104
▁surly	-11105
▁tawny	-11106
▁thund	-11107
▁uncon	-11108
▁usage	-11109
▁wages	-11110
Alarums	-11111
ERGEANT	-11112
GLAMOUR	-11113
HITMORE	-11114
Looking	-11115
Singing	-11116
Turning	-11117
Whereon	-11118
atcliff	-11119
forward	-11120
itories	-11121
strange	-11122
▁Birnam	-11123
▁Church	-11124
▁Cicero	-11125
▁Cimber	-11126
▁Decius	-11127
▁Fellow	-11128
▁Graces	-11129
▁Hecate	-11130
▁JAQUES	-11131
▁Parson	-11132
▁Return	-11133
▁THURIO	-11134
▁Unless	-11135
▁abhorr	-11136
▁advanc	-11137
▁affair	-11138
▁anchor	-11139
▁armies	-11140
▁assume	-11141
▁attorn	-11142
▁beards	-11143
▁belief	-11144
▁beseem	-11145
▁bridge	-11146
▁broach	-11147
▁chains	-11148
▁cherub	-11149
▁cloudy	-11150
▁covert	-11151
▁crafty	-11152
▁crutch	-11153
▁dearth	-11154
▁debtor	-11155
▁decree	-11156
▁denial	-11157
▁denies	-11158
▁depose	-11159
▁derive	-11160
▁detain	-11161
▁discom	-11162
▁doting	-11163
▁doubts	-11164
▁falcon	-11165
▁famine	-11166
▁fickle	-11167
▁finish	-11168
▁floods	-11169
▁formal	-11170
▁fourth	-11171
▁ghosts	-11172
▁greets	-11173
▁honors	-11174
▁hunter	-11175
▁images	-11176
▁incens	-11177
▁inches	-11178
▁laying	-11179
▁listen	-11180
▁malady	-11181
▁member	-11182
▁mingle	-11183
▁ostent	-11184
▁palate	-11185
▁paltry	-11186
▁patron	-11187
▁pearls	-11188
▁plains	-11189
▁planet	-11190
▁plants	-11191
▁plenty	-11192
▁pricks	-11193
▁purses	-11194
▁repeat	-11195
▁rivers	-11196
▁robber	-11197
▁rumour	-11198
▁rushes	-11199
▁savour	-11200
▁shakes	-11201
▁shrill	-11202
▁signal	-11203
▁sinful	-11204
▁spider	-11205
▁spoils	-11206
▁strait	-11207
▁tickle	-11208
▁traged	-11209
▁truest	-11210
▁tumult	-11211
▁turned	-11212
▁uphold	-11213
▁valued	-11214
▁vigour	-11215
▁weaker	-11216
TITINIUS	-11217
Touching	-11218
atharine	-11219
mistress	-11220
ondition	-11221
pleasure	-11222
stantial	-11223
urtherer	-11224
▁AUMERLE	-11225
▁Antenor	-11226
▁Comfort	-11227
▁Ephesus	-11228
▁Fleance	-11229
▁LUCIANA	-11230
▁NERISSA	-11231
▁SALERIO	-11232
▁STANLEY	-11233
▁Whether	-11234
▁advised	-11235
▁affects	-11236
▁balance	-11237
▁blemish	-11238
▁blossom	-11239
▁chimney	-11240
▁comment	-11241
▁dealing	-11242
▁decease	-11243
▁depends	-11244
▁designs	-11245
▁draught	-11246
▁duteous	-11247
▁enlarge	-11248
▁forever	-11249
▁forfend	-11250
▁glories	-11251
▁imitate	-11252
▁incense	-11253
▁infancy	-11254
▁interim	-11255
▁lightly	-11256
▁midwife	-11257
▁mingled	-11258
▁objects	-11259
▁opposed	-11260
▁precise	-11261
▁preferr	-11262
▁proudly	-11263
▁purchas	-11264
▁retires	-11265
▁scarlet	-11266
▁sending	-11267
▁shining	-11268
▁sixteen	-11269
▁slender	-11270
▁springs	-11271
▁streams	-11272
▁strings	-11273
▁suffers	-11274
▁traffic	-11275
▁trusted	-11276
COURTEZAN	-11277
UPHRONIUS	-11278
▁Ambassad	-11279
▁Borachio	-11280
▁Coventry	-11281
▁Cressida	-11282
▁Eglamour	-11283
▁Egyptian	-11284
▁Gracious	-11285
▁Harfleur	-11286
▁LYSANDER	-11287
▁Metellus	-11288
▁Pindarus	-11289
▁REIGNIER	-11290
▁Reignier	-11291
▁Worthies	-11292
▁approved	-11293
▁arrested	-11294
▁beauties	-11295
▁braggart	-11296
▁breathes	-11297
▁chivalry	-11298
▁chooseth	-11299
▁daylight	-11300
▁despised	-11301
▁disperse	-11302
▁entrails	-11303
▁horsemen	-11304
▁interpre	-11305
▁monsters	-11306
▁needless	-11307
▁ordinary	-11308
▁pronounc	-11309
▁revolted	-11310
▁ruthless	-11311
▁singular	-11312
▁sixpence	-11313
▁speedily	-11314
▁vanquish	-11315
▁watchful	-11316
▁worshipp	-11317
▁Balthasar	-11318
▁Eastcheap	-11319
▁Jerusalem	-11320
▁Musicians	-11321
▁Rosalinde	-11322
▁Trebonius	-11323
▁abundance	-11324
▁arguments	-11325
▁clamorous	-11326
▁companies	-11327
▁different	-11328
▁discovery	-11329
▁downright	-11330
▁entreated	-11331
▁exquisite	-11332
▁forgetful	-11333
▁generally	-11334
▁labouring	-11335
▁ornaments	-11336
▁poisonous	-11337
▁solemnity	-11338
▁suffering	-11339
▁temperate	-11340
▁villanous	-11341
▁voluntary	-11342
▁Longaville	-11343
▁Parliament	-11344
▁abominable	-11345
▁accusation	-11346
▁admiration	-11347
▁compassion	-11348
▁contracted	-11349
▁entreaties	-11350
▁flatterers	-11351
▁inconstant	-11352
▁jealousies	-11353
▁overthrown	-11354
▁speechless	-11355
▁understood	-11356
▁unmannerly	-11357
▁Chamberlain	-11358
▁adversaries	-11359
▁ambassadors	-11360
▁approbation	-11361
▁dishonoured	-11362
▁distraction	-11363
▁indignation	-11364
▁observation	-11365
▁philosopher	-11366
▁territories	-11367
,)	-11368
-'	-11369
10	-11370
12	-11371
LD	-11372
WA	-11373
▁6	-11374
ARN	-11375
ARR	-11376
Bar	-11377
Che	-11378
Dep	-11379
Die	-11380
Ent	-11381
Exc	-11382
Man	-11383
SCE	-11384
Saw	-11385
Sen	-11386
Val	-11387
bby	-11388
car	-11389
hod	-11390
hon	-11391
ita	-11392
lic	-11393
low	-11394
mis	-11395
oat	-11396
omb	-11397
omy	-11398
rge	-11399
sur	-11400
uge	-11401
▁El	-11402
▁Je	-11403
▁PO	-11404
▁Su	-11405
▁Sw	-11406
▁tu	-11407
ACHE	-11408
AUGH	-11409
Amen	-11410
Cast	-11411
Dead	-11412
Dest	-11413
Fell	-11414
Lead	-11415
Pass	-11416
Seek	-11417
Sent	-11418
True	-11419
UBAL	-11420
aced	-11421
aged	-11422
ager	-11423
alms	-11424
anim	-11425
ardo	-11426
beat	-11427
burn	-11428
erth	-11429
hrew	-11430
iber	-11431
idel	-11432
igne	-11433
inst	-11434
inty	-11435
kers	-11436
keys	-11437
none	-11438
olas	-11439
olla	-11440
omel	-11441
onna	-11442
orus	-11443
past	-11444
pens	-11445
pres	-11446
pton	-11447
purn	-11448
reen	-11449
reth	-11450
soul	-11451
stru	-11452
talk	-11453
ties	-11454
tree	-11455
uing	-11456
unto	-11457
vius	-11458
weep	-11459
wood	-11460
year	-11461
zing	-11462
▁Any	-11463
▁Cry	-11464
▁DOL	-11465
▁Esc	-11466
▁LOR	-11467
▁Nan	-11468
▁OLD	-11469
▁Pha	-11470
▁SON	-11471
▁STR	-11472
▁Use	-11473
▁VOL	-11474
▁bau	-11475
▁dom	-11476
▁ful	-11477
▁gay	-11478
▁gor	-11479
▁inn	-11480
▁its	-11481
▁mow	-11482
▁orb	-11483
▁pas	-11484
▁pel	-11485
▁pip	-11486
▁rav	-11487
▁riv	-11488
▁sul	-11489
ANDON	-11490
Balth	-11491
Beats	-11492
Blood	-11493
EWELL	-11494
False	-11495
Fetch	-11496
Found	-11497
NURSE	-11498
PHILO	-11499
Padua	-11500
Quite	-11501
ROMAN	-11502
RONIC	-11503
RUGBY	-11504
Stood	-11505
Teach	-11506
Weigh	-11507
Whate	-11508
Write	-11509
Yield	-11510
allel	-11511
anied	-11512
artar	-11513
ashes	-11514
atory	-11515
aving	-11516
cetta	-11517
cribe	-11518
doing	-11519
drink	-11520
ensed	-11521
erate	-11522
erely	-11523
feren	-11524
ffith	-11525
ffrey	-11526
gging	-11527
grown	-11528
idele	-11529
ights	-11530
inies	-11531
ively	-11532
ouble	-11533
ouldy	-11534
overn	-11535
ovico	-11536
penny	-11537
ppily	-11538
purse	-11539
raign	-11540
reath	-11541
reign	-11542
rives	-11543
rrhus	-11544
shine	-11545
thous	-11546
ubber	-11547
ucket	-11548
urous	-11549
ustri	-11550
vaunt	-11551
whelm	-11552
witch	-11553
▁Base	-11554
▁Bert	-11555
▁Camb	-11556
▁Cent	-11557
▁EROS	-11558
▁Each	-11559
▁Else	-11560
▁Foul	-11561
▁IACH	-11562
▁Kill	-11563
▁Kind	-11564
▁Lion	-11565
▁List	-11566
▁Mary	-11567
▁Muse	-11568
▁Nich	-11569
▁Peto	-11570
▁Poly	-11571
▁Sing	-11572
▁Sund	-11573
▁aust	-11574
▁barr	-11575
▁beet	-11576
▁bows	-11577
▁crop	-11578
▁dall	-11579
▁demi	-11580
▁dice	-11581
▁encl	-11582
▁ewes	-11583
▁exhi	-11584
▁frag	-11585
▁gear	-11586
▁gets	-11587
▁gore	-11588
▁gulf	-11589
▁lamp	-11590
▁lick	-11591
▁link	-11592
▁maim	-11593
▁mars	-11594
▁navy	-11595
▁nois	-11596
▁peck	-11597
▁plea	-11598
▁plum	-11599
▁poll	-11600
▁rape	-11601
▁rive	-11602
▁sans	-11603
▁sauc	-11604
▁spec	-11605
▁stew	-11606
▁swan	-11607
▁tack	-11608
▁trad	-11609
▁trot	-11610
▁trun	-11611
▁waft	-11612
▁wins	-11613
▁yard	-11614
AEDILE	-11615
ARDINE	-11616
Albeit	-11617
Athens	-11618
BLANCH	-11619
During	-11620
French	-11621
Seeing	-11622
Thanks	-11623
Twould	-11624
UBLIUS	-11625
ablish	-11626
ctures	-11627
enetta	-11628
enious	-11629
garter	-11630
hieves	-11631
idered	-11632
ounsel	-11633
people	-11634
ptuous	-11635
purnia	-11636
rather	-11637
urance	-11638
▁CHILD	-11639
▁Doubt	-11640
▁GHOST	-11641
▁Latin	-11642
▁MUSIC	-11643
▁Might	-11644
▁Pluck	-11645
▁Ready	-11646
▁adopt	-11647
▁altar	-11648
▁arrog	-11649
▁audit	-11650
▁bites	-11651
▁boist	-11652
▁brood	-11653
▁cabin	-11654
▁capon	-11655
▁cases	-11656
▁cedar	-11657
▁chaff	-11658
▁domin	-11659
▁drugs	-11660
▁exact	-11661
▁geese	-11662
▁globe	-11663
▁heath	-11664
▁heave	-11665
▁hills	-11666
▁humor	-11667
▁medit	-11668
▁necks	-11669
▁pious	-11670
▁plate	-11671
▁quill	-11672
▁refus	-11673
▁shaft	-11674
▁snuff	-11675
▁stare	-11676
▁surge	-11677
▁swine	-11678
▁tabor	-11679
▁trash	-11680
▁treas	-11681
▁tribe	-11682
▁undes	-11683
▁waits	-11684
▁whirl	-11685
Bearing	-11686
Confess	-11687
EMILIUS	-11688
EWELLER	-11689
Hearing	-11690
MARSHAL	-11691
PYRAMUS	-11692
RONICUS	-11693
Revenge	-11694
Towards	-11695
UNTSMAN	-11696
arition	-11697
attling	-11698
between	-11699
bleness	-11700
ception	-11701
enowned	-11702
fashion	-11703
himself	-11704
illings	-11705
itimate	-11706
ordeaux	-11707
orthern	-11708
▁ADRIAN	-11709
▁ARMADO	-11710
▁Alexas	-11711
▁Armado	-11712
▁Blanch	-11713
▁Europe	-11714
▁Fidele	-11715
▁Fourth	-11716
▁GREMIO	-11717
▁GRUMIO	-11718
▁Honour	-11719
▁Murder	-11720
▁Myself	-11721
▁OLIVER	-11722
▁Rather	-11723
▁SURREY	-11724
▁TAMORA	-11725
▁Vienna	-11726
▁actors	-11727
▁argues	-11728
▁ashore	-11729
▁avouch	-11730
▁barber	-11731
▁biting	-11732
▁blazon	-11733
▁boughs	-11734
▁canopy	-11735
▁chapel	-11736
▁cleave	-11737
▁deform	-11738
▁dotage	-11739
▁dragon	-11740
▁ending	-11741
▁enjoin	-11742
▁errors	-11743
▁frozen	-11744
▁greasy	-11745
▁grudge	-11746
▁harder	-11747
▁infamy	-11748
▁lesson	-11749
▁litter	-11750
▁madmen	-11751
▁minded	-11752
▁mirror	-11753
▁modern	-11754
▁orator	-11755
▁ordain	-11756
▁orphan	-11757
▁pander	-11758
▁purity	-11759
▁reigns	-11760
▁repute	-11761
▁retain	-11762
▁seated	-11763
▁served	-11764
▁severe	-11765
▁shrift	-11766
▁simply	-11767
▁sleepy	-11768
▁smells	-11769
▁sonnet	-11770
▁sports	-11771
▁stings	-11772
▁submit	-11773
▁thwart	-11774
▁unluck	-11775
▁usurer	-11776
▁verity	-11777
▁volume	-11778
▁wilder	-11779
▁wildly	-11780
▁wonted	-11781
▁yeoman	-11782
Falstaff	-11783
MONTAGUE	-11784
Meantime	-11785
SURVEYOR	-11786
Yourself	-11787
athaniel	-11788
peration	-11789
yourself	-11790
▁Barbary	-11791
▁Bedford	-11792
▁Bertram	-11793
▁Caliban	-11794
▁Forbear	-11795
▁Friends	-11796
▁Geffrey	-11797
▁IACHIMO	-11798
▁JESSICA	-11799
▁LARTIUS	-11800
▁LORENZO	-11801
▁Leontes	-11802
▁Lucetta	-11803
▁Messina	-11804
▁Montano	-11805
▁Pyrrhus	-11806
▁SHYLOCK	-11807
▁Thunder	-11808
▁Troyans	-11809
▁Wouldst	-11810
▁beshrew	-11811
▁besiege	-11812
▁breasts	-11813
▁channel	-11814
▁chiding	-11815
▁chiefly	-11816
▁continu	-11817
▁coronet	-11818
▁cousins	-11819
▁dispers	-11820
▁display	-11821
▁disting	-11822
▁element	-11823
▁examine	-11824
▁fooling	-11825
▁frailty	-11826
▁fraught	-11827
▁froward	-11828
▁getting	-11829
▁goodman	-11830
▁hearers	-11831
▁heavily	-11832
▁howling	-11833
▁infants	-11834
▁leagues	-11835
▁lighted	-11836
▁loathed	-11837
▁madonna	-11838
▁members	-11839
▁mockery	-11840
▁outside	-11841
▁pageant	-11842
▁painter	-11843
▁pleased	-11844
▁prating	-11845
▁precept	-11846
▁rewards	-11847
▁solicit	-11848
▁stealth	-11849
▁swagger	-11850
▁swifter	-11851
▁tapster	-11852
▁travail	-11853
▁unclean	-11854
▁villany	-11855
▁wealthy	-11856
▁wedlock	-11857
▁winters	-11858
ALEXANDER	-11859
ARNARDINE	-11860
▁BASSANIO	-11861
▁BURGUNDY	-11862
▁Britaine	-11863
▁CAPTAINS	-11864
▁COUNTESS	-11865
▁FLORIZEL	-11866
▁GRATIANO	-11867
▁Griffith	-11868
▁Lodovico	-11869
▁MALVOLIO	-11870
▁MONTAGUE	-11871
▁Nicholas	-11872
▁Stafford	-11873
▁beggarly	-11874
▁bequeath	-11875
▁calamity	-11876
▁capacity	-11877
▁challeng	-11878
▁chambers	-11879
▁conflict	-11880
▁creation	-11881
▁damnable	-11882
▁deformed	-11883
▁disloyal	-11884
▁drooping	-11885
▁entreats	-11886
▁evidence	-11887
▁factious	-11888
▁gallants	-11889
▁generous	-11890
▁gorgeous	-11891
▁incontin	-11892
▁languish	-11893
▁murdered	-11894
▁peaceful	-11895
▁pleaseth	-11896
▁prepared	-11897
▁probable	-11898
▁publicly	-11899
▁puissant	-11900
▁reverent	-11901
▁shrewdly	-11902
▁statutes	-11903
▁stealing	-11904
▁teaching	-11905
▁ungentle	-11906
▁unlawful	-11907
▁vexation	-11908
▁withered	-11909
▁worthily	-11910
Alexandria	-11911
Attendants	-11912
▁Dunsinane	-11913
▁Methought	-11914
▁POLIXENES	-11915
▁Perchance	-11916
▁allowance	-11917
▁amazement	-11918
▁assembled	-11919
▁bedfellow	-11920
▁commander	-11921
▁commended	-11922
▁continual	-11923
▁descended	-11924
▁eloquence	-11925
▁elsewhere	-11926
▁expressly	-11927
▁extremest	-11928
▁importune	-11929
▁merchants	-11930
▁mistaking	-11931
▁murderers	-11932
▁offenders	-11933
▁plebeians	-11934
▁posterity	-11935
▁principal	-11936
▁proceeded	-11937
▁questions	-11938
▁remainder	-11939
▁traveller	-11940
▁whereupon	-11941
▁witnesses	-11942
▁Englishman	-11943
▁TOUCHSTONE	-11944
▁accomplish	-11945
▁admittance	-11946
▁advantages	-11947
▁bitterness	-11948
▁breathless	-11949
▁characters	-11950
▁commanding	-11951
▁compulsion	-11952
▁conspiracy	-11953
▁degenerate	-11954
▁desolation	-11955
▁especially	-11956
▁faithfully	-11957
▁generation	-11958
▁headstrong	-11959
▁impression	-11960
▁ingrateful	-11961
▁submission	-11962
▁substitute	-11963
▁sweetheart	-11964
▁wickedness	-11965
▁CONSPIRATOR	-11966
▁comfortable	-11967
▁controversy	-11968
▁lamentation	-11969
▁nightingale	-11970
▁strangeness	-11971
▁circumstances	-11972
!)	-11973
,"	-11974
AZ	-11975
dy	-11976
gr	-11977
ii	-11978
ANC	-11979
ARV	-11980
AUL	-11981
Bal	-11982
Beg	-11983
Bes	-11984
CET	-11985
ERP	-11986
Fit	-11987
ICH	-11988
ITZ	-11989
Led	-11990
Mad	-11991
Mil	-11992
Opp	-11993
Pat	-11994
Pri	-11995
Tra	-11996
Use	-11997
adv	-11998
agn	-11999
alo	-12000
azz	-12001
bag	-12002
bee	-12003
bid	-12004
bod	-12005
cat	-12006
ech	-12007
ele	-12008
eme	-12009
ena	-12010
fix	-12011
ics	-12012
imp	-12013
ism	-12014
nod	-12015
sad	-12016
sub	-12017
tha	-12018
ubb	-12019
zes	-12020
▁AB	-12021
▁oy	-12022
▁va	-12023
CHAS	-12024
CHID	-12025
Cold	-12026
Comm	-12027
Deny	-12028
Doct	-12029
FOOL	-12030
FORT	-12031
IDEN	-12032
Join	-12033
Just	-12034
LLON	-12035
Last	-12036
Left	-12037
Near	-12038
OCCO	-12039
Pity	-12040
ROOM	-12041
Took	-12042
Want	-12043
York	-12044
adel	-12045
aled	-12046
bred	-12047
cast	-12048
eary	-12049
fear	-12050
gall	-12051
gory	-12052
gree	-12053
horn	-12054
hour	-12055
inal	-12056
ized	-12057
lymp	-12058
nant	-12059
oner	-12060
pend	-12061
pery	-12062
pipe	-12063
pled	-12064
reep	-12065
ride	-12066
robe	-12067
rons	-12068
sday	-12069
shot	-12070
ubal	-12071
unis	-12072
veal	-12073
worn	-12074
▁Cad	-12075
▁Cob	-12076
▁Cur	-12077
▁Cut	-12078
▁Def	-12079
▁Del	-12080
▁Lic	-12081
▁Lig	-12082
▁Mut	-12083
▁Sau	-12084
▁Wol	-12085
▁aug	-12086
▁dul	-12087
▁ess	-12088
▁exa	-12089
▁gem	-12090
▁hag	-12091
▁hay	-12092
▁hen	-12093
▁hew	-12094
▁jet	-12095
▁lau	-12096
▁log	-12097
▁mum	-12098
▁pag	-12099
▁pau	-12100
▁pho	-12101
▁tam	-12102
ARVEL	-12103
Arise	-12104
BURES	-12105
CETAS	-12106
Canst	-12107
EGEUS	-12108
ELLOR	-12109
ERIFF	-12110
FROTH	-12111
Haply	-12112
ITZWA	-12113
Milan	-12114
ORNER	-12115
SMITH	-12116
Seems	-12117
Shake	-12118
Small	-12119
TUBAL	-12120
Tears	-12121
ailor	-12122
alend	-12123
asphe	-12124
balls	-12125
blest	-12126
blown	-12127
bring	-12128
chand	-12129
cheon	-12130
count	-12131
creat	-12132
cript	-12133
ening	-12134
ently	-12135
erver	-12136
esies	-12137
fight	-12138
flies	-12139
human	-12140
idity	-12141
igers	-12142
inner	-12143
isdom	-12144
isher	-12145
lamis	-12146
leave	-12147
lying	-12148
mount	-12149
ongue	-12150
ordin	-12151
overs	-12152
races	-12153
ragon	-12154
reads	-12155
spect	-12156
stool	-12157
utter	-12158
viron	-12159
▁Amaz	-12160
▁Back	-12161
▁CADE	-12162
▁Colv	-12163
▁Dane	-12164
▁Dick	-12165
▁Ethi	-12166
▁FAUL	-12167
▁Find	-12168
▁GOTH	-12169
▁Gads	-12170
▁Half	-12171
▁Iras	-12172
▁Lest	-12173
▁Over	-12174
▁VIII	-12175
▁Wast	-12176
▁anat	-12177
▁anim	-12178
▁bees	-12179
▁brat	-12180
▁card	-12181
▁cars	-12182
▁choo	-12183
▁chop	-12184
▁cope	-12185
▁cram	-12186
▁cups	-12187
▁cuts	-12188
▁dwar	-12189
▁enow	-12190
▁eyne	-12191
▁geld	-12192
▁gout	-12193
▁grin	-12194
▁hilt	-12195
▁hits	-12196
▁hymn	-12197
▁ills	-12198
▁kitc	-12199
▁lass	-12200
▁mire	-12201
▁omin	-12202
▁pile	-12203
▁pith	-12204
▁rang	-12205
▁rite	-12206
▁sale	-12207
▁sear	-12208
▁seed	-12209
▁shap	-12210
▁shin	-12211
▁sped	-12212
▁suns	-12213
▁surn	-12214
▁tilt	-12215
▁twin	-12216
▁unst	-12217
▁vale	-12218
▁vehe	-12219
▁verd	-12220
▁wasp	-12221
▁yare	-12222
▁yawn	-12223
CLITUS	-12224
ERPING	-12225
Juliet	-12226
Murder	-12227
THISBY	-12228
Thrice	-12229
UTLAND	-12230
VOLSCE	-12231
Virtue	-12232
ashful	-12233
askets	-12234
aunted	-12235
basket	-12236
bition	-12237
coward	-12238
ements	-12239
erlook	-12240
ifully	-12241
issing	-12242
myself	-12243
oughts	-12244
praise	-12245
quaint	-12246
spring	-12247
spurgh	-12248
taking	-12249
ternal	-12250
things	-12251
ulties	-12252
vation	-12253
▁BOYET	-12254
▁CONST	-12255
▁Crisp	-12256
▁Grand	-12257
▁Green	-12258
▁Hymen	-12259
▁Kings	-12260
▁Maria	-12261
▁Mount	-12262
▁Polyd	-12263
▁Raven	-12264
▁STEPH	-12265
▁Sixth	-12266
▁Tarqu	-12267
▁Tiber	-12268
▁Tunis	-12269
▁Varro	-12270
▁Write	-12271
▁Yield	-12272
▁abode	-12273
▁aspir	-12274
▁bench	-12275
▁blade	-12276
▁blaze	-12277
▁brine	-12278
▁budge	-12279
▁canon	-12280
▁carve	-12281
▁chant	-12282
▁cleft	-12283
▁daint	-12284
▁fails	-12285
▁fifth	-12286
▁foils	-12287
▁grate	-12288
▁herbs	-12289
▁hunts	-12290
▁incur	-12291
▁jolly	-12292
▁kites	-12293
▁lease	-12294
▁longs	-12295
▁loses	-12296
▁mines	-12297
▁nomin	-12298
▁opens	-12299
▁overt	-12300
▁parch	-12301
▁pence	-12302
▁perus	-12303
▁pilot	-12304
▁pulse	-12305
▁remed	-12306
▁retir	-12307
▁ripen	-12308
▁roots	-12309
▁salve	-12310
▁shipp	-12311
▁sinew	-12312
▁snail	-12313
▁spear	-12314
▁spots	-12315
▁stark	-12316
▁starv	-12317
▁sulph	-12318
▁tenth	-12319
▁tides	-12320
▁tough	-12321
▁trace	-12322
▁tract	-12323
▁unarm	-12324
▁votre	-12325
▁wheat	-12326
▁whelp	-12327
▁wooer	-12328
▁wrote	-12329
ATILLON	-12330
Brother	-12331
Descend	-12332
Desires	-12333
Neither	-12334
PUBLIUS	-12335
Perhaps	-12336
Proceed	-12337
ROMACHE	-12338
Warwick	-12339
Wouldst	-12340
ainting	-12341
arisons	-12342
atching	-12343
comfort	-12344
embroke	-12345
emption	-12346
ernardo	-12347
lection	-12348
ocation	-12349
villain	-12350
▁Almost	-12351
▁DORSET	-12352
▁Friend	-12353
▁GAOLER	-12354
▁German	-12355
▁HERMIA	-12356
▁HUBERT	-12357
▁Honest	-12358
▁Indian	-12359
▁LOVELL	-12360
▁Lovell	-12361
▁Mouldy	-12362
▁Palace	-12363
▁RIVERS	-12364
▁Sister	-12365
▁Sunday	-12366
▁Things	-12367
▁Volumn	-12368
▁Whiles	-12369
▁abuses	-12370
▁accurs	-12371
▁amount	-12372
▁aright	-12373
▁autumn	-12374
▁aweary	-12375
▁befits	-12376
▁braver	-12377
▁calend	-12378
▁cherry	-12379
▁chides	-12380
▁comedy	-12381
▁comest	-12382
▁conjur	-12383
▁corpse	-12384
▁costly	-12385
▁dances	-12386
▁deceas	-12387
▁demean	-12388
▁devout	-12389
▁eagles	-12390
▁engine	-12391
▁fishes	-12392
▁flinty	-12393
▁fruits	-12394
▁girdle	-12395
▁gratis	-12396
▁guards	-12397
▁guides	-12398
▁incorp	-12399
▁indent	-12400
▁inspir	-12401
▁invest	-12402
▁issues	-12403
▁knives	-12404
▁limits	-12405
▁liquid	-12406
▁madame	-12407
▁magist	-12408
▁malign	-12409
▁misled	-12410
▁morsel	-12411
▁multip	-12412
▁multit	-12413
▁mutton	-12414
▁pedant	-12415
▁perfum	-12416
▁peruse	-12417
▁pettic	-12418
▁placed	-12419
▁poetry	-12420
▁profan	-12421
▁queens	-12422
▁revell	-12423
▁revive	-12424
▁riddle	-12425
▁riding	-12426
▁saving	-12427
▁sennet	-12428
▁shouts	-12429
▁solely	-12430
▁sparks	-12431
▁sprite	-12432
▁stairs	-12433
▁tapers	-12434
▁threes	-12435
▁unrest	-12436
▁urging	-12437
▁vainly	-12438
▁wheels	-12439
▁widows	-12440
ANCELLOR	-12441
ARVELING	-12442
Achilles	-12443
CHIDAMUS	-12444
EGLAMOUR	-12445
ITZWATER	-12446
JEWELLER	-12447
MERCHANT	-12448
MORTIMER	-12449
Soldiers	-12450
olerable	-12451
othsayer	-12452
rogative	-12453
ustrious	-12454
▁Agrippa	-12455
▁British	-12456
▁Britons	-12457
▁CAMILLO	-12458
▁CLAUDIO	-12459
▁ESCALUS	-12460
▁Escalus	-12461
▁FAULCON	-12462
▁FLAVIUS	-12463
▁FRANCIS	-12464
▁Gonzalo	-12465
▁Gregory	-12466
▁HOSTESS	-12467
▁LEPIDUS	-12468
▁MARIANA	-12469
▁MOROCCO	-12470
▁Navarre	-12471
▁ORLEANS	-12472
▁Perdita	-12473
▁SILVIUS	-12474
▁Salique	-12475
▁Turkish	-12476
▁Wherein	-12477
▁Witches	-12478
▁Without	-12479
▁ability	-12480
▁blowing	-12481
▁bondman	-12482
▁buckram	-12483
▁charged	-12484
▁charter	-12485
▁climate	-12486
▁concord	-12487
▁conject	-12488
▁convert	-12489
▁cordial	-12490
▁correct	-12491
▁counted	-12492
▁faintly	-12493
▁fitness	-12494
▁frankly	-12495
▁glasses	-12496
▁grieved	-12497
▁grounds	-12498
▁harmful	-12499
▁heretic	-12500
▁hopeful	-12501
▁humbled	-12502
▁ignoble	-12503
▁imports	-12504
▁martial	-12505
▁mustard	-12506
▁nations	-12507
▁offered	-12508
▁ominous	-12509
▁parcels	-12510
▁phoenix	-12511
▁planted	-12512
▁prelate	-12513
▁proffer	-12514
▁quietly	-12515
▁reputed	-12516
▁riotous	-12517
▁roundly	-12518
▁sailors	-12519
▁sequent	-12520
▁sheriff	-12521
▁showers	-12522
▁sighing	-12523
▁spheres	-12524
▁spotted	-12525
▁stately	-12526
▁stumble	-12527
▁summons	-12528
▁survive	-12529
▁tragedy	-12530
▁tyrants	-12531
▁unquiet	-12532
▁usurper	-12533
▁vicious	-12534
▁visited	-12535
▁western	-12536
▁winking	-12537
CLEOMENES	-12538
ERPINGHAM	-12539
Immediate	-12540
Rousillon	-12541
SERVILIUS	-12542
Sometimes	-12543
▁Bellario	-12544
▁Bordeaux	-12545
▁Colville	-12546
▁Gadshill	-12547
▁Greekish	-12548
▁Ligarius	-12549
▁MAECENAS	-12550
▁PRINCESS	-12551
▁Syracuse	-12552
▁Venetian	-12553
▁Volscian	-12554
▁advertis	-12555
▁attorney	-12556
▁bitterly	-12557
▁building	-12558
▁cardinal	-12559
▁choleric	-12560
▁confines	-12561
▁conspire	-12562
▁controll	-12563
▁corporal	-12564
▁curtains	-12565
▁defiance	-12566
▁delivers	-12567
▁displeas	-12568
▁distract	-12569
▁doomsday	-12570
▁drowning	-12571
▁dunghill	-12572
▁expected	-12573
▁forswore	-12574
▁groaning	-12575
▁hitherto	-12576
▁importun	-12577
▁incensed	-12578
▁marrying	-12579
▁mistaken	-12580
▁moderate	-12581
▁overcame	-12582
▁passages	-12583
▁predomin	-12584
▁rashness	-12585
▁slightly	-12586
▁syllable	-12587
▁sympathy	-12588
▁throwing	-12589
▁thunders	-12590
▁torments	-12591
▁unthrift	-12592
▁wasteful	-12593
▁watching	-12594
▁wildness	-12595
▁withhold	-12596
▁worships	-12597
▁Attendant	-12598
▁BASSIANUS	-12599
▁Katharine	-12600
▁Katherina	-12601
▁LAUNCELOT	-12602
▁Marcellus	-12603
▁chronicle	-12604
▁condemned	-12605
▁courtiers	-12606
▁diligence	-12607
▁dishonest	-12608
▁dissemble	-12609
▁earnestly	-12610
▁emulation	-12611
▁fantastic	-12612
▁fortnight	-12613
▁greetings	-12614
▁healthful	-12615
▁important	-12616
▁influence	-12617
▁ingenious	-12618
▁intercept	-12619
▁nightgown	-12620
▁ordinance	-12621
▁parentage	-12622
▁preposter	-12623
▁puissance	-12624
▁reconcile	-12625
▁residence	-12626
▁respected	-12627
▁shillings	-12628
▁spectacle	-12629
▁stratagem	-12630
▁swallowed	-12631
▁testament	-12632
Westminster	-12633
▁ANDRONICUS	-12634
▁Jaquenetta	-12635
▁alteration	-12636
▁ceremonies	-12637
▁commonweal	-12638
▁consecrate	-12639
▁contagious	-12640
▁dissension	-12641
▁endeavours	-12642
▁knighthood	-12643
▁lascivious	-12644
▁miscarried	-12645
▁occupation	-12646
▁opposition	-12647
▁pennyworth	-12648
▁redemption	-12649
▁suggestion	-12650
▁Ravenspurgh	-12651
▁accordingly	-12652
▁advancement	-12653
▁appointment	-12654
▁continuance	-12655
▁deliverance	-12656
▁distinguish	-12657
▁inclination	-12658
▁incorporate	-12659
▁interpreter	-12660
▁therewithal	-12661
▁unfortunate	-12662
▁confederates	-12663
▁remuneration	-12664
▁wretchedness	-12665
▁FAULCONBRIDGE	-12666
▁transgression	-12667
Bo	-12668
Fe	-12669
Gl	-12670
IX	-12671
Sl	-12672
TS	-12673
ah	-12674
eb	-12675
wr	-12676
▁7	-12677
ART	-12678
Aff	-12679
Amb	-12680
Ang	-12681
Any	-12682
Ask	-12683
BIN	-12684
Cur	-12685
Del	-12686
HER	-12687
Ill	-12688
JUN	-12689
Mis	-12690
RET	-12691
TWO	-12692
YER	-12693
aze	-12694
ban	-12695
cal	-12696
cre	-12697
dig	-12698
eas	-12699
hry	-12700
isk	-12701
lie	-12702
mid	-12703
nal	-12704
ole	-12705
pow	-12706
rob	-12707
rup	-12708
sil	-12709
spo	-12710
▁6.	-12711
▁AM	-12712
▁EM	-12713
▁MO	-12714
▁Ty	-12715
▁XI	-12716
▁dr	-12717
▁gy	-12718
▁il	-12719
▁py	-12720
▁yo	-12721
ADLE	-12722
AZAR	-12723
Burn	-12724
Cond	-12725
Disp	-12726
Dist	-12727
Down	-12728
Earl	-12729
FANG	-12730
Feed	-12731
Four	-12732
HIEF	-12733
Half	-12734
ISBY	-12735
IXTH	-12736
LUCE	-12737
Lays	-12738
Obey	-12739
Peto	-12740
Prom	-12741
Read	-12742
SEED	-12743
Sith	-12744
Subd	-12745
Sure	-12746
Talk	-12747
WIFE	-12748
Wish	-12749
acob	-12750
auld	-12751
bone	-12752
cary	-12753
cold	-12754
dame	-12755
ewks	-12756
eyes	-12757
hale	-12758
half	-12759
hips	-12760
home	-12761
ibel	-12762
ifts	-12763
igns	-12764
iron	-12765
jure	-12766
knit	-12767
last	-12768
lest	-12769
lets	-12770
life	-12771
lift	-12772
mede	-12773
neck	-12774
obey	-12775
olic	-12776
ousy	-12777
rall	-12778
reng	-12779
requ	-12780
rine	-12781
sack	-12782
says	-12783
tale	-12784
thro	-12785
urbs	-12786
ushy	-12787
veng	-12788
vils	-12789
ythe	-12790
▁Abb	-12791
▁Aem	-12792
▁Ill	-12793
▁MAN	-12794
▁NOB	-12795
▁Pur	-12796
▁VIR	-12797
▁Yor	-12798
▁apr	-12799
▁cit	-12800
▁fad	-12801
▁fel	-12802
▁fer	-12803
▁hip	-12804
▁ire	-12805
▁jig	-12806
▁joc	-12807
▁len	-12808
▁loo	-12809
▁mix	-12810
▁mol	-12811
▁mud	-12812
▁obd	-12813
▁pig	-12814
▁pru	-12815
▁pry	-12816
▁ris	-12817
▁roy	-12818
▁sly	-12819
▁suf	-12820
▁tir	-12821
▁tot	-12822
▁vir	-12823
▁wil	-12824
ANGER	-12825
ARDEN	-12826
BALTH	-12827
BATES	-12828
Begin	-12829
Crown	-12830
Disgu	-12831
Forth	-12832
Given	-12833
Heart	-12834
Helen	-12835
Holds	-12836
LOTUS	-12837
Looks	-12838
ORTON	-12839
Persu	-12840
Plead	-12841
ROBIN	-12842
Ready	-12843
SNOUT	-12844
Saint	-12845
Turns	-12846
Uncle	-12847
Wales	-12848
addle	-12849
ailed	-12850
akers	-12851
aling	-12852
arest	-12853
bbing	-12854
beron	-12855
board	-12856
child	-12857
chool	-12858
cloth	-12859
erdin	-12860
erick	-12861
estic	-12862
going	-12863
guard	-12864
happy	-12865
iency	-12866
igned	-12867
inher	-12868
isted	-12869
keley	-12870
money	-12871
odest	-12872
osity	-12873
proof	-12874
rains	-12875
rieve	-12876
rings	-12877
still	-12878
tered	-12879
times	-12880
toric	-12881
ugust	-12882
ustry	-12883
weigh	-12884
▁AJAX	-12885
▁Arab	-12886
▁Boar	-12887
▁Chat	-12888
▁Dame	-12889
▁Dece	-12890
▁Dull	-12891
▁Epid	-12892
▁Fife	-12893
▁Fred	-12894
▁Gany	-12895
▁Hell	-12896
▁Lart	-12897
▁Last	-12898
▁Owen	-12899
▁PETI	-12900
▁Phry	-12901
▁Proc	-12902
▁Stop	-12903
▁Trip	-12904
▁Tues	-12905
▁Urge	-12906
▁Wert	-12907
▁anew	-12908
▁bags	-12909
▁bale	-12910
▁boil	-12911
▁burg	-12912
▁chok	-12913
▁club	-12914
▁conv	-12915
▁cott	-12916
▁dawn	-12917
▁digg	-12918
▁drab	-12919
▁duly	-12920
▁echo	-12921
▁educ	-12922
▁eggs	-12923
▁fang	-12924
▁fard	-12925
▁farm	-12926
▁flaw	-12927
▁gaol	-12928
▁gasp	-12929
▁glim	-12930
▁glut	-12931
▁hale	-12932
▁harp	-12933
▁hart	-12934
▁hats	-12935
▁herb	-12936
▁hint	-12937
▁impl	-12938
▁issu	-12939
▁itch	-12940
▁jars	-12941
▁larg	-12942
▁lopp	-12943
▁mace	-12944
▁oman	-12945
▁pard	-12946
▁peas	-12947
▁plat	-12948
▁plod	-12949
▁rook	-12950
▁shru	-12951
▁stee	-12952
▁vall	-12953
▁vary	-12954
▁vial	-12955
▁wagg	-12956
▁warp	-12957
▁wren	-12958
AVENNY	-12959
Antony	-12960
BASSET	-12961
Beauty	-12962
CHORUS	-12963
Christ	-12964
DORSET	-12965
Desire	-12966
Fellow	-12967
Forget	-12968
JULIET	-12969
Sennet	-12970
THOMAS	-12971
Throws	-12972
Tybalt	-12973
USTARD	-12974
VERNOR	-12975
abella	-12976
ailing	-12977
aughan	-12978
bearer	-12979
ceives	-12980
ertake	-12981
igneur	-12982
ilogue	-12983
ipping	-12984
ixture	-12985
keeper	-12986
knight	-12987
minded	-12988
monger	-12989
necess	-12990
ouches	-12991
ourest	-12992
peress	-12993
rament	-12994
ranmer	-12995
raught	-12996
riving	-12997
thwart	-12998
uation	-12999
vilius	-13000
▁Aquit	-13001
▁BIGOT	-13002
▁Break	-13003
▁Brief	-13004
▁CHIEF	-13005
▁COUNT	-13006
▁Clown	-13007
▁DERBY	-13008
▁Derby	-13009
▁FRIAR	-13010
▁False	-13011
▁GOWER	-13012
▁Grant	-13013
▁Haply	-13014
▁Jacob	-13015
▁MENAS	-13016
▁Olymp	-13017
▁Pluto	-13018
▁ROMAN	-13019
▁RUGBY	-13020
▁Royal	-13021
▁Satan	-13022
▁Scots	-13023
▁Shame	-13024
▁Tears	-13025
▁Touch	-13026
▁Troth	-13027
▁Tubal	-13028
▁abate	-13029
▁amaze	-13030
▁argos	-13031
▁arrow	-13032
▁atone	-13033
▁basil	-13034
▁blots	-13035
▁bower	-13036
▁cater	-13037
▁cauld	-13038
▁chuck	-13039
▁churl	-13040
▁clout	-13041
▁coach	-13042
▁dames	-13043
▁depth	-13044
▁ditch	-13045
▁dotes	-13046
▁doves	-13047
▁exche	-13048
▁exten	-13049
▁feels	-13050
▁glean	-13051
▁goats	-13052
▁graft	-13053
▁grind	-13054
▁gripe	-13055
▁heres	-13056
▁hovel	-13057
▁idiot	-13058
▁immin	-13059
▁knots	-13060
▁mater	-13061
▁mispr	-13062
▁organ	-13063
▁pavil	-13064
▁penet	-13065
▁pikes	-13066
▁range	-13067
▁repet	-13068
▁rival	-13069
▁rules	-13070
▁seals	-13071
▁shuff	-13072
▁slips	-13073
▁spade	-13074
▁stony	-13075
▁sways	-13076
▁toads	-13077
▁trimm	-13078
▁troub	-13079
▁tunes	-13080
▁unset	-13081
▁verge	-13082
▁visor	-13083
▁waken	-13084
▁waxen	-13085
▁woful	-13086
Amongst	-13087
Antonio	-13088
Belmont	-13089
English	-13090
Francis	-13091
Himself	-13092
Holding	-13093
However	-13094
ICILIUS	-13095
Killing	-13096
Leaving	-13097
Leonato	-13098
MARDIAN	-13099
Possess	-13100
Strange	-13101
ashions	-13102
athered	-13103
bearing	-13104
berries	-13105
ceeding	-13106
compass	-13107
hampton	-13108
ibility	-13109
ighbour	-13110
ilities	-13111
keeping	-13112
knowing	-13113
modated	-13114
parable	-13115
portion	-13116
promise	-13117
reation	-13118
retched	-13119
soldier	-13120
umption	-13121
warrant	-13122
▁ALEXAS	-13123
▁ARTHUR	-13124
▁Antium	-13125
▁CHORUS	-13126
▁Cambio	-13127
▁Ferdin	-13128
▁Having	-13129
▁Health	-13130
▁Knight	-13131
▁NESTOR	-13132
▁Oberon	-13133
▁Oliver	-13134
▁Quince	-13135
▁Siward	-13136
▁THISBY	-13137
▁Tartar	-13138
▁Thrice	-13139
▁Wolsey	-13140
▁abound	-13141
▁admire	-13142
▁ambush	-13143
▁basely	-13144
▁bauble	-13145
▁betide	-13146
▁brands	-13147
▁bridal	-13148
▁bubble	-13149
▁checks	-13150
▁claims	-13151
▁clergy	-13152
▁compel	-13153
▁courts	-13154
▁darkly	-13155
▁deject	-13156
▁drench	-13157
▁drudge	-13158
▁easier	-13159
▁engend	-13160
▁exempt	-13161
▁extort	-13162
▁family	-13163
▁fasten	-13164
▁fathom	-13165
▁firmly	-13166
▁fitter	-13167
▁fleece	-13168
▁fondly	-13169
▁freeze	-13170
▁frosty	-13171
▁ginger	-13172
▁halter	-13173
▁hammer	-13174
▁hanged	-13175
▁haunts	-13176
▁hearty	-13177
▁hermit	-13178
▁hidden	-13179
▁impose	-13180
▁jerkin	-13181
▁jester	-13182
▁jocund	-13183
▁kindle	-13184
▁lances	-13185
▁laughs	-13186
▁learnt	-13187
▁lenity	-13188
▁lineal	-13189
▁livers	-13190
▁louder	-13191
▁luxury	-13192
▁massac	-13193
▁measur	-13194
▁mechan	-13195
▁mellow	-13196
▁melody	-13197
▁method	-13198
▁mildly	-13199
▁monkey	-13200
▁nicely	-13201
▁nymphs	-13202
▁odious	-13203
▁openly	-13204
▁outrun	-13205
▁oyster	-13206
▁packet	-13207
▁parish	-13208
▁pedlar	-13209
▁perils	-13210
▁powder	-13211
▁pranks	-13212
▁progen	-13213
▁puppet	-13214
▁quarre	-13215
▁rarely	-13216
▁rarest	-13217
▁relate	-13218
▁requir	-13219
▁rhymes	-13220
▁rigour	-13221
▁rivals	-13222
▁scythe	-13223
▁sequel	-13224
▁sexton	-13225
▁sheath	-13226
▁sicken	-13227
▁sprung	-13228
▁staves	-13229
▁sticks	-13230
▁suited	-13231
▁sunder	-13232
▁swells	-13233
▁thrall	-13234
▁tinker	-13235
▁tragic	-13236
▁treads	-13237
▁tribut	-13238
▁unborn	-13239
▁uncles	-13240
▁violet	-13241
▁wanted	-13242
▁waving	-13243
▁weighs	-13244
Benedick	-13245
Clarence	-13246
PROLOGUE	-13247
WHITMORE	-13248
Whispers	-13249
anything	-13250
ewksbury	-13251
occasion	-13252
thousand	-13253
▁Belmont	-13254
▁CALIBAN	-13255
▁Despair	-13256
▁Fairies	-13257
▁Hostess	-13258
▁Lartius	-13259
▁MIRANDA	-13260
▁Mariana	-13261
▁Marquis	-13262
▁Officer	-13263
▁PAULINA	-13264
▁Players	-13265
▁Present	-13266
▁SOLANIO	-13267
▁Silvius	-13268
▁Syracus	-13269
▁Tarquin	-13270
▁Tribune	-13271
▁Tuesday	-13272
▁admired	-13273
▁attaint	-13274
▁avoided	-13275
▁banners	-13276
▁begging	-13277
▁blasphe	-13278
▁blasted	-13279
▁breadth	-13280
▁breaths	-13281
▁bullets	-13282
▁burdens	-13283
▁castles	-13284
▁chanced	-13285
▁chariot	-13286
▁closely	-13287
▁corners	-13288
▁cornets	-13289
▁crosses	-13290
▁dastard	-13291
▁desired	-13292
▁discern	-13293
▁doubted	-13294
▁dungeon	-13295
▁endless	-13296
▁ensuing	-13297
▁equally	-13298
▁estates	-13299
▁finding	-13300
▁foolery	-13301
▁fresher	-13302
▁gentler	-13303
▁gesture	-13304
▁gratify	-13305
▁harness	-13306
▁hellish	-13307
▁huswife	-13308
▁invited	-13309
▁justify	-13310
▁lantern	-13311
▁lawless	-13312
▁maidens	-13313
▁melting	-13314
▁murders	-13315
▁opening	-13316
▁orderly	-13317
▁packing	-13318
▁painful	-13319
▁paragon	-13320
▁partial	-13321
▁perceiv	-13322
▁perfume	-13323
▁perplex	-13324
▁plotted	-13325
▁poisons	-13326
▁poorest	-13327
▁popular	-13328
▁prattle	-13329
▁pretend	-13330
▁profits	-13331
▁qualify	-13332
▁radiant	-13333
▁railing	-13334
▁raiment	-13335
▁replete	-13336
▁replied	-13337
▁robbery	-13338
▁savours	-13339
▁seemeth	-13340
▁shaking	-13341
▁showing	-13342
▁sojourn	-13343
▁spaniel	-13344
▁speaker	-13345
▁strives	-13346
▁tribune	-13347
▁uncivil	-13348
▁utterly	-13349
▁whistle	-13350
▁wisdoms	-13351
Advancing	-13352
Gentlemen	-13353
ORTENSIUS	-13354
VENTIDIUS	-13355
Vouchsafe	-13356
Wherefore	-13357
orpentine	-13358
something	-13359
urtherers	-13360
willingly	-13361
▁Approach	-13362
▁BEAUFORT	-13363
▁Berkeley	-13364
▁Bernardo	-13365
▁Consider	-13366
▁Countess	-13367
▁FLUELLEN	-13368
▁Ganymede	-13369
▁HUNTSMAN	-13370
▁MENELAUS	-13371
▁Meantime	-13372
▁PETITION	-13373
▁PROLOGUE	-13374
▁Philomel	-13375
▁Polydore	-13376
▁SOLDIERS	-13377
▁STEPHANO	-13378
▁STRANGER	-13379
▁Trumpets	-13380
▁VIRGILIA	-13381
▁VOLUMNIA	-13382
▁advocate	-13383
▁alehouse	-13384
▁bastardy	-13385
▁calendar	-13386
▁captives	-13387
▁carrying	-13388
▁casement	-13389
▁catching	-13390
▁cauldron	-13391
▁commence	-13392
▁construe	-13393
▁creeping	-13394
▁dedicate	-13395
▁differen	-13396
▁discreet	-13397
▁divinity	-13398
▁doctrine	-13399
▁dukedoms	-13400
▁effected	-13401
▁eternity	-13402
▁garlands	-13403
▁governor	-13404
▁humanity	-13405
▁impudent	-13406
▁indirect	-13407
▁inferior	-13408
▁insolent	-13409
▁justices	-13410
▁lanthorn	-13411
▁manifold	-13412
▁misdoubt	-13413
▁mutinous	-13414
▁northern	-13415
▁overcome	-13416
▁paradise	-13417
▁persever	-13418
▁piercing	-13419
▁praising	-13420
▁precepts	-13421
▁presents	-13422
▁pretence	-13423
▁rascally	-13424
▁relation	-13425
▁remedies	-13426
▁rhetoric	-13427
▁ruminate	-13428
▁slippery	-13429
▁stinking	-13430
▁strucken	-13431
▁suffered	-13432
▁supplied	-13433
▁suppress	-13434
▁timeless	-13435
▁trembles	-13436
▁trenches	-13437
▁triumphs	-13438
▁whipping	-13439
▁whispers	-13440
ARCHIDAMUS	-13441
BARNARDINE	-13442
BERGAVENNY	-13443
Henceforth	-13444
USTARDSEED	-13445
WILLOUGHBY	-13446
melancholy	-13447
▁APEMANTUS	-13448
▁Aquitaine	-13449
▁Calpurnia	-13450
▁Constance	-13451
▁Dolabella	-13452
▁Ferdinand	-13453
▁Frederick	-13454
▁Nathaniel	-13455
▁PATROCLUS	-13456
▁Servilius	-13457
▁Volumnius	-13458
▁adversary	-13459
▁afterward	-13460
▁carefully	-13461
▁certainty	-13462
▁confessor	-13463
▁confounds	-13464
▁consented	-13465
▁credulous	-13466
▁dispraise	-13467
▁expedient	-13468
▁functions	-13469
▁greyhound	-13470
▁imaginary	-13471
▁injurious	-13472
▁injustice	-13473
▁lightness	-13474
▁malignant	-13475
▁moonlight	-13476
▁moonshine	-13477
▁murtherer	-13478
▁overheard	-13479
▁perdition	-13480
▁prettiest	-13481
▁sacrament	-13482
▁shepherds	-13483
▁sparkling	-13484
▁thereupon	-13485
▁threefold	-13486
▁unwilling	-13487
▁utterance	-13488
▁wrangling	-13489
▁wrestling	-13490
counterfeit	-13491
▁Christians	-13492
▁LIEUTENANT	-13493
▁acceptance	-13494
▁attendance	-13495
▁bedchamber	-13496
▁cheerfully	-13497
▁comparison	-13498
▁complaints	-13499
▁compounded	-13500
▁considered	-13501
▁contention	-13502
▁courtesies	-13503
▁discovered	-13504
▁disdainful	-13505
▁distressed	-13506
▁forfeiture	-13507
▁guiltiness	-13508
▁indirectly	-13509
▁majestical	-13510
▁misfortune	-13511
▁obsequious	-13512
▁physicians	-13513
▁preferment	-13514
▁proclaimed	-13515
▁prophecies	-13516
▁recreation	-13517
▁repetition	-13518
▁revengeful	-13519
▁spectacles	-13520
▁strengthen	-13521
▁traitorous	-13522
▁wilderness	-13523
▁wrongfully	-13524
▁PLANTAGENET	-13525
▁accompanied	-13526
▁apprehended	-13527
▁battlements	-13528
▁commendable	-13529
▁conjunction	-13530
▁distinction	-13531
▁forgiveness	-13532
▁gentlewomen	-13533
▁ostentation	-13534
▁particulars	-13535
▁transported	-13536
▁troublesome	-13537
▁chastisement	-13538
▁commendation	-13539
▁construction	-13540
▁conversation	-13541
▁disobedience	-13542
▁instructions	-13543
▁peradventure	-13544
15	-13545
Bu	-13546
Im	-13547
Sn	-13548
cu	-13549
ga	-13550
▁)	-13551
!')	-13552
AUX	-13553
CER	-13554
CTA	-13555
Car	-13556
Cra	-13557
Dev	-13558
Dra	-13559
Fri	-13560
GOM	-13561
Gra	-13562
Hic	-13563
Hop	-13564
Inv	-13565
Met	-13566
NUG	-13567
OBW	-13568
ORE	-13569
PHI	-13570
Pom	-13571
STE	-13572
Sal	-13573
Sec	-13574
Sex	-13575
Sil	-13576
Sus	-13577
Win	-13578
arn	-13579
bat	-13580
bea	-13581
def	-13582
fin	-13583
fly	-13584
god	-13585
gor	-13586
haw	-13587
het	-13588
ivo	-13589
lay	-13590
ldo	-13591
lin	-13592
liz	-13593
nis	-13594
olt	-13595
pot	-13596
sal	-13597
sho	-13598
spe	-13599
ste	-13600
tru	-13601
wal	-13602
zar	-13603
▁BL	-13604
▁Er	-13605
▁Et	-13606
▁Sl	-13607
▁iv	-13608
▁oo	-13609
ASEB	-13610
Ajax	-13611
CALF	-13612
EBLE	-13613
EIPH	-13614
ELUN	-13615
EMPR	-13616
Fine	-13617
Five	-13618
Ford	-13619
Howe	-13620
Jove	-13621
LEUC	-13622
LOSS	-13623
Laid	-13624
OBUS	-13625
OLFE	-13626
ONSH	-13627
Prov	-13628
Rest	-13629
ULDY	-13630
UTTS	-13631
Weep	-13632
ache	-13633
acks	-13634
acon	-13635
aire	-13636
anon	-13637
arth	-13638
bbed	-13639
both	-13640
brew	-13641
brow	-13642
cass	-13643
cine	-13644
dist	-13645
elly	-13646
else	-13647
eres	-13648
erly	-13649
gans	-13650
gate	-13651
ggar	-13652
hage	-13653
hair	-13654
heet	-13655
hors	-13656
icle	-13657
igon	-13658
ival	-13659
lder	-13660
lost	-13661
lust	-13662
lves	-13663
owls	-13664
post	-13665
rets	-13666
rmid	-13667
scap	-13668
suck	-13669
tter	-13670
uced	-13671
uity	-13672
ukes	-13673
urre	-13674
utor	-13675
vial	-13676
view	-13677
walk	-13678
wark	-13679
wink	-13680
zzle	-13681
▁BRI	-13682
▁DRA	-13683
▁DUM	-13684
▁Dat	-13685
▁Exc	-13686
▁Fab	-13687
▁Imp	-13688
▁Lud	-13689
▁Mas	-13690
▁Med	-13691
▁NYM	-13692
▁Off	-13693
▁PHI	-13694
▁Rum	-13695
▁Sam	-13696
▁Sea	-13697
▁TIT	-13698
▁Tri	-13699
▁Tyr	-13700
▁cog	-13701
▁doe	-13702
▁eke	-13703
▁fen	-13704
▁fog	-13705
▁fum	-13706
▁gud	-13707
▁hug	-13708
▁lot	-13709
▁pea	-13710
▁rag	-13711
▁ram	-13712
▁rar	-13713
▁sew	-13714
▁sot	-13715
▁vat	-13716
ATHER	-13717
ATRIC	-13718
Adieu	-13719
Again	-13720
BAGOT	-13721
Bless	-13722
Brook	-13723
Creat	-13724
Doing	-13725
FAIRY	-13726
HENRY	-13727
Hadst	-13728
Heard	-13729
Keeps	-13730
MONER	-13731
OBWEB	-13732
PINCH	-13733
PRIAM	-13734
RIEST	-13735
Rough	-13736
Short	-13737
Spare	-13738
Trust	-13739
UTIUS	-13740
Worse	-13741
ached	-13742
aints	-13743
amnum	-13744
ardan	-13745
aurus	-13746
ccess	-13747
chang	-13748
cides	-13749
corax	-13750
dding	-13751
eapol	-13752
earch	-13753
eaten	-13754
eeble	-13755
elbow	-13756
elius	-13757
ended	-13758
enses	-13759
eware	-13760
eyton	-13761
fault	-13762
given	-13763
goose	-13764
hames	-13765
haste	-13766
ially	-13767
icial	-13768
icles	-13769
ircum	-13770
irits	-13771
itied	-13772
leven	-13773
liver	-13774
mandy	-13775
merry	-13776
metic	-13777
music	-13778
olyta	-13779
onday	-13780
onish	-13781
ooing	-13782
oring	-13783
ority	-13784
pable	-13785
phant	-13786
pherd	-13787
point	-13788
rated	-13789
ringe	-13790
rival	-13791
runes	-13792
score	-13793
sembl	-13794
serve	-13795
sheep	-13796
since	-13797
sleep	-13798
sworn	-13799
truth	-13800
uckoo	-13801
urate	-13802
venal	-13803
whole	-13804
wives	-13805
wreck	-13806
zzled	-13807
▁Best	-13808
▁Cain	-13809
▁Cart	-13810
▁HUME	-13811
▁Hard	-13812
▁Heme	-13813
▁Iach	-13814
▁Isis	-13815
▁Just	-13816
▁Maid	-13817
▁Mart	-13818
▁Nine	-13819
▁OCTA	-13820
▁PERD	-13821
▁Park	-13822
▁Pity	-13823
▁Rise	-13824
▁Tear	-13825
▁Wall	-13826
▁abed	-13827
▁ampl	-13828
▁awry	-13829
▁bagg	-13830
▁begs	-13831
▁bode	-13832
▁brav	-13833
▁brew	-13834
▁broo	-13835
▁burt	-13836
▁buys	-13837
▁cage	-13838
▁cart	-13839
▁chal	-13840
▁chas	-13841
▁clip	-13842
▁cows	-13843
▁cuff	-13844
▁daff	-13845
▁doit	-13846
▁enra	-13847
▁fust	-13848
▁garb	-13849
▁gaud	-13850
▁gibb	-13851
▁goat	-13852
▁gobl	-13853
▁hagg	-13854
▁harb	-13855
▁hawk	-13856
▁ides	-13857
▁inve	-13858
▁kick	-13859
▁kite	-13860
▁laug	-13861
▁lieu	-13862
▁lump	-13863
▁lurk	-13864
▁misg	-13865
▁obsc	-13866
▁owed	-13867
▁oxen	-13868
▁peal	-13869
▁pens	-13870
▁pins	-13871
▁puny	-13872
▁soar	-13873
▁spin	-13874
▁subt	-13875
▁sund	-13876
▁turf	-13877
▁unex	-13878
▁untr	-13879
▁unus	-13880
▁wage	-13881
▁wart	-13882
▁wive	-13883
BASSAD	-13884
CALPUR	-13885
Cassio	-13886
Coriol	-13887
Drinks	-13888
Expect	-13889
FEEBLE	-13890
GOMERY	-13891
Honour	-13892
Infect	-13893
LEUCUS	-13894
LOSSOM	-13895
Repair	-13896
Taking	-13897
Thrust	-13898
amples	-13899
atisfy	-13900
attend	-13901
berate	-13902
borrow	-13903
bserve	-13904
common	-13905
culiar	-13906
earing	-13907
entive	-13908
erning	-13909
finger	-13910
footed	-13911
iation	-13912
icular	-13913
igonus	-13914
ilding	-13915
irmish	-13916
itious	-13917
itizen	-13918
mighty	-13919
odious	-13920
ounted	-13921
rances	-13922
search	-13923
seeing	-13924
simple	-13925
spirit	-13926
spoken	-13927
temper	-13928
ulling	-13929
umbers	-13930
unting	-13931
vering	-13932
vernor	-13933
▁Arden	-13934
▁CORIN	-13935
▁CURIO	-13936
▁Close	-13937
▁Elbow	-13938
▁Fates	-13939
▁India	-13940
▁James	-13941
▁Jewry	-13942
▁Lethe	-13943
▁Licio	-13944
▁Menas	-13945
▁Night	-13946
▁PRIAM	-13947
▁Phryg	-13948
▁Proud	-13949
▁Prove	-13950
▁Quick	-13951
▁SIXTH	-13952
▁SPEED	-13953
▁Seven	-13954
▁Shore	-13955
▁THERS	-13956
▁Throw	-13957
▁Turks	-13958
▁White	-13959
▁Widow	-13960
▁Words	-13961
▁acted	-13962
▁adorn	-13963
▁amber	-13964
▁angle	-13965
▁aptly	-13966
▁arith	-13967
▁awful	-13968
▁bandy	-13969
▁bated	-13970
▁bonny	-13971
▁brake	-13972
▁broil	-13973
▁camps	-13974
▁chaps	-13975
▁clime	-13976
▁colle	-13977
▁coven	-13978
▁cramm	-13979
▁cudge	-13980
▁cures	-13981
▁darts	-13982
▁defil	-13983
▁dirty	-13984
▁dregs	-13985
▁earls	-13986
▁effem	-13987
▁elves	-13988
▁endow	-13989
▁expos	-13990
▁filth	-13991
▁flows	-13992
▁forgo	-13993
▁galls	-13994
▁gusts	-13995
▁haven	-13996
▁havoc	-13997
▁heaps	-13998
▁heigh	-13999
▁hinds	-14000
▁hobby	-14001
▁holes	-14002
▁irons	-14003
▁juice	-14004
▁kerns	-14005
▁liars	-14006
▁lousy	-14007
▁masqu	-14008
▁minst	-14009
▁musty	-14010
▁ninth	-14011
▁paces	-14012
▁plume	-14013
▁poise	-14014
▁puppy	-14015
▁rider	-14016
▁rides	-14017
▁saith	-14018
▁sandy	-14019
▁sched	-14020
▁shunn	-14021
▁skies	-14022
▁sloth	-14023
▁smelt	-14024
▁smock	-14025
▁sores	-14026
▁spill	-14027
▁stalk	-14028
▁stint	-14029
▁swing	-14030
▁thron	-14031
▁tithe	-14032
▁unacc	-14033
▁unfit	-14034
▁unity	-14035
▁unwho	-14036
▁upper	-14037
▁valor	-14038
▁vaunt	-14039
▁vigil	-14040
▁weeks	-14041
▁whips	-14042
▁wight	-14043
▁wreak	-14044
ARDENER	-14045
ASTOLFE	-14046
Already	-14047
BRANDON	-14048
Bohemia	-14049
Corrupt	-14050
Courage	-14051
Disdain	-14052
Embrace	-14053
Finding	-14054
Herself	-14055
ONSHINE	-14056
RUTLAND	-14057
SERVING	-14058
STEWARD	-14059
Seeking	-14060
Showing	-14061
Thither	-14062
Thyself	-14063
Trumpet	-14064
ULLCALF	-14065
ability	-14066
aculate	-14067
aminius	-14068
animous	-14069
because	-14070
brought	-14071
burning	-14072
cession	-14073
ciences	-14074
command	-14075
company	-14076
content	-14077
counsel	-14078
ensible	-14079
entimes	-14080
entious	-14081
furnish	-14082
honesty	-14083
hundred	-14084
illains	-14085
irtuous	-14086
jurious	-14087
masters	-14088
ontents	-14089
perform	-14090
raction	-14091
seeming	-14092
spotted	-14093
wearied	-14094
welcome	-14095
worship	-14096
▁AEDILE	-14097
▁Adrian	-14098
▁August	-14099
▁Avaunt	-14100
▁BEADLE	-14101
▁Briton	-14102
▁Cadwal	-14103
▁Cannot	-14104
▁Chiron	-14105
▁DUMAIN	-14106
▁Fabian	-14107
▁Glamis	-14108
▁Monday	-14109
▁Mutius	-14110
▁Myrmid	-14111
▁Neapol	-14112
▁PEDANT	-14113
▁Pandar	-14114
▁QUINCE	-14115
▁Reason	-14116
▁SCARUS	-14117
▁SCROOP	-14118
▁Samson	-14119
▁Strato	-14120
▁Thames	-14121
▁Tullus	-14122
▁Tyrrel	-14123
▁Verges	-14124
▁Virtue	-14125
▁achiev	-14126
▁adding	-14127
▁bearer	-14128
▁beetle	-14129
▁behavi	-14130
▁belied	-14131
▁bended	-14132
▁blasts	-14133
▁bleeds	-14134
▁briers	-14135
▁broker	-14136
▁buckle	-14137
▁clothe	-14138
▁copper	-14139
▁delays	-14140
▁detect	-14141
▁eating	-14142
▁eclips	-14143
▁embark	-14144
▁enroll	-14145
▁exeunt	-14146
▁expost	-14147
▁fardel	-14148
▁fouler	-14149
▁gaping	-14150
▁garter	-14151
▁grooms	-14152
▁hasten	-14153
▁hiding	-14154
▁humane	-14155
▁idolat	-14156
▁incest	-14157
▁infall	-14158
▁judges	-14159
▁lackey	-14160
▁lawyer	-14161
▁legate	-14162
▁lovest	-14163
▁martyr	-14164
▁masque	-14165
▁mature	-14166
▁minist	-14167
▁miscon	-14168
▁misuse	-14169
▁moneys	-14170
▁needle	-14171
▁nerves	-14172
▁nether	-14173
▁obscur	-14174
▁outlaw	-14175
▁penury	-14176
▁pirate	-14177
▁played	-14178
▁poorly	-14179
▁pulpit	-14180
▁raised	-14181
▁realms	-14182
▁remote	-14183
▁rooted	-14184
▁safest	-14185
▁sealed	-14186
▁solace	-14187
▁string	-14188
▁subdue	-14189
▁suppli	-14190
▁tallow	-14191
▁taunts	-14192
▁trades	-14193
▁trains	-14194
▁tumble	-14195
▁unlook	-14196
▁untrue	-14197
▁vapour	-14198
▁weaver	-14199
▁whores	-14200
▁wooden	-14201
▁wooers	-14202
EIPHOBUS	-14203
LUCULLUS	-14204
Laurence	-14205
MARULLUS	-14206
PHILOTUS	-14207
Patience	-14208
Pointing	-14209
SICILIUS	-14210
Straight	-14211
begotten	-14212
breeding	-14213
chandise	-14214
favoured	-14215
fections	-14216
ippolyta	-14217
othecary	-14218
quainted	-14219
unchient	-14220
▁ADRIANA	-14221
▁Alarums	-14222
▁BEROWNE	-14223
▁Calchas	-14224
▁Centaur	-14225
▁Conrade	-14226
▁Corinth	-14227
▁Cranmer	-14228
▁DAUPHIN	-14229
▁Iachimo	-14230
▁MARDIAN	-14231
▁MARTIUS	-14232
▁MOWBRAY	-14233
▁Monster	-14234
▁PERDITA	-14235
▁Parthia	-14236
▁QUINTUS	-14237
▁Sheriff	-14238
▁Sycorax	-14239
▁THESEUS	-14240
▁TITANIA	-14241
▁Titania	-14242
▁accents	-14243
▁arraign	-14244
▁arrived	-14245
▁augment	-14246
▁baggage	-14247
▁baleful	-14248
▁battery	-14249
▁betroth	-14250
▁bewitch	-14251
▁candles	-14252
▁carcass	-14253
▁caskets	-14254
▁cheerly	-14255
▁citadel	-14256
▁confisc	-14257
▁congreg	-14258
▁consume	-14259
▁contemn	-14260
▁cushion	-14261
▁decreed	-14262
▁direful	-14263
▁disclos	-14264
▁durance	-14265
▁earthqu	-14266
▁enquire	-14267
▁evident	-14268
▁fitting	-14269
▁forerun	-14270
▁fortify	-14271
▁freshly	-14272
▁fulfill	-14273
▁ghostly	-14274
▁gossips	-14275
▁grapple	-14276
▁hatches	-14277
▁haunted	-14278
▁heralds	-14279
▁incline	-14280
▁inhuman	-14281
▁kitchen	-14282
▁knavish	-14283
▁license	-14284
▁lioness	-14285
▁lullaby	-14286
▁merited	-14287
▁mermaid	-14288
▁merrier	-14289
▁missing	-14290
▁mortals	-14291
▁moulded	-14292
▁muffled	-14293
▁musical	-14294
▁offends	-14295
▁orphans	-14296
▁partake	-14297
▁planets	-14298
▁portion	-14299
▁praying	-14300
▁prolong	-14301
▁prouder	-14302
▁pursues	-14303
▁pursuiv	-14304
▁quicken	-14305
▁regards	-14306
▁regions	-14307
▁release	-14308
▁richest	-14309
▁royally	-14310
▁servile	-14311
▁session	-14312
▁sheathe	-14313
▁sincere	-14314
▁sprites	-14315
▁starved	-14316
▁staying	-14317
▁suburbs	-14318
▁suggest	-14319
▁summers	-14320
▁supreme	-14321
▁sweeten	-14322
▁swiftly	-14323
▁tailors	-14324
▁trivial	-14325
▁vapours	-14326
▁verdict	-14327
▁violets	-14328
▁virgins	-14329
▁vizards	-14330
▁whereby	-14331
▁wrestle	-14332
CALPURNIA	-14333
EMPRONIUS	-14334
FITZWATER	-14335
FRENCHMAN	-14336
condition	-14337
▁Bullcalf	-14338
▁COMMONER	-14339
▁Carthage	-14340
▁Grecians	-14341
▁HERMIONE	-14342
▁Holiness	-14343
▁Normandy	-14344
▁Pembroke	-14345
▁Ratcliff	-14346
▁Senators	-14347
▁abhorred	-14348
▁becoming	-14349
▁befriend	-14350
▁benefits	-14351
▁betrayed	-14352
▁bracelet	-14353
▁bragging	-14354
▁breeches	-14355
▁cloister	-14356
▁confused	-14357
▁demanded	-14358
▁departed	-14359
▁dialogue	-14360
▁dispense	-14361
▁distrust	-14362
▁downfall	-14363
▁dreaming	-14364
▁entirely	-14365
▁esteemed	-14366
▁external	-14367
▁eyesight	-14368
▁factions	-14369
▁fainting	-14370
▁fashions	-14371
▁feasting	-14372
▁gamester	-14373
▁generals	-14374
▁honoured	-14375
▁imminent	-14376
▁industry	-14377
▁mannerly	-14378
▁measures	-14379
▁mightier	-14380
▁mildness	-14381
▁military	-14382
▁miracles	-14383
▁mounting	-14384
▁mournful	-14385
▁obdurate	-14386
▁parallel	-14387
▁pavilion	-14388
▁peasants	-14389
▁peculiar	-14390
▁peerless	-14391
▁pictures	-14392
▁poisoned	-14393
▁proceeds	-14394
▁purposed	-14395
▁reconcil	-14396
▁recorded	-14397
▁recovery	-14398
▁regiment	-14399
▁requital	-14400
▁resemble	-14401
▁returned	-14402
▁revenged	-14403
▁revenues	-14404
▁selfsame	-14405
▁sergeant	-14406
▁solemnly	-14407
▁sunshine	-14408
▁temporal	-14409
▁timorous	-14410
▁unjustly	-14411
▁welcomes	-14412
▁womanish	-14413
▁woodcock	-14414
▁wrestler	-14415
ANDROMACHE	-14416
ASEBLOSSOM	-14417
CANTERBURY	-14418
EUPHRONIUS	-14419
HORTENSIUS	-14420
Presenting	-14421
▁AUTOLYCUS	-14422
▁Antigonus	-14423
▁Chatillon	-14424
▁DOLABELLA	-14425
▁Epidamnum	-14426
▁THERSITES	-14427
▁Tewksbury	-14428
▁Volscians	-14429
▁Vouchsafe	-14430
▁Wiltshire	-14431
▁afflicted	-14432
▁appertain	-14433
▁audacious	-14434
▁carriages	-14435
▁childhood	-14436
▁churchman	-14437
▁commotion	-14438
▁conquered	-14439
▁converted	-14440
▁counterpo	-14441
▁countries	-14442
▁courtship	-14443
▁dalliance	-14444
▁declining	-14445
▁depending	-14446
▁dominions	-14447
▁doubtless	-14448
▁education	-14449
▁exchequer	-14450
▁fearfully	-14451
▁fourscore	-14452
▁halfpenny	-14453
▁housewife	-14454
▁howsoever	-14455
▁imperfect	-14456
▁instances	-14457
▁insulting	-14458
▁mightiest	-14459
▁mischiefs	-14460
▁mounsieur	-14461
▁murderous	-14462
▁obsequies	-14463
▁parchment	-14464
▁pestilent	-14465
▁petticoat	-14466
▁probation	-14467
▁provision	-14468
▁quietness	-14469
▁recovered	-14470
▁reprehend	-14471
▁righteous	-14472
▁safeguard	-14473
▁scattered	-14474
▁shameless	-14475
▁spiritual	-14476
▁strengths	-14477
▁suspected	-14478
▁sweetness	-14479
▁translate	-14480
▁uncertain	-14481
▁uttermost	-14482
Immediately	-14483
PHILOSTRATE	-14484
▁Henceforth	-14485
▁LONGAVILLE	-14486
▁PETITIONER	-14487
▁SATURNINUS	-14488
▁Syracusian	-14489
▁arithmetic	-14490
▁changeling	-14491
▁commanders	-14492
▁conception	-14493
▁confounded	-14494
▁conveyance	-14495
▁courageous	-14496
▁effeminate	-14497
▁favourites	-14498
▁grievances	-14499
▁humbleness	-14500
▁imposition	-14501
▁imputation	-14502
▁maidenhead	-14503
▁meditation	-14504
▁mistresses	-14505
▁multitudes	-14506
▁oftentimes	-14507
▁passionate	-14508
▁repentance	-14509
▁sanctified	-14510
▁thankfully	-14511
▁throughout	-14512
▁ungracious	-14513
▁wantonness	-14514
▁Westminster	-14515
▁brotherhood	-14516
▁ceremonious	-14517
▁comparisons	-14518
▁conclusions	-14519
▁differences	-14520
▁discontents	-14521
▁impediments	-14522
▁interchange	-14523
▁intolerable	-14524
▁perfections	-14525
▁prerogative	-14526
▁soldiership	-14527
▁straightway	-14528
▁unwholesome	-14529
▁neighbourhood	-14530
..	-14531
3.	-14532
Od	-14533
Pe	-14534
Ra	-14535
TO	-14536
ai	-14537
ev	-14538
oa	-14539
sk	-14540
.--	-14541
ACK	-14542
AEL	-14543
AMY	-14544
BIO	-14545
Cle	-14546
ERK	-14547
Far	-14548
Hum	-14549
MET	-14550
Mac	-14551
Mal	-14552
Mel	-14553
Ple	-14554
RIS	-14555
Ref	-14556
Sad	-14557
TIM	-14558
URI	-14559
UTH	-14560
Unm	-14561
Vis	-14562
aks	-14563
aub	-14564
bbo	-14565
cod	-14566
cue	-14567
cut	-14568
dro	-14569
elf	-14570
eze	-14571
fal	-14572
fam	-14573
iby	-14574
igm	-14575
igs	-14576
irr	-14577
leg	-14578
lem	-14579
lla	-14580
mal	-14581
moi	-14582
nch	-14583
nut	-14584
oil	-14585
olo	-14586
oys	-14587
pay	-14588
ped	-14589
pie	-14590
qua	-14591
ral	-14592
tun	-14593
uel	-14594
unn	-14595
web	-14596
yes	-14597
zed	-14598
▁10	-14599
▁AE	-14600
▁Ae	-14601
▁Aw	-14602
▁Gl	-14603
▁IX	-14604
▁Os	-14605
▁eb	-14606
▁ma	-14607
▁ou	-14608
AGON	-14609
ANCA	-14610
Arch	-14611
BOUR	-14612
Bade	-14613
Blow	-14614
Born	-14615
Cham	-14616
Coll	-14617
Fort	-14618
Goes	-14619
Gold	-14620
HUME	-14621
Hard	-14622
Home	-14623
Inst	-14624
JUNO	-14625
Kill	-14626
Less	-14627
Next	-14628
OURT	-14629
PIND	-14630
Pale	-14631
Past	-14632
Pier	-14633
Post	-14634
Prod	-14635
Rise	-14636
Seal	-14637
Sirs	-14638
Soft	-14639
Stud	-14640
Thee	-14641
Told	-14642
Weak	-14643
Writ	-14644
aeus	-14645
agot	-14646
amin	-14647
anda	-14648
anqu	-14649
arel	-14650
atre	-14651
aver	-14652
ball	-14653
berd	-14654
best	-14655
bird	-14656
bolt	-14657
bric	-14658
chin	-14659
cled	-14660
dead	-14661
dear	-14662
diss	-14663
dost	-14664
duty	-14665
eems	-14666
eman	-14667
emon	-14668
four	-14669
free	-14670
geal	-14671
geus	-14672
hery	-14673
heth	-14674
hies	-14675
iate	-14676
icat	-14677
icet	-14678
ieth	-14679
iffs	-14680
ilth	-14681
iors	-14682
irts	-14683
isco	-14684
ivoc	-14685
ledg	-14686
mary	-14687
mast	-14688
need	-14689
nery	-14690
oeur	-14691
omit	-14692
only	-14693
ooth	-14694
ores	-14695
oriz	-14696
orts	-14697
oves	-14698
pers	-14699
pill	-14700
poke	-14701
quar	-14702
rais	-14703
rasc	-14704
rear	-14705
rece	-14706
rors	-14707
rums	-14708
send	-14709
sent	-14710
sium	-14711
slow	-14712
stri	-14713
suit	-14714
sure	-14715
uade	-14716
usky	-14717
went	-14718
wilt	-14719
xter	-14720
▁Act	-14721
▁Arg	-14722
▁BOT	-14723
▁GON	-14724
▁Gen	-14725
▁Mad	-14726
▁Mor	-14727
▁Oft	-14728
▁Osw	-14729
▁Res	-14730
▁Rho	-14731
▁Sec	-14732
▁Sem	-14733
▁VER	-14734
▁Vul	-14735
▁adj	-14736
▁agg	-14737
▁aus	-14738
▁bak	-14739
▁bur	-14740
▁coy	-14741
▁dug	-14742
▁ger	-14743
▁gib	-14744
▁gig	-14745
▁gle	-14746
▁gum	-14747
▁hem	-14748
▁hog	-14749
▁icy	-14750
▁ish	-14751
▁ker	-14752
▁lag	-14753
▁lep	-14754
▁maw	-14755
▁omn	-14756
▁pac	-14757
▁soe	-14758
▁vag	-14759
▁vic	-14760
▁vil	-14761
▁wan	-14762
▁yew	-14763
ALLUS	-14764
Abate	-14765
BIGOT	-14766
Black	-14767
Brave	-14768
Brief	-14769
CAPUC	-14770
Clock	-14771
Cried	-14772
Cupid	-14773
Doubt	-14774
Drawn	-14775
Durst	-14776
ECRET	-14777
ELLUS	-14778
EXTON	-14779
Enjoy	-14780
Every	-14781
Fight	-14782
Going	-14783
Happy	-14784
IDORE	-14785
KELEY	-14786
Kneel	-14787
LINOR	-14788
MENTE	-14789
Mercy	-14790
OLERS	-14791
ONDON	-14792
PIRIT	-14793
Peter	-14794
Provo	-14795
Quick	-14796
RYNIA	-14797
Shows	-14798
Spoke	-14799
Stabb	-14800
Start	-14801
Steps	-14802
Stick	-14803
Stoop	-14804
Storm	-14805
TAINE	-14806
Timon	-14807
URION	-14808
abble	-14809
abeth	-14810
above	-14811
adoes	-14812
advis	-14813
agate	-14814
alled	-14815
arage	-14816
arily	-14817
atech	-14818
bered	-14819
brand	-14820
cheek	-14821
chery	-14822
clown	-14823
cover	-14824
dains	-14825
drawn	-14826
eller	-14827
erdon	-14828
evern	-14829
grand	-14830
green	-14831
hears	-14832
icher	-14833
igate	-14834
iners	-14835
iture	-14836
knave	-14837
liena	-14838
loves	-14839
naldo	-14840
ondam	-14841
orted	-14842
oving	-14843
pated	-14844
peius	-14845
proud	-14846
pture	-14847
rable	-14848
redit	-14849
reech	-14850
repar	-14851
ribut	-14852
roses	-14853
seven	-14854
sings	-14855
sters	-14856
sword	-14857
those	-14858
tongu	-14859
ulets	-14860
uming	-14861
umvir	-14862
ushes	-14863
uting	-14864
utish	-14865
watch	-14866
wench	-14867
years	-14868
▁Afri	-14869
▁Agin	-14870
▁Army	-14871
▁Bind	-14872
▁Bold	-14873
▁Came	-14874
▁Cold	-14875
▁Cret	-14876
▁DAVY	-14877
▁Eliz	-14878
▁Fast	-14879
▁Fate	-14880
▁Flav	-14881
▁Gods	-14882
▁Hall	-14883
▁Hume	-14884
▁Iden	-14885
▁Made	-14886
▁Mass	-14887
▁Meet	-14888
▁Mist	-14889
▁Near	-14890
▁Note	-14891
▁Past	-14892
▁Sail	-14893
▁Sard	-14894
▁Sout	-14895
▁Span	-14896
▁Walk	-14897
▁Whom	-14898
▁Wind	-14899
▁ador	-14900
▁aqua	-14901
▁bane	-14902
▁bass	-14903
▁beer	-14904
▁besm	-14905
▁bier	-14906
▁bits	-14907
▁bout	-14908
▁carb	-14909
▁caut	-14910
▁conn	-14911
▁cran	-14912
▁cres	-14913
▁cust	-14914
▁danc	-14915
▁dank	-14916
▁daws	-14917
▁dews	-14918
▁dive	-14919
▁drug	-14920
▁erst	-14921
▁exil	-14922
▁fade	-14923
▁fenc	-14924
▁flax	-14925
▁flay	-14926
▁flea	-14927
▁fopp	-14928
▁ford	-14929
▁forn	-14930
▁goot	-14931
▁hero	-14932
▁hive	-14933
▁hogs	-14934
▁hoof	-14935
▁hoop	-14936
▁intr	-14937
▁irks	-14938
▁joll	-14939
▁kern	-14940
▁lace	-14941
▁logs	-14942
▁lour	-14943
▁lout	-14944
▁lugg	-14945
▁mand	-14946
▁mare	-14947
▁mead	-14948
▁mong	-14949
▁mote	-14950
▁musk	-14951
▁nour	-14952
▁orig	-14953
▁parl	-14954
▁pell	-14955
▁pend	-14956
▁penn	-14957
▁plag	-14958
▁ramp	-14959
▁ribb	-14960
▁ridd	-14961
▁robs	-14962
▁rous	-14963
▁rung	-14964
▁sect	-14965
▁shak	-14966
▁skip	-14967
▁slut	-14968
▁snat	-14969
▁span	-14970
▁stag	-14971
▁stif	-14972
▁trip	-14973
▁unho	-14974
▁unsh	-14975
▁vest	-14976
▁vult	-14977
▁ware	-14978
ARRIUS	-14979
Arthur	-14980
Banish	-14981
Became	-14982
Beside	-14983
Contin	-14984
Convey	-14985
Enough	-14986
GARIUS	-14987
HERALD	-14988
HORNER	-14989
Hamlet	-14990
ICHAEL	-14991
Knocks	-14992
Lucius	-14993
MORRIS	-14994
MORTON	-14995
ROBERT	-14996
Receiv	-14997
Remain	-14998
Repent	-14999
SEYTON	-15000
Sleeps	-15001
Withal	-15002
aching	-15003
actors	-15004
adders	-15005
astern	-15006
beaten	-15007
behold	-15008
cerity	-15009
choose	-15010
ciless	-15011
contin	-15012
defend	-15013
ditary	-15014
enting	-15015
figure	-15016
handed	-15017
hastly	-15018
horses	-15019
icient	-15020
ighted	-15021
ishops	-15022
istory	-15023
itated	-15024
itting	-15025
kshire	-15026
labour	-15027
lessed	-15028
letter	-15029
makers	-15030
making	-15031
morris	-15032
nation	-15033
ontory	-15034
orning	-15035
ossoms	-15036
oubled	-15037
ourses	-15038
outing	-15039
parent	-15040
perion	-15041
plague	-15042
please	-15043
prince	-15044
quires	-15045
racing	-15046
raided	-15047
render	-15048
rength	-15049
rested	-15050
ribute	-15051
rights	-15052
ronted	-15053
stocks	-15054
uckold	-15055
usband	-15056
ustria	-15057
vented	-15058
▁Abbey	-15059
▁Admir	-15060
▁Angus	-15061
▁BAGOT	-15062
▁Bagot	-15063
▁Bushy	-15064
▁Coeur	-15065
▁DIANA	-15066
▁Dutch	-15067
▁Fairy	-15068
▁GAUNT	-15069
▁Haste	-15070
▁Herod	-15071
▁Holla	-15072
▁Ilion	-15073
▁LANCA	-15074
▁NURSE	-15075
▁Nilus	-15076
▁Osric	-15077
▁PHILO	-15078
▁Prick	-15079
▁SNOUT	-15080
▁SOUTH	-15081
▁Seest	-15082
▁Smith	-15083
▁Snare	-15084
▁Spare	-15085
▁Spart	-15086
▁Tarry	-15087
▁Thine	-15088
▁Twice	-15089
▁Yours	-15090
▁abrid	-15091
▁admon	-15092
▁adult	-15093
▁agony	-15094
▁asses	-15095
▁avail	-15096
▁barks	-15097
▁basis	-15098
▁bathe	-15099
▁beach	-15100
▁becom	-15101
▁beset	-15102
▁boats	-15103
▁bodes	-15104
▁bourn	-15105
▁brags	-15106
▁brawn	-15107
▁bribe	-15108
▁brier	-15109
▁cargo	-15110
▁caves	-15111
▁clipp	-15112
▁clubs	-15113
▁coals	-15114
▁compt	-15115
▁cools	-15116
▁cough	-15117
▁counc	-15118
▁cream	-15119
▁cropp	-15120
▁dealt	-15121
▁deign	-15122
▁deity	-15123
▁disli	-15124
▁dross	-15125
▁ducat	-15126
▁dukes	-15127
▁dusky	-15128
▁edict	-15129
▁enact	-15130
▁excel	-15131
▁exter	-15132
▁extra	-15133
▁fates	-15134
▁finer	-15135
▁flour	-15136
▁flown	-15137
▁forci	-15138
▁gaudy	-15139
▁grasp	-15140
▁graze	-15141
▁greed	-15142
▁hardy	-15143
▁hilts	-15144
▁hoard	-15145
▁hurly	-15146
▁kinds	-15147
▁leapt	-15148
▁lucky	-15149
▁masks	-15150
▁mated	-15151
▁meals	-15152
▁metap	-15153
▁needy	-15154
▁newer	-15155
▁olive	-15156
▁ounce	-15157
▁pagan	-15158
▁pages	-15159
▁pense	-15160
▁pipes	-15161
▁poets	-15162
▁prede	-15163
▁pyram	-15164
▁quart	-15165
▁quell	-15166
▁rails	-15167
▁repro	-15168
▁repul	-15169
▁reviv	-15170
▁riots	-15171
▁roars	-15172
▁ruler	-15173
▁saves	-15174
▁scare	-15175
▁seeds	-15176
▁shock	-15177
▁skins	-15178
▁slily	-15179
▁solus	-15180
▁sorce	-15181
▁steer	-15182
▁strut	-15183
▁swarm	-15184
▁synod	-15185
▁testy	-15186
▁thirt	-15187
▁thres	-15188
▁tires	-15189
▁twink	-15190
▁unman	-15191
▁unmat	-15192
▁unple	-15193
▁untie	-15194
▁usher	-15195
▁usual	-15196
▁viper	-15197
▁weird	-15198
▁whale	-15199
▁windy	-15200
▁wooed	-15201
▁wrack	-15202
Beseech	-15203
Brought	-15204
Charles	-15205
Deserve	-15206
Despite	-15207
Destroy	-15208
ECUTION	-15209
EPHESUS	-15210
Further	-15211
Majesty	-15212
Married	-15213
Perform	-15214
Retires	-15215
Shallow	-15216
Success	-15217
Treason	-15218
Whoever	-15219
ardseed	-15220
bellion	-15221
blossom	-15222
cerning	-15223
cessant	-15224
erwhelm	-15225
fathers	-15226
ificial	-15227
ipotent	-15228
isander	-15229
itution	-15230
jealous	-15231
jection	-15232
liction	-15233
missive	-15234
onounce	-15235
ossible	-15236
ouchsaf	-15237
ouncing	-15238
ounding	-15239
passion	-15240
raising	-15241
receive	-15242
stained	-15243
telling	-15244
through	-15245
valiant	-15246
▁Albion	-15247
▁BOTTOM	-15248
▁Banish	-15249
▁Beware	-15250
▁CAMBIO	-15251
▁Clitus	-15252
▁Common	-15253
▁Curtis	-15254
▁DRAWER	-15255
▁Daniel	-15256
▁Danish	-15257
▁Dardan	-15258
▁Direct	-15259
▁Double	-15260
▁ELINOR	-15261
▁FENTON	-15262
▁Feeble	-15263
▁ISABEL	-15264
▁Majest	-15265
▁Minola	-15266
▁Oswald	-15267
▁PORTER	-15268
▁Pretty	-15269
▁Rhodes	-15270
▁Rumour	-15271
▁SPIRIT	-15272
▁Severn	-15273
▁Shadow	-15274
▁Sicily	-15275
▁Softly	-15276
▁Stands	-15277
▁Taurus	-15278
▁Twenty	-15279
▁Virgin	-15280
▁Vulcan	-15281
▁Whilst	-15282
▁abides	-15283
▁across	-15284
▁acting	-15285
▁active	-15286
▁admits	-15287
▁allies	-15288
▁arbour	-15289
▁assign	-15290
▁barons	-15291
▁beadle	-15292
▁beaver	-15293
▁bellow	-15294
▁betake	-15295
▁bewray	-15296
▁brawls	-15297
▁brooch	-15298
▁bruise	-15299
▁canary	-15300
▁career	-15301
▁carved	-15302
▁catech	-15303
▁chairs	-15304
▁cloven	-15305
▁coffer	-15306
▁colder	-15307
▁colors	-15308
▁comely	-15309
[...]
